{
  "version": "1.0",
  "truncation": null,
  "padding": null,
  "added_tokens": [
    {
      "id": 0,
      "content": "<|mask|>",
      "single_word": false,
      "lstrip": false,
      "rstrip": false,
      "normalized": false,
      "special": true
    },
    {
      "id": 1,
      "content": "<|endoftext|>",
      "single_word": false,
      "lstrip": false,
      "rstrip": false,
      "normalized": false,
      "special": true
    },
    {
      "id": 2,
      "content": "<|padding|>",
      "single_word": false,
      "lstrip": false,
      "rstrip": false,
      "normalized": false,
      "special": true
    },
    {
      "id": 3,
      "content": "<|im_start|>",
      "single_word": false,
      "lstrip": false,
      "rstrip": false,
      "normalized": false,
      "special": true
    },
    {
      "id": 4,
      "content": "<|im_end|>",
      "single_word": false,
      "lstrip": false,
      "rstrip": false,
      "normalized": false,
      "special": true
    },
    {
      "id": 5,
      "content": "<|system|>",
      "single_word": false,
      "lstrip": false,
      "rstrip": false,
      "normalized": false,
      "special": true
    },
    {
      "id": 6,
      "content": "<|user|>",
      "single_word": false,
      "lstrip": false,
      "rstrip": false,
      "normalized": false,
      "special": true
    },
    {
      "id": 7,
      "content": "<|assistant|>",
      "single_word": false,
      "lstrip": false,
      "rstrip": false,
      "normalized": false,
      "special": true
    },
    {
      "id": 8,
      "content": "<think>",
      "single_word": false,
      "lstrip": false,
      "rstrip": false,
      "normalized": false,
      "special": true
    },
    {
      "id": 9,
      "content": "</think>",
      "single_word": false,
      "lstrip": false,
      "rstrip": false,
      "normalized": false,
      "special": true
    },
    {
      "id": 10,
      "content": "<tool_call>",
      "single_word": false,
      "lstrip": false,
      "rstrip": false,
      "normalized": false,
      "special": true
    },
    {
      "id": 11,
      "content": "</tool_call>",
      "single_word": false,
      "lstrip": false,
      "rstrip": false,
      "normalized": false,
      "special": true
    },
    {
      "id": 12,
      "content": "<tool_response>",
      "single_word": false,
      "lstrip": false,
      "rstrip": false,
      "normalized": false,
      "special": true
    },
    {
      "id": 13,
      "content": "</tool_response>",
      "single_word": false,
      "lstrip": false,
      "rstrip": false,
      "normalized": false,
      "special": true
    }
  ],
  "normalizer": {
    "type": "NFC"
  },
  "pre_tokenizer": {
    "type": "Sequence",
    "pretokenizers": [
      {
        "type": "Split",
        "pattern": {
          "Regex": "(?i:'s|'t|'re|'ve|'m|'ll|'d)|[^\\r\\n\\p{L}\\p{N}]?\\p{L}+|\\p{N}| ?[^\\s\\p{L}\\p{N}]+[\\r\\n]*|\\s*[\\r\\n]+|\\s+(?!\\S)|\\s+"
        },
        "behavior": "Isolated",
        "invert": false
      },
      {
        "type": "ByteLevel",
        "add_prefix_space": false,
        "trim_offsets": true,
        "use_regex": false
      }
    ]
  },
  "post_processor": null,
  "decoder": {
    "type": "ByteLevel",
    "add_prefix_space": true,
    "trim_offsets": true,
    "use_regex": true
  },
  "model": {
    "type": "BPE",
    "dropout": null,
    "unk_token": null,
    "continuing_subword_prefix": null,
    "end_of_word_suffix": null,
    "fuse_unk": false,
    "byte_fallback": false,
    "ignore_merges": false,
    "vocab": {
      "<|mask|>": 0,
      "<|endoftext|>": 1,
      "<|padding|>": 2,
      "<|im_start|>": 3,
      "<|im_end|>": 4,
      "<|system|>": 5,
      "<|user|>": 6,
      "<|assistant|>": 7,
      "<think>": 8,
      "</think>": 9,
      "<tool_call>": 10,
      "</tool_call>": 11,
      "<tool_response>": 12,
      "</tool_response>": 13,
      "!": 14,
      "\"": 15,
      "#": 16,
      "$": 17,
      "%": 18,
      "&": 19,
      "'": 20,
      "(": 21,
      ")": 22,
      "*": 23,
      "+": 24,
      ",": 25,
      "-": 26,
      ".": 27,
      "/": 28,
      "0": 29,
      "1": 30,
      "2": 31,
      "3": 32,
      "4": 33,
      "5": 34,
      "6": 35,
      "7": 36,
      "8": 37,
      "9": 38,
      ":": 39,
      ";": 40,
      "<": 41,
      "=": 42,
      ">": 43,
      "?": 44,
      "@": 45,
      "A": 46,
      "B": 47,
      "C": 48,
      "D": 49,
      "E": 50,
      "F": 51,
      "G": 52,
      "H": 53,
      "I": 54,
      "J": 55,
      "K": 56,
      "L": 57,
      "M": 58,
      "N": 59,
      "O": 60,
      "P": 61,
      "Q": 62,
      "R": 63,
      "S": 64,
      "T": 65,
      "U": 66,
      "V": 67,
      "W": 68,
      "X": 69,
      "Y": 70,
      "Z": 71,
      "[": 72,
      "\\": 73,
      "]": 74,
      "^": 75,
      "_": 76,
      "`": 77,
      "a": 78,
      "b": 79,
      "c": 80,
      "d": 81,
      "e": 82,
      "f": 83,
      "g": 84,
      "h": 85,
      "i": 86,
      "j": 87,
      "k": 88,
      "l": 89,
      "m": 90,
      "n": 91,
      "o": 92,
      "p": 93,
      "q": 94,
      "r": 95,
      "s": 96,
      "t": 97,
      "u": 98,
      "v": 99,
      "w": 100,
      "x": 101,
      "y": 102,
      "z": 103,
      "{": 104,
      "|": 105,
      "}": 106,
      "~": 107,
      "¡": 108,
      "¢": 109,
      "£": 110,
      "¤": 111,
      "¥": 112,
      "¦": 113,
      "§": 114,
      "¨": 115,
      "©": 116,
      "ª": 117,
      "«": 118,
      "¬": 119,
      "®": 120,
      "¯": 121,
      "°": 122,
      "±": 123,
      "²": 124,
      "³": 125,
      "´": 126,
      "µ": 127,
      "¶": 128,
      "·": 129,
      "¸": 130,
      "¹": 131,
      "º": 132,
      "»": 133,
      "¼": 134,
      "½": 135,
      "¾": 136,
      "¿": 137,
      "Â": 138,
      "Ã": 139,
      "Ä": 140,
      "Å": 141,
      "Æ": 142,
      "Ç": 143,
      "È": 144,
      "É": 145,
      "Ê": 146,
      "Ë": 147,
      "Ì": 148,
      "Í": 149,
      "Î": 150,
      "Ï": 151,
      "Ð": 152,
      "Ñ": 153,
      "Ò": 154,
      "Ó": 155,
      "Ô": 156,
      "Õ": 157,
      "Ö": 158,
      "×": 159,
      "Ø": 160,
      "Ù": 161,
      "Ú": 162,
      "Û": 163,
      "Ü": 164,
      "ß": 165,
      "à": 166,
      "á": 167,
      "â": 168,
      "ã": 169,
      "ä": 170,
      "å": 171,
      "æ": 172,
      "ç": 173,
      "è": 174,
      "é": 175,
      "ê": 176,
      "ë": 177,
      "ì": 178,
      "í": 179,
      "î": 180,
      "ï": 181,
      "ð": 182,
      "ā": 183,
      "Ă": 184,
      "ă": 185,
      "ą": 186,
      "Ć": 187,
      "ć": 188,
      "Ĉ": 189,
      "ĉ": 190,
      "Ċ": 191,
      "Č": 192,
      "č": 193,
      "ď": 194,
      "Đ": 195,
      "ē": 196,
      "Ě": 197,
      "ě": 198,
      "Ĝ": 199,
      "ĝ": 200,
      "Ğ": 201,
      "ğ": 202,
      "Ġ": 203,
      "ġ": 204,
      "Ģ": 205,
      "ģ": 206,
      "Ĥ": 207,
      "ĥ": 208,
      "Ħ": 209,
      "ħ": 210,
      "Ĩ": 211,
      "ĩ": 212,
      "Ī": 213,
      "ī": 214,
      "Ĭ": 215,
      "ĭ": 216,
      "Į": 217,
      "į": 218,
      "İ": 219,
      "ı": 220,
      "Ĳ": 221,
      "ĳ": 222,
      "Ĵ": 223,
      "ĵ": 224,
      "Ķ": 225,
      "ķ": 226,
      "ĸ": 227,
      "Ĺ": 228,
      "ĺ": 229,
      "Ļ": 230,
      "ļ": 231,
      "Ľ": 232,
      "ľ": 233,
      "Ŀ": 234,
      "ŀ": 235,
      "Ł": 236,
      "ł": 237,
      "Ń": 238,
      "ĠĠ": 239,
      "Ġt": 240,
      "ĠĠĠĠ": 241,
      "Ġa": 242,
      "--": 243,
      "in": 244,
      "he": 245,
      "on": 246,
      "re": 247,
      "er": 248,
      "Ġthe": 249,
      "at": 250,
      "Ġo": 251,
      "Ġs": 252,
      "en": 253,
      "it": 254,
      "Ġc": 255,
      "or": 256,
      "es": 257,
      "----": 258,
      "ĠĠĠĠĠĠĠĠ": 259,
      "nd": 260,
      "is": 261,
      "Ġw": 262,
      "al": 263,
      "Ġp": 264,
      "ed": 265,
      "Ġ|": 266,
      "Ġof": 267,
      "an": 268,
      "ing": 269,
      "Ġf": 270,
      "Ġb": 271,
      "ion": 272,
      "ar": 273,
      "ou": 274,
      "Ġin": 275,
      "ic": 276,
      "Ġand": 277,
      "Ġm": 278,
      "Ġto": 279,
      "Ġd": 280,
      "le": 281,
      "ro": 282,
      "..": 283,
      "as": 284,
      "ent": 285,
      "Ġth": 286,
      "ct": 287,
      "Ġh": 288,
      "Ġre": 289,
      "il": 290,
      "--------": 291,
      "om": 292,
      "Ġe": 293,
      "ĠC": 294,
      "st": 295,
      "ve": 296,
      "Ġn": 297,
      ".Ċ": 298,
      "ĠS": 299,
      "ĠA": 300,
      "ĠT": 301,
      "ation": 302,
      "Ġl": 303,
      "ĠI": 304,
      "et": 305,
      "ce": 306,
      "ol": 307,
      "ĠĠĠĠĠĠĠĠĠĠĠĠĠĠĠĠ": 308,
      "id": 309,
      "ly": 310,
      "ut": 311,
      "ot": 312,
      "Ġbe": 313,
      "Ġis": 314,
      "im": 315,
      "Ġ|Ċ": 316,
      "Ġg": 317,
      "Ġfor": 318,
      "am": 319,
      "âĢ": 320,
      "se": 321,
      "Ġ(": 322,
      "ch": 323,
      "ur": 324,
      "ĠP": 325,
      "....": 326,
      "ĠM": 327,
      "ow": 328,
      "ig": 329,
      "Ġon": 330,
      "Ġu": 331,
      "Ġthat": 332,
      "ra": 333,
      "ver": 334,
      "ul": 335,
      "el": 336,
      "Ġst": 337,
      "ment": 338,
      "ir": 339,
      "Ġy": 340,
      "ate": 341,
      "ĠR": 342,
      "ay": 343,
      "Ġcon": 344,
      "ith": 345,
      "Ġpro": 346,
      "ĠF": 347,
      "ĠB": 348,
      "Ġas": 349,
      "if": 350,
      "her": 351,
      "ad": 352,
      "__": 353,
      "Ġwith": 354,
      "ĠE": 355,
      "ĠD": 356,
      "od": 357,
      "Ġor": 358,
      "Ġan": 359,
      "ri": 360,
      "ge": 361,
      "ter": 362,
      "ĠN": 363,
      "**": 364,
      "Ġal": 365,
      "em": 366,
      "Ġyou": 367,
      "Ġit": 368,
      "Ġare": 369,
      "ity": 370,
      "ers": 371,
      "Ġcom": 372,
      "res": 373,
      "Ġwh": 374,
      "ab": 375,
      "ĠThe": 376,
      "ect": 377,
      "pp": 378,
      "ess": 379,
      "----------------": 380,
      "ist": 381,
      "ĠH": 382,
      "um": 383,
      "qu": 384,
      "ill": 385,
      "ĠW": 386,
      "pt": 387,
      "nt": 388,
      "Ġsu": 389,
      "Ġex": 390,
      "lo": 391,
      "ec": 392,
      "est": 393,
      "ĠO": 394,
      "ĠL": 395,
      "ere": 396,
      "ĠĠĠ": 397,
      "ac": 398,
      "ort": 399,
      "us": 400,
      "ĠG": 401,
      "ive": 402,
      "........": 403,
      "ies": 404,
      "Ġv": 405,
      "ant": 406,
      "Ġby": 407,
      "iv": 408,
      "Ġhe": 409,
      "ld": 410,
      "Ġat": 411,
      "and": 412,
      "os": 413,
      "rom": 414,
      "ial": 415,
      "th": 416,
      "ke": 417,
      "ain": 418,
      "ore": 419,
      "ud": 420,
      "Ġnot": 421,
      "igh": 422,
      "Ġthis": 423,
      "Ġha": 424,
      "ure": 425,
      "Ġwas": 426,
      "Ġde": 427,
      "oc": 428,
      "un": 429,
      "Ġfrom": 430,
      "art": 431,
      "Ġr": 432,
      "ical": 433,
      "Ġsh": 434,
      "end": 435,
      "ction": 436,
      "ew": 437,
      "op": 438,
      "Ġch": 439,
      "âĢĻ": 440,
      "Âł": 441,
      "ust": 442,
      "____": 443,
      "ard": 444,
      "Ġhave": 445,
      "te": 446,
      "all": 447,
      "Ġle": 448,
      "ther": 449,
      "ip": 450,
      "ĠJ": 451,
      "age": 452,
      "ear": 453,
      "Ġcan": 454,
      "our": 455,
      "ould": 456,
      "ĠâĢ": 457,
      "ff": 458,
      "ĠIn": 459,
      "per": 460,
      "Ġwe": 461,
      "rou": 462,
      "ame": 463,
      "ated": 464,
      "Ġcont": 465,
      "ight": 466,
      "ĠRe": 467,
      "iz": 468,
      "ans": 469,
      "ast": 470,
      "cc": 471,
      "---": 472,
      "Ġse": 473,
      "for": 474,
      "Ġsp": 475,
      "ber": 476,
      "og": 477,
      "ine": 478,
      "gh": 479,
      "'s": 480,
      "ich": 481,
      "ions": 482,
      "ire": 483,
      "ĠĠĠĠĠĠĠĠĠĠĠĠ": 484,
      "ĠU": 485,
      "Ġus": 486,
      "du": 487,
      "ag": 488,
      "are": 489,
      "Ġcomp": 490,
      "ost": 491,
      "Ġab": 492,
      "Ġad": 493,
      "ary": 494,
      "ĠĠĠĠĠĠĠĠĠĠĠĠĠĠĠĠĠĠĠĠĠĠĠĠĠĠĠĠĠĠĠĠ": 495,
      "ual": 496,
      "ations": 497,
      "able": 498,
      "ome": 499,
      "Ġwill": 500,
      "ance": 501,
      "Ġim": 502,
      "Ġwor": 503,
      "Ġres": 504,
      "The": 505,
      "Ġpl": 506,
      "Ġen": 507,
      "ĠSt": 508,
      "Ġall": 509,
      "Ġ\\": 510,
      "ell": 511,
      "ak": 512,
      "out": 513,
      "ult": 514,
      "Ġme": 515,
      "ĠTh": 516,
      "ru": 517,
      "Ġinc": 518,
      "act": 519,
      "ach": 520,
      "Ġ-": 521,
      "Ġwhe": 522,
      "ide": 523,
      "ap": 524,
      "Ġint": 525,
      "ount": 526,
      "Ġapp": 527,
      "ress": 528,
      "ĠV": 529,
      "ice": 530,
      "Ġk": 531,
      "Ġdo": 532,
      "ous": 533,
      "ail": 534,
      "Ġcomm": 535,
      "ib": 536,
      "Ġwhich": 537,
      "|----------------": 538,
      "Ġtheir": 539,
      "Ġne": 540,
      "rib": 541,
      "Ġ$": 542,
      "................": 543,
      "Ġper": 544,
      "Ġhas": 545,
      "ign": 546,
      "Ġthey": 547,
      "Ġyour": 548,
      "ue": 549,
      "ong": 550,
      "form": 551,
      "ence": 552,
      "Ġdis": 553,
      "ĠK": 554,
      "ase": 555,
      "Ġother": 556,
      "Ġj": 557,
      "Ġgo": 558,
      "ks": 559,
      "ia": 560,
      "Ġbut": 561,
      "âĢĻs": 562,
      "port": 563,
      "ry": 564,
      "lic": 565,
      "ition": 566,
      "one": 567,
      "Ġout": 568,
      "ub": 569,
      "Ġ\"": 570,
      "erv": 571,
      "ime": 572,
      "ind": 573,
      "Ġman": 574,
      "|Ċ": 575,
      "ater": 576,
      "Ġmore": 577,
      "ĠY": 578,
      "ens": 579,
      "Ġun": 580,
      "mp": 581,
      "Ġwere": 582,
      "Ġany": 583,
      "ass": 584,
      "ments": 585,
      "ack": 586,
      "ents": 587,
      "so": 588,
      "eral": 589,
      "ĠIt": 590,
      "Ġone": 591,
      "Ġpart": 592,
      "Ġso": 593,
      "ake": 594,
      "au": 595,
      "Ġpre": 596,
      "ĠCon": 597,
      "low": 598,
      "ep": 599,
      "oo": 600,
      "ark": 601,
      "Ġup": 602,
      "ribut": 603,
      "ie": 604,
      "very": 605,
      "av": 606,
      "rans": 607,
      "ace": 608,
      "ors": 609,
      "ord": 610,
      "ĠCh": 611,
      "Ġev": 612,
      "Ġqu": 613,
      "Ġwho": 614,
      "ite": 615,
      "ree": 616,
      "cei": 617,
      "Ġte": 618,
      "ll": 619,
      "pl": 620,
      "ĠĠĠĠĠ": 621,
      "Ġ**": 622,
      "ceipt": 623,
      "irst": 624,
      "________": 625,
      "ild": 626,
      "Ġli": 627,
      "ĠThis": 628,
      "|--------": 629,
      "Ġag": 630,
      "ang": 631,
      "ory": 632,
      "ric": 633,
      ":Ċ": 634,
      "Ġcl": 635,
      "nder": 636,
      "ove": 637,
      "Ġrec": 638,
      "Ġhis": 639,
      "Ġthere": 640,
      "fere": 641,
      ").": 642,
      "ond": 643,
      "ces": 644,
      "Ġalso": 645,
      "ject": 646,
      "âĢĿ": 647,
      "ific": 648,
      "Ġsc": 649,
      "int": 650,
      "Ġabout": 651,
      "Ġmay": 652,
      "Ġthan": 653,
      "ings": 654,
      "ĠĠĠĠĠĠ": 655,
      "Ġpol": 656,
      ")Ċ": 657,
      "ile": 658,
      "Ġar": 659,
      "ose": 660,
      "xt": 661,
      "ĠReceipt": 662,
      "ates": 663,
      "Ġtime": 664,
      "Ġacc": 665,
      "ĠCom": 666,
      "ities": 667,
      "ple": 668,
      "loy": 669,
      "Ġcons": 670,
      "own": 671,
      "Ġbeen": 672,
      "Ġind": 673,
      "Ġwould": 674,
      "lud": 675,
      "Ġwork": 676,
      "Ġsy": 677,
      "),": 678,
      ".,": 679,
      "à¤": 680,
      "up": 681,
      "Ġyear": 682,
      "Ġif": 683,
      "Ġ---": 684,
      "Ġprov": 685,
      "rough": 686,
      "Ġnum": 687,
      "ull": 688,
      "reat": 689,
      "ĠĠĠĠĠĠĠ": 690,
      "vers": 691,
      "ish": 692,
      "ph": 693,
      "Ġthem": 694,
      "Ġstud": 695,
      "ays": 696,
      "Ġass": 697,
      "Ġpe": 698,
      "olog": 699,
      "Ġour": 700,
      "Ġwhen": 701,
      "erm": 702,
      "Ġunder": 703,
      "Ġsuch": 704,
      "TE": 705,
      "ound": 706,
      "Ġtra": 707,
      "red": 708,
      "mploy": 709,
      "ys": 710,
      "tern": 711,
      "Ġover": 712,
      "Ġkn": 713,
      "ĠâĢľ": 714,
      "ility": 715,
      "Ġexp": 716,
      "old": 717,
      "Ġsome": 718,
      "ram": 719,
      "Ġbec": 720,
      "ons": 721,
      "Ġdes": 722,
      "**Ċ": 723,
      "ck": 724,
      "lect": 725,
      "Ġhad": 726,
      "Ġits": 727,
      "ough": 728,
      "Ġlike": 729,
      "stem": 730,
      "lop": 731,
      "ĠFor": 732,
      "ied": 733,
      "Ġbet": 734,
      "Ġrel": 735,
      "Ġinto": 736,
      "ning": 737,
      "ian": 738,
      "ative": 739,
      "we": 740,
      "Ġam": 741,
      "Ġno": 742,
      "Ġro": 743,
      "Ġact": 744,
      "ĠPro": 745,
      "iss": 746,
      "Ġreg": 747,
      "wn": 748,
      "Ġsub": 749,
      "rit": 750,
      "Ġdif": 751,
      "ational": 752,
      "ook": 753,
      "vi": 754,
      "gan": 755,
      "ople": 756,
      "Ġonly": 757,
      "Ġthrough": 758,
      "velop": 759,
      "ating": 760,
      "Ġnumber": 761,
      "Ġadd": 762,
      "Ġinclud": 763,
      "Ġrequ": 764,
      "Ġsa": 765,
      "Ġuse": 766,
      "les": 767,
      "Ġoff": 768,
      "ally": 769,
      "ĠĠĠĠĠĠĠĠĠ": 770,
      "ause": 771,
      "Ġneed": 772,
      "ov": 773,
      "Ġthese": 774,
      "Ġmy": 775,
      "ss": 776,
      "wo": 777,
      "ĠAd": 778,
      "Ġnew": 779,
      "Ġimp": 780,
      "ĠName": 781,
      "Ġwhat": 782,
      "ivid": 783,
      "mer": 784,
      "Ġhow": 785,
      "Ġ/": 786,
      "Ġeff": 787,
      "ced": 788,
      "ĠUn": 789,
      "ĠInd": 790,
      "ON": 791,
      "ren": 792,
      "ract": 793,
      "pe": 794,
      "eth": 795,
      "ath": 796,
      "Ġpeople": 797,
      "EC": 798,
      "ise": 799,
      "iod": 800,
      "Ġfe": 801,
      "Ġra": 802,
      "arm": 803,
      "Ġob": 804,
      "hed": 805,
      "ĠID": 806,
      "ased": 807,
      "formation": 808,
      "ool": 809,
      "ink": 810,
      "ĠHe": 811,
      "Ġsupp": 812,
      "In": 813,
      "ood": 814,
      "ange": 815,
      "Ġused": 816,
      "'t": 817,
      "ividual": 818,
      "cy": 819,
      "ures": 820,
      "eneral": 821,
      "itte": 822,
      "Ġ[": 823,
      "ata": 824,
      "ne": 825,
      "ics": 826,
      "tain": 827,
      "Ġmod": 828,
      "AL": 829,
      "Ġspec": 830,
      "vel": 831,
      "ient": 832,
      "ible": 833,
      "aw": 834,
      "Ġinv": 835,
      "Ġ*": 836,
      "to": 837,
      "Ġpos": 838,
      "Ġpers": 839,
      "Ġsystem": 840,
      "ident": 841,
      "alth": 842,
      "oint": 843,
      "ft": 844,
      "ption": 845,
      "Ġshould": 846,
      "ittee": 847,
      "Ġher": 848,
      "fter": 849,
      "its": 850,
      "Ġprodu": 851,
      "ular": 852,
      "ER": 853,
      "ee": 854,
      "ari": 855,
      "gg": 856,
      "Ġdec": 857,
      "Ġresp": 858,
      "ection": 859,
      "Ġcol": 860,
      "Ġco": 861,
      "Ġph": 862,
      "Ġtrans": 863,
      "Ġac": 864,
      "ĠâĢĵ": 865,
      "uring": 866,
      "|--------------------------------": 867,
      "ollow": 868,
      "Ġdevelop": 869,
      "ef": 870,
      "cess": 871,
      "rim": 872,
      "Ġ&": 873,
      "Ġcontribut": 874,
      "Ġfirst": 875,
      "Ġtwo": 876,
      "ices": 877,
      "Ġatt": 878,
      "Ġget": 879,
      "?Ċ": 880,
      "sp": 881,
      "IN": 882,
      "resent": 883,
      "Ġmost": 884,
      "Ġdiffere": 885,
      "oth": 886,
      "round": 887,
      "hen": 888,
      "Ġinter": 889,
      "ization": 890,
      "Ġ=": 891,
      "Ġjust": 892,
      "ps": 893,
      "Ġappro": 894,
      "itt": 895,
      "ob": 896,
      "................................": 897,
      "ax": 898,
      "ween": 899,
      "Ġinst": 900,
      "Ġknow": 901,
      "Ġdet": 902,
      "pos": 903,
      "ful": 904,
      "ited": 905,
      "ower": 906,
      "row": 907,
      "Ġrem": 908,
      "ade": 909,
      "und": 910,
      "Ġwhere": 911,
      "ty": 912,
      "ĠAn": 913,
      "als": 914,
      "fore": 915,
      "Ġfollow": 916,
      "Ġdisc": 917,
      "Ġcould": 918,
      "|------------": 919,
      "ĠEmploy": 920,
      "action": 921,
      "Ġinformation": 922,
      "ĠĠĠĠĠĠĠĠĠĠ": 923,
      "ode": 924,
      "gram": 925,
      "Ġbetween": 926,
      "##": 927,
      "sel": 928,
      "ick": 929,
      "eld": 930,
      "Ġserv": 931,
      "ublic": 932,
      "ble": 933,
      "get": 934,
      "Ġpolit": 935,
      "ĠPer": 936,
      "Ġform": 937,
      "Ġwell": 938,
      "hip": 939,
      "TI": 940,
      "Ġval": 941,
      "ered": 942,
      "chn": 943,
      "oci": 944,
      "ork": 945,
      "ues": 946,
      "Ġsur": 947,
      "Ġsign": 948,
      "ĠWe": 949,
      "ĠEn": 950,
      "ts": 951,
      "Ġsec": 952,
      "urn": 953,
      "Ġset": 954,
      "ten": 955,
      "ES": 956,
      "Ġeach": 957,
      "any": 958,
      "Ġthen": 959,
      "Ġrequire": 960,
      "Ġpur": 961,
      "air": 962,
      "ĠZ": 963,
      "anc": 964,
      "Ġcommittee": 965,
      "Ġbu": 966,
      "Ġshe": 967,
      "ĠĠĠĠĠĠĠĠĠĠĠĠĠĠ": 968,
      "Ġhel": 969,
      "Ġperson": 970,
      "Ġent": 971,
      "Ġdef": 972,
      "ĠĠĠĠĠĠĠĠĠĠĠĠĠ": 973,
      "ĠState": 974,
      "chool": 975,
      "con": 976,
      "Ġloc": 977,
      "ict": 978,
      "hat": 979,
      "Ġmake": 980,
      "Ġdata": 981,
      "ĠCont": 982,
      "Ġpolitical": 983,
      "hes": 984,
      "ĠĠĠĠĠĠĠĠĠĠĠ": 985,
      "ĠFull": 986,
      "AR": 987,
      "ily": 988,
      "ution": 989,
      "ex": 990,
      "irect": 991,
      "uch": 992,
      "EN": 993,
      "ife": 994,
      "Ġsol": 995,
      "Ġresult": 996,
      "ever": 997,
      "âĢĵ": 998,
      "ience": 999,
      "Ġhigh": 1000,
      ").Ċ": 1001,
      "Ġbecause": 1002,
      "ature": 1003,
      "Ġsee": 1004,
      "com": 1005,
      "ample": 1006,
      "Ġyears": 1007,
      "ants": 1008,
      "ield": 1009,
      "Ġmany": 1010,
      "ify": 1011,
      "ology": 1012,
      "ivers": 1013,
      "ward": 1014,
      "idd": 1015,
      "AN": 1016,
      "Ġeffect": 1017,
      "Ġsm": 1018,
      "ruct": 1019,
      "Ġexper": 1020,
      "OR": 1021,
      "uth": 1022,
      "ĠComm": 1023,
      "ĠĠĠĠĠĠĠĠĠĠĠĠĠĠĠ": 1024,
      "Ġfin": 1025,
      "Ġafter": 1026,
      "arch": 1027,
      "ron": 1028,
      "led": 1029,
      "Ġsim": 1030,
      "Ġprocess": 1031,
      "oun": 1032,
      "ved": 1033,
      "Ġâ": 1034,
      "text": 1035,
      "Ġchild": 1036,
      "Date": 1037,
      "Ġprovid": 1038,
      "Ġdist": 1039,
      "ural": 1040,
      "cept": 1041,
      "ĠDe": 1042,
      "ism": 1043,
      "ĠAl": 1044,
      "Ġusing": 1045,
      "Ġevery": 1046,
      "Ġbeing": 1047,
      "Ġmon": 1048,
      "Ġorgan": 1049,
      "ines": 1050,
      "Ġthose": 1051,
      "aking": 1052,
      "ote": 1053,
      "Ġpartic": 1054,
      "Ġrep": 1055,
      "Ġdoes": 1056,
      "land": 1057,
      "Ġincre": 1058,
      "ives": 1059,
      "Ġinf": 1060,
      "ven": 1061,
      "ness": 1062,
      "Ġright": 1063,
      "Ġback": 1064,
      "Ġke": 1065,
      "ox": 1066,
      "âĢĶ": 1067,
      "ized": 1068,
      "ederal": 1069,
      "Ġcar": 1070,
      "Ġext": 1071,
      "Ġ,": 1072,
      "Ġvery": 1073,
      "Ġdifferent": 1074,
      "Ġway": 1075,
      "Ġeven": 1076,
      "cle": 1077,
      "vern": 1078,
      "Ġconc": 1079,
      "the": 1080,
      "Ġcur": 1081,
      "Ġcor": 1082,
      "ĠAdd": 1083,
      "________________": 1084,
      "Ġmin": 1085,
      "Ġcommun": 1086,
      "gy": 1087,
      "li": 1088,
      "Ġmem": 1089,
      "lection": 1090,
      "view": 1091,
      "Ġreport": 1092,
      "der": 1093,
      "Ġlong": 1094,
      "itial": 1095,
      "ined": 1096,
      "Ġcomple": 1097,
      "ision": 1098,
      "ting": 1099,
      "Ġhelp": 1100,
      "ically": 1101,
      "Ġwater": 1102,
      "Ġend": 1103,
      "Th": 1104,
      "ĠIf": 1105,
      "other": 1106,
      "ix": 1107,
      "ety": 1108,
      "Ġstate": 1109,
      "Ġsaid": 1110,
      "Ġsame": 1111,
      "Ġown": 1112,
      "Ġet": 1113,
      "ale": 1114,
      "Ġav": 1115,
      "ency": 1116,
      "nce": 1117,
      "iness": 1118,
      "Ġsupport": 1119,
      "Ġmade": 1120,
      "Ġhim": 1121,
      "ĠAm": 1122,
      "Ġmed": 1123,
      "Ġgood": 1124,
      "rent": 1125,
      "Ġmust": 1126,
      "Ġprogram": 1127,
      "ins": 1128,
      "Ġfact": 1129,
      "Ġed": 1130,
      "ĠPeriod": 1131,
      "Ġpat": 1132,
      "ize": 1133,
      "Ġequ": 1134,
      "ality": 1135,
      "vent": 1136,
      "iddle": 1137,
      "Ġem": 1138,
      "Ġty": 1139,
      "Ġvari": 1140,
      "ĠIndividual": 1141,
      "-to": 1142,
      "Ġdid": 1143,
      "Ġchar": 1144,
      "ually": 1145,
      "Ġgen": 1146,
      "ĠSc": 1147,
      "Ġhealth": 1148,
      "ĠAs": 1149,
      "Ġshow": 1150,
      "Ġlevel": 1151,
      "Ġgra": 1152,
      "Ġpr": 1153,
      "ccup": 1154,
      "ank": 1155,
      "ages": 1156,
      "ĠEx": 1157,
      "Ġstr": 1158,
      "io": 1159,
      "tt": 1160,
      "Ġcount": 1161,
      "Ġagain": 1162,
      "Ġimport": 1163,
      "Ġref": 1164,
      "unction": 1165,
      "ving": 1166,
      "ets": 1167,
      "ĠAr": 1168,
      "ĠFirst": 1169,
      "Ġpoint": 1170,
      "Ġduring": 1171,
      "ĠSp": 1172,
      "Ġgu": 1173,
      "ability": 1174,
      "Ġread": 1175,
      ".\"": 1176,
      "Ġfederal": 1177,
      "iron": 1178,
      "rol": 1179,
      "ases": 1180,
      "Ġlist": 1181,
      "Ġconsid": 1182,
      "ribution": 1183,
      "orm": 1184,
      "âĢĻt": 1185,
      "ĠPl": 1186,
      "ĠCity": 1187,
      "Ġmuch": 1188,
      "ĠOr": 1189,
      "Ġbefore": 1190,
      "Ġmain": 1191,
      "Ġgrou": 1192,
      "Ġboth": 1193,
      "Ġcour": 1194,
      "Ġear": 1195,
      "ash": 1196,
      "Ġcall": 1197,
      "ĠRes": 1198,
      "cri": 1199,
      "Ġtechn": 1200,
      "imes": 1201,
      "ĠEach": 1202,
      "Ġest": 1203,
      "ital": 1204,
      "ission": 1205,
      "bers": 1206,
      "uss": 1207,
      "ED": 1208,
      "ather": 1209,
      "Ġoper": 1210,
      "hem": 1211,
      "ious": 1212,
      "ner": 1213,
      "IT": 1214,
      "Ġnow": 1215,
      "ailing": 1216,
      "ÂłÂł": 1217,
      "ĠGeneral": 1218,
      "Ġthink": 1219,
      "blem": 1220,
      "Ġfl": 1221,
      "erest": 1222,
      "ified": 1223,
      "Ġdep": 1224,
      "uc": 1225,
      "Ġlar": 1226,
      "man": 1227,
      "ok": 1228,
      "ration": 1229,
      "ential": 1230,
      "Ġcre": 1231,
      "ave": 1232,
      "Ġtest": 1233,
      "ĠAnd": 1234,
      "Ġplan": 1235,
      "usiness": 1236,
      "oh": 1237,
      "Ġshall": 1238,
      "ern": 1239,
      "ected": 1240,
      "ah": 1241,
      "ĠCO": 1242,
      "Ġwithin": 1243,
      "Ġpublic": 1244,
      "agement": 1245,
      "iversity": 1246,
      "Ġdesign": 1247,
      "Ġdon": 1248,
      "ince": 1249,
      "ĠCode": 1250,
      "ĠHow": 1251,
      "ĠAddress": 1252,
      "ĠQ": 1253,
      "Ġrese": 1254,
      "Ġconst": 1255,
      "rimary": 1256,
      "ĠSh": 1257,
      "oard": 1258,
      "Ġfind": 1259,
      "day": 1260,
      "Ġop": 1261,
      "stand": 1262,
      "Ġworld": 1263,
      "ĠNew": 1264,
      "ĠCl": 1265,
      "Ġlead": 1266,
      "Ġiss": 1267,
      "inc": 1268,
      "Ġdown": 1269,
      "ĠAct": 1270,
      "viron": 1271,
      "Ġdi": 1272,
      "ody": 1273,
      "Ġposs": 1274,
      "ĠTrans": 1275,
      "ulation": 1276,
      "Ġfound": 1277,
      "ĠMiddle": 1278,
      "itions": 1279,
      "Ġhand": 1280,
      "tal": 1281,
      "way": 1282,
      "de": 1283,
      "Ġmark": 1284,
      "Ġtake": 1285,
      "Ġwant": 1286,
      "ional": 1287,
      "Ġcent": 1288,
      "ason": 1289,
      "Ġlife": 1290,
      "ĠNot": 1291,
      "ert": 1292,
      "Ġstand": 1293,
      "Ġpresent": 1294,
      "ering": 1295,
      "Ġanal": 1296,
      "|----": 1297,
      "tic": 1298,
      "ww": 1299,
      "Ġproject": 1300,
      "Ġconf": 1301,
      "Ġvi": 1302,
      "ists": 1303,
      "Ġproblem": 1304,
      "ters": 1305,
      "Ġlear": 1306,
      "Ġactiv": 1307,
      "ĠNo": 1308,
      "Ġapplic": 1309,
      "ĠItem": 1310,
      "Ġlook": 1311,
      "Ġ.": 1312,
      "Ġsom": 1313,
      "rid": 1314,
      "meric": 1315,
      "Ġterm": 1316,
      "Ġpar": 1317,
      "Ġmat": 1318,
      "Ġcontributing": 1319,
      "ouse": 1320,
      "Ġperform": 1321,
      "ross": 1322,
      "read": 1323,
      "uthor": 1324,
      "ccupation": 1325,
      "Ġcare": 1326,
      "Ġpri": 1327,
      "---|Ċ": 1328,
      "_{": 1329,
      "ger": 1330,
      "Ġschool": 1331,
      "Last": 1332,
      "IS": 1333,
      "Ġfam": 1334,
      "Ġstart": 1335,
      "Ġcond": 1336,
      "Ġins": 1337,
      "els": 1338,
      "ves": 1339,
      "less": 1340,
      "Ġwhile": 1341,
      "ock": 1342,
      "Ġday": 1343,
      "ared": 1344,
      "ining": 1345,
      "ethod": 1346,
      "ĠEmployer": 1347,
      "ĠInitial": 1348,
      "ute": 1349,
      "eg": 1350,
      "Ġfollowing": 1351,
      "Ġcost": 1352,
      "Ġ'": 1353,
      "Ġquest": 1354,
      "-Date": 1355,
      "Ġhum": 1356,
      "ĠYou": 1357,
      "ocial": 1358,
      "-b": 1359,
      "OT": 1360,
      "ĠComp": 1361,
      "ense": 1362,
      "inal": 1363,
      "line": 1364,
      "IC": 1365,
      "ral": 1366,
      "ator": 1367,
      "ĠThey": 1368,
      "ton": 1369,
      "Ġclass": 1370,
      "ination": 1371,
      "Ġstudy": 1372,
      "ring": 1373,
      "Ġcontin": 1374,
      "ars": 1375,
      "self": 1376,
      "Ġincluding": 1377,
      "ĠOF": 1378,
      "vironment": 1379,
      "iven": 1380,
      "vernment": 1381,
      "Ġinterest": 1382,
      "Ġadv": 1383,
      "Ġthree": 1384,
      "Ġcle": 1385,
      "Ġret": 1386,
      "-|Ċ": 1387,
      "ĠThere": 1388,
      "Ġser": 1389,
      "Ġhere": 1390,
      "ĠâĢ¢": 1391,
      "Ġproper": 1392,
      "aj": 1393,
      "Ġallow": 1394,
      "ĠĠĊ": 1395,
      "imate": 1396,
      "**:": 1397,
      "aterial": 1398,
      "ailable": 1399,
      "Ġfield": 1400,
      "Ġproduct": 1401,
      "Ġmeas": 1402,
      "Ġpower": 1403,
      "Ġcap": 1404,
      "Ġplay": 1405,
      "akes": 1406,
      "ĠMan": 1407,
      "Ġimportant": 1408,
      "Ġbl": 1409,
      "min": 1410,
      "TION": 1411,
      "ĠAmeric": 1412,
      "por": 1413,
      "ĠMem": 1414,
      "ĠĠĠĠĠĠĠĠĠĠĠĠĠĠĠĠĠ": 1415,
      "Ġprot": 1416,
      "ĠWh": 1417,
      "Ġstudents": 1418,
      "Ġthough": 1419,
      "oy": 1420,
      "Ġless": 1421,
      "erc": 1422,
      "Ġident": 1423,
      "St": 1424,
      "ĠBut": 1425,
      "Ġbel": 1426,
      "alk": 1427,
      "ĠPh": 1428,
      "omm": 1429,
      "ished": 1430,
      "Ġemploy": 1431,
      "Ġris": 1432,
      "Ġdevelopment": 1433,
      "conom": 1434,
      "ĠĠĠĠĠĠĠĠĠĠĠĠĠĠĠĠĠĠĠĠĠĠĠ": 1435,
      "Ġdirect": 1436,
      "ug": 1437,
      "orth": 1438,
      "Ġmeet": 1439,
      "ĠDate": 1440,
      "Ġfunction": 1441,
      "raph": 1442,
      "Ġsmall": 1443,
      "AM": 1444,
      "Ġsk": 1445,
      "---Ċ": 1446,
      "Ġca": 1447,
      "Ġredu": 1448,
      "reg": 1449,
      "ĠTe": 1450,
      "Ġprof": 1451,
      "Ġ+": 1452,
      "ends": 1453,
      "arked": 1454,
      ":**": 1455,
      "Ġclo": 1456,
      "Ġdem": 1457,
      "AS": 1458,
      "Ġstill": 1459,
      "ĠÂ": 1460,
      "Ġwithout": 1461,
      "oss": 1462,
      "eng": 1463,
      "ret": 1464,
      "Ġpract": 1465,
      "ior": 1466,
      "Ġplace": 1467,
      "pr": 1468,
      "ised": 1469,
      "Ġcase": 1470,
      "Ġlaw": 1471,
      "Ġprovide": 1472,
      "ertain": 1473,
      "Ġchang": 1474,
      "Ġaff": 1475,
      "Ġorder": 1476,
      "Ġnon": 1477,
      "-s": 1478,
      "Ġtotal": 1479,
      "ĠSe": 1480,
      "AC": 1481,
      "This": 1482,
      "Ġwrit": 1483,
      "Ġname": 1484,
      "Ġcontrol": 1485,
      "Ġcurrent": 1486,
      "ĠOther": 1487,
      "Ġblo": 1488,
      "omen": 1489,
      "Ġreal": 1490,
      "Ġinvest": 1491,
      "Ġchange": 1492,
      "ergy": 1493,
      "ĠOccupation": 1494,
      "ffic": 1495,
      "ĠContribution": 1496,
      "Ġaddition": 1497,
      "Ġrece": 1498,
      "Ġchildren": 1499,
      "Ġbuild": 1500,
      "Ġve": 1501,
      "Ġfac": 1502,
      "Ġaround": 1503,
      "Ġbusiness": 1504,
      "cent": 1505,
      "itive": 1506,
      "acter": 1507,
      "An": 1508,
      "Ġmet": 1509,
      "Ġsecond": 1510,
      "ĠAb": 1511,
      "ĠCol": 1512,
      "Ġpay": 1513,
      "Ġarea": 1514,
      "armarked": 1515,
      "of": 1516,
      "Ġlim": 1517,
      "amp": 1518,
      "Ġbas": 1519,
      "Ġindividual": 1520,
      "Ġgeneral": 1521,
      "az": 1522,
      "orn": 1523,
      "Ġelect": 1524,
      "Ġimpro": 1525,
      "Ġpres": 1526,
      "ium": 1527,
      "isc": 1528,
      "ended": 1529,
      "Ġben": 1530,
      "Ġmethod": 1531,
      "Ġavailable": 1532,
      "Ġfil": 1533,
      "ling": 1534,
      "Ġâĸ": 1535,
      "Ġbeh": 1536,
      "Ġdel": 1537,
      "Ġresearch": 1538,
      "Ġsay": 1539,
      "Ġbased": 1540,
      "Ġgrow": 1541,
      "here": 1542,
      "uro": 1543,
      "Ġleg": 1544,
      "Ġ\\(": 1545,
      "ources": 1546,
      "Ġeng": 1547,
      "ĠApp": 1548,
      "RE": 1549,
      "ann": 1550,
      "reen": 1551,
      "ruction": 1552,
      "ĠAss": 1553,
      "ĠEng": 1554,
      "Ġmaterial": 1555,
      "ĠLe": 1556,
      "Ġpop": 1557,
      "ĠĠĠĠĠĠĠĠĠĠĠĠĠĠĠĠĠĠĠĠĠĠĠĠĠĠĠĠĠĠĠĠĠĠĠĠĠĠĠĠĠĠĠĠĠĠĠĠĠĠĠĠĠĠĠĠĠĠĠĠĠĠĠĠ": 1558,
      "Ġline": 1559,
      "ccess": 1560,
      "Ġunderstand": 1561,
      "Ġvis": 1562,
      "rict": 1563,
      "ĠMailing": 1564,
      "iqu": 1565,
      "par": 1566,
      "Ġopp": 1567,
      "Ġperiod": 1568,
      "ification": 1569,
      "ards": 1570,
      "ier": 1571,
      "ien": 1572,
      "ĠPrimary": 1573,
      "ware": 1574,
      "ysis": 1575,
      "Ġaddress": 1576,
      "âĢ¦": 1577,
      "ycle": 1578,
      "ived": 1579,
      "Ġgreat": 1580,
      "Ġrest": 1581,
      "Ġche": 1582,
      "ways": 1583,
      "Ġsignific": 1584,
      "ancial": 1585,
      "igure": 1586,
      "ilities": 1587,
      ";Ċ": 1588,
      "Ġpass": 1589,
      "duct": 1590,
      "iving": 1591,
      "RO": 1592,
      "urther": 1593,
      "crib": 1594,
      "Ġexample": 1595,
      "ĠUniversity": 1596,
      "Ġland": 1597,
      "ĠFEC": 1598,
      "me": 1599,
      "Ġlast": 1600,
      "Re": 1601,
      "...": 1602,
      "Ġhist": 1603,
      "Ġel": 1604,
      "Ġmight": 1605,
      "//": 1606,
      "lish": 1607,
      "ane": 1608,
      "ries": 1609,
      "TS": 1610,
      "Ġtreat": 1611,
      "bs": 1612,
      "Ġgroup": 1613,
      "Ġpot": 1614,
      ".âĢĿ": 1615,
      "put": 1616,
      "à¥": 1617,
      "Ġvalue": 1618,
      "med": 1619,
      "lease": 1620,
      "irc": 1621,
      "Ġà¤": 1622,
      "Ġrequired": 1623,
      "Ġdeterm": 1624,
      ",Ċ": 1625,
      "ention": 1626,
      "Ġaccess": 1627,
      "val": 1628,
      "LE": 1629,
      "ds": 1630,
      "Ġfund": 1631,
      "Ġbest": 1632,
      "fer": 1633,
      "Ġide": 1634,
      "Ġopen": 1635,
      "arent": 1636,
      "Ġmonth": 1637,
      "outh": 1638,
      "Ġagainst": 1639,
      "ĠIs": 1640,
      "over": 1641,
      "Ġlarge": 1642,
      "ference": 1643,
      "Ġtem": 1644,
      "Ġrecord": 1645,
      "ĠServ": 1646,
      "ĠUS": 1647,
      "atic": 1648,
      "ource": 1649,
      "ains": 1650,
      "ĠAmount": 1651,
      "ĠSo": 1652,
      "ateg": 1653,
      "ury": 1654,
      "Ġanother": 1655,
      "Ġinclude": 1656,
      "ĠTo": 1657,
      "-c": 1658,
      "Ġbetter": 1659,
      "!Ċ": 1660,
      "iting": 1661,
      "Ġfew": 1662,
      "Ġpost": 1663,
      "ients": 1664,
      "artment": 1665,
      "Ġtoo": 1666,
      "ĠAg": 1667,
      "AT": 1668,
      "icy": 1669,
      "Ġbelie": 1670,
      "Ġsit": 1671,
      "Ġthings": 1672,
      "Ġfood": 1673,
      "Ġsocial": 1674,
      "org": 1675,
      "ING": 1676,
      "Ġoften": 1677,
      "Ġhuman": 1678,
      ",\"": 1679,
      "Ġmodel": 1680,
      "ajor": 1681,
      "Ġeduc": 1682,
      "ĠAll": 1683,
      "Ġservices": 1684,
      "Ġocc": 1685,
      "rist": 1686,
      "Ġlocal": 1687,
      "We": 1688,
      "Ġmean": 1689,
      "Ġbro": 1690,
      "-f": 1691,
      "Ġgoing": 1692,
      "Ġeconom": 1693,
      "Ġauthor": 1694,
      "Ġeas": 1695,
      "ances": 1696,
      "Ġenvironment": 1697,
      "^{": 1698,
      "Ġvol": 1699,
      "://": 1700,
      "illion": 1701,
      "Ġhapp": 1702,
      "aff": 1703,
      "vious": 1704,
      "Ġsignificant": 1705,
      "spec": 1706,
      "Ġx": 1707,
      "ructure": 1708,
      "Ġamount": 1709,
      "ently": 1710,
      "earch": 1711,
      "ĠX": 1712,
      "-p": 1713,
      "ĠThese": 1714,
      "Ġresults": 1715,
      "lu": 1716,
      "amb": 1717,
      "elf": 1718,
      "Ġcal": 1719,
      "ted": 1720,
      "idence": 1721,
      "Ġrun": 1722,
      "Ġnec": 1723,
      "Ġimpact": 1724,
      "Ġlow": 1725,
      ".S": 1726,
      "app": 1727,
      "ĠYear": 1728,
      "ĠSee": 1729,
      "|------------|Ċ": 1730,
      "Ġ$\\": 1731,
      "rop": 1732,
      "Ġbenef": 1733,
      "ething": 1734,
      "ittle": 1735,
      "ĠAgg": 1736,
      "Ġreally": 1737,
      "Ġgiven": 1738,
      "Ġtop": 1739,
      "Ġintern": 1740,
      "Ġhig": 1741,
      "ĠTransaction": 1742,
      "Ġaccount": 1743,
      "]Ċ": 1744,
      "Ġpossible": 1745,
      "itor": 1746,
      "Ġdue": 1747,
      "ĠSu": 1748,
      "eration": 1749,
      "|----------------------------------------": 1750,
      "ective": 1751,
      "It": 1752,
      "ably": 1753,
      "Ġtr": 1754,
      "ological": 1755,
      "pose": 1756,
      "Ġwee": 1757,
      "HE": 1758,
      "Ġsince": 1759,
      "ik": 1760,
      "OTAL": 1761,
      "Ġpa": 1762,
      "Ġconn": 1763,
      "ma": 1764,
      "ots": 1765,
      "ĠĠĠĠĠĠĠĠĠĠĠĠĠĠĠĠĠĠ": 1766,
      "Ġdri": 1767,
      "Ġunt": 1768,
      "Ġnet": 1769,
      "ĠZip": 1770,
      "Ġparticular": 1771,
      "Ġfeel": 1772,
      "ĠCount": 1773,
      "ames": 1774,
      "MM": 1775,
      "Ġinvol": 1776,
      "ĠCent": 1777,
      "ĠHowever": 1778,
      "|------------------------": 1779,
      "ocu": 1780,
      "Ġmarket": 1781,
      "cript": 1782,
      "ours": 1783,
      "ither": 1784,
      "ĠâĢĺ": 1785,
      "Ġdiscuss": 1786,
      "Ġrespons": 1787,
      "work": 1788,
      "Ġmeans": 1789,
      "ortun": 1790,
      "rodu": 1791,
      "|------------------": 1792,
      "Ġtyp": 1793,
      "mber": 1794,
      "-d": 1795,
      "ND": 1796,
      "ĠMA": 1797,
      "Ġmembers": 1798,
      "ogn": 1799,
      "Ġlight": 1800,
      "Ġfore": 1801,
      "ental": 1802,
      "Ġmult": 1803,
      "Ġpropos": 1804,
      "Ġaction": 1805,
      "Ġgovernment": 1806,
      "Ġcell": 1807,
      "Ġlet": 1808,
      "Ġsaf": 1809,
      "esp": 1810,
      "be": 1811,
      "Ġhome": 1812,
      "sc": 1813,
      "Ġhy": 1814,
      "ills": 1815,
      "ley": 1816,
      "Ġbody": 1817,
      "Ġbre": 1818,
      "Ġi": 1819,
      "ially": 1820,
      "ĠSy": 1821,
      "uture": 1822,
      "Ġservice": 1823,
      "Ġz": 1824,
      "ina": 1825,
      "uation": 1826,
      "Ġhead": 1827,
      "Ġtri": 1828,
      "Ġexpl": 1829,
      "Ġcommon": 1830,
      "ĠĠĠĠĠĠĠĠĠĠĠĠĠĠĠĠĠĠĠĠĠ": 1831,
      "Ġabove": 1832,
      "Ġkeep": 1833,
      "Ġreview": 1834,
      "ĠCo": 1835,
      "Ġsomething": 1836,
      "urs": 1837,
      "Ġobject": 1838,
      "Ġcourse": 1839,
      "ĠPO": 1840,
      "ĠDep": 1841,
      "Ġgr": 1842,
      "Ġrisk": 1843,
      "Ġask": 1844,
      "Ġdra": 1845,
      "ilar": 1846,
      "ĠUnited": 1847,
      "ired": 1848,
      "ending": 1849,
      "sw": 1850,
      "sure": 1851,
      "ĠMe": 1852,
      "Ġorganization": 1853,
      "cil": 1854,
      "ustom": 1855,
      "Ġold": 1856,
      "Ġcop": 1857,
      "eed": 1858,
      "ris": 1859,
      "Ġexist": 1860,
      "ĠEmployed": 1861,
      "not": 1862,
      "ont": 1863,
      "Ġenergy": 1864,
      ".com": 1865,
      "ocus": 1866,
      "osp": 1867,
      "Ġput": 1868,
      "Ġindic": 1869,
      "Ġdev": 1870,
      "ĠGo": 1871,
      "verage": 1872,
      "Ġdays": 1873,
      "Ġmanagement": 1874,
      "Ġseem": 1875,
      "ĠReg": 1876,
      "gin": 1877,
      "Ġsl": 1878,
      "hold": 1879,
      "une": 1880,
      "aim": 1881,
      "ID": 1882,
      "ĠĠĠĠĠĠĠĠĠĠĠĠĠĠĠĠĠĠĠĠ": 1883,
      "ats": 1884,
      "ĠOn": 1885,
      "Ġcome": 1886,
      "lev": 1887,
      "thing": 1888,
      "UR": 1889,
      "Ġcommunity": 1890,
      "Ġmajor": 1891,
      "ibility": 1892,
      "ording": 1893,
      "Ġphys": 1894,
      "Ġable": 1895,
      "angu": 1896,
      "Ġareas": 1897,
      "Ġparticip": 1898,
      "ohn": 1899,
      "Ġcult": 1900,
      "ately": 1901,
      "Ġsubject": 1902,
      "ĠPol": 1903,
      "att": 1904,
      "Ġnecess": 1905,
      "oid": 1906,
      "Ġindust": 1907,
      "Ġview": 1908,
      "by": 1909,
      "stit": 1910,
      "lement": 1911,
      "Ġtre": 1912,
      "ograph": 1913,
      "Ġhard": 1914,
      "Ġcertain": 1915,
      "mb": 1916,
      "Ġstat": 1917,
      "Ġrepresent": 1918,
      "aken": 1919,
      "Ġprovided": 1920,
      "Ġassoci": 1921,
      "agn": 1922,
      "ĠBel": 1923,
      "abor": 1924,
      "atory": 1925,
      "ĠSec": 1926,
      ".\"Ċ": 1927,
      "yn": 1928,
      "ember": 1929,
      "Ġlittle": 1930,
      "Ġprom": 1931,
      "Ġalways": 1932,
      "ille": 1933,
      "Ġsever": 1934,
      "Ġspecific": 1935,
      "ledge": 1936,
      "oot": 1937,
      "lished": 1938,
      "ĠWhat": 1939,
      "ST": 1940,
      "ĠShe": 1941,
      "Ġmov": 1942,
      "ĠMar": 1943,
      "-m": 1944,
      "Ġfre": 1945,
      "eter": 1946,
      "Ġreason": 1947,
      "TOTAL": 1948,
      "Ġfamily": 1949,
      "ged": 1950,
      "ĠCycle": 1951,
      "Ġexperience": 1952,
      "Ġnext": 1953,
      "IP": 1954,
      "ories": 1955,
      "Ġtax": 1956,
      "Ġnever": 1957,
      "cing": 1958,
      "Ġmar": 1959,
      "Ġpotential": 1960,
      "ole": 1961,
      "oney": 1962,
      "ĠGod": 1963,
      "Ġmove": 1964,
      "Ġsuccess": 1965,
      "Ġcharacter": 1966,
      "Ġsing": 1967,
      "itted": 1968,
      "Ġfinancial": 1969,
      "Ġwar": 1970,
      "atch": 1971,
      "ued": 1972,
      "ĠAt": 1973,
      "Ġsystems": 1974,
      "face": 1975,
      "Ġmeasure": 1976,
      "Ġfree": 1977,
      "CH": 1978,
      "Ġrate": 1979,
      "Ġteam": 1980,
      "Ch": 1981,
      "Ġturn": 1982,
      "ĠReport": 1983,
      "iver": 1984,
      "acy": 1985,
      "|------------------------------------------------": 1986,
      "Ġmot": 1987,
      "ĠWhen": 1988,
      "Ġtimes": 1989,
      "Ġcalled": 1990,
      "Ġwomen": 1991,
      "ĠMemo": 1992,
      "right": 1993,
      "Ġclear": 1994,
      "Ġleast": 1995,
      "hers": 1996,
      "Ġothers": 1997,
      "olution": 1998,
      "Ġanalysis": 1999,
      "Ġcrit": 2000,
      "}$": 2001,
      "af": 2002,
      "Ġfurther": 2003,
      "Ġfuture": 2004,
      "Ġfour": 2005,
      "Ġaut": 2006,
      "Ġair": 2007,
      "Ġlo": 2008,
      "minist": 2009,
      "-t": 2010,
      "urity": 2011,
      "Ġneeds": 2012,
      "Ġtry": 2013,
      "ouncil": 2014,
      "Ġbra": 2015,
      "ggest": 2016,
      "ourn": 2017,
      "Ġquestion": 2018,
      "ĠOrgan": 2019,
      "Ġexam": 2020,
      "imum": 2021,
      "ĠBox": 2022,
      "Ġlot": 2023,
      "As": 2024,
      "ĠMed": 2025,
      "Ġgive": 2026,
      "ird": 2027,
      "ĠMay": 2028,
      "Ġpage": 2029,
      "):": 2030,
      "Ġopt": 2031,
      "Ġfull": 2032,
      "Ġdescrib": 2033,
      "ĠâĢĶ": 2034,
      "ression": 2035,
      "'re": 2036,
      "lus": 2037,
      "serv": 2038,
      "Ġcomplete": 2039,
      "Ġenc": 2040,
      ".org": 2041,
      "Ġwhy": 2042,
      "ĠAC": 2043,
      "Ã©": 2044,
      "Ġfocus": 2045,
      "specify": 2046,
      "Ġchanges": 2047,
      "sy": 2048,
      "ott": 2049,
      "aster": 2050,
      "Ġassess": 2051,
      "Ġtype": 2052,
      "Ġconditions": 2053,
      "Ġincrease": 2054,
      "bal": 2055,
      "ray": 2056,
      "ales": 2057,
      "ĠBro": 2058,
      "ators": 2059,
      "ĠCounty": 2060,
      "Ġbecome": 2061,
      "ĠBoard": 2062,
      "ler": 2063,
      "---|": 2064,
      "use": 2065,
      "Ġuntil": 2066,
      "Ġmus": 2067,
      "Ġmaking": 2068,
      "Ġcomb": 2069,
      "Ġorig": 2070,
      "Ġseveral": 2071,
      "ms": 2072,
      "err": 2073,
      "ĠBe": 2074,
      "rad": 2075,
      "Ġsw": 2076,
      "If": 2077,
      "Ġwhether": 2078,
      "Ġbook": 2079,
      "ĠPart": 2080,
      "ĠCan": 2081,
      "Ġbi": 2082,
      "Ġspecial": 2083,
      "rac": 2084,
      "ream": 2085,
      "Ġpurpose": 2086,
      "|------------------------------------": 2087,
      "ilit": 2088,
      "Ġknown": 2089,
      "Ġpress": 2090,
      "ĠThat": 2091,
      "atural": 2092,
      "UB": 2093,
      "eb": 2094,
      "pri": 2095,
      "Ġworking": 2096,
      "Ġestab": 2097,
      "Ġrelations": 2098,
      "ĠRo": 2099,
      "Ġsuggest": 2100,
      "Ġann": 2101,
      "Ġimprove": 2102,
      "ead": 2103,
      "Ġdocu": 2104,
      "Ġcontributions": 2105,
      "ians": 2106,
      "Ġshort": 2107,
      "roll": 2108,
      "ids": 2109,
      "ĠĠĠĠĠĠĠĠĠĠĠĠĠĠĠĠĠĠĠ": 2110,
      "Ġlisted": 2111,
      "hy": 2112,
      "Ġcaus": 2113,
      "Ġamong": 2114,
      "ope": 2115,
      "ules": 2116,
      "Ġart": 2117,
      "ENT": 2118,
      "ising": 2119,
      "ĠAmerican": 2120,
      "ĠIN": 2121,
      "Ġlearn": 2122,
      "Ġprob": 2123,
      "Ġpo": 2124,
      "ĠChrist": 2125,
      "ĠĠĠĠĠĠĠĠĠĠĠĠĠĠĠĠĠĠĠĠĠĠĠĠĠĠĠĠĠ": 2126,
      "Ġhigher": 2127,
      "âĢľ": 2128,
      "Ġdiff": 2129,
      "ridge": 2130,
      "Ġcorre": 2131,
      "Ġdetail": 2132,
      "ĠCar": 2133,
      "Ġtru": 2134,
      "ees": 2135,
      "gen": 2136,
      "ges": 2137,
      "ects": 2138,
      "ĠEuro": 2139,
      "ape": 2140,
      "EL": 2141,
      "Ġrecomm": 2142,
      "chie": 2143,
      "Ġcomput": 2144,
      "Ġhaving": 2145,
      "Ġperformance": 2146,
      "last": 2147,
      "plement": 2148,
      "Ġpercent": 2149,
      "Ġeffective": 2150,
      "ables": 2151,
      "ooks": 2152,
      "ule": 2153,
      "Ġpain": 2154,
      "ta": 2155,
      "Ġmen": 2156,
      "Ġflow": 2157,
      "Ġsimilar": 2158,
      "ume": 2159,
      "Ġkey": 2160,
      "ĠInc": 2161,
      ".g": 2162,
      "aps": 2163,
      "ceed": 2164,
      "ng": 2165,
      "US": 2166,
      "ran": 2167,
      "incip": 2168,
      "Ġrad": 2169,
      "Ġquality": 2170,
      "Ġgener": 2171,
      "ĠHealth": 2172,
      "Ġ................................": 2173,
      "ires": 2174,
      "ĠJohn": 2175,
      "asing": 2176,
      "enn": 2177,
      "ery": 2178,
      "IL": 2179,
      "alf": 2180,
      "ication": 2181,
      "Ġkind": 2182,
      "Ġdise": 2183,
      "ĠStud": 2184,
      "Ġalong": 2185,
      "Ġactivities": 2186,
      "ET": 2187,
      "though": 2188,
      "Ġimplement": 2189,
      "Ġgl": 2190,
      "ĠMr": 2191,
      "oms": 2192,
      "rap": 2193,
      "Ġcompany": 2194,
      "unt": 2195,
      "ĠElection": 2196,
      "Ġhold": 2197,
      "arget": 2198,
      "Ġcustom": 2199,
      "'m": 2200,
      "ĠIntern": 2201,
      "Ġnear": 2202,
      "anguage": 2203,
      "Ġcountry": 2204,
      "Ġexc": 2205,
      "otal": 2206,
      "What": 2207,
      "ĠVTE": 2208,
      "Ġsection": 2209,
      "ulations": 2210,
      "Ġupon": 2211,
      "Note": 2212,
      "ained": 2213,
      "Ġrelated": 2214,
      "ides": 2215,
      "ĠWest": 2216,
      "Ġpast": 2217,
      "cription": 2218,
      "Ġoffic": 2219,
      "ĠStates": 2220,
      "*,": 2221,
      "Ġeither": 2222,
      "riends": 2223,
      "rate": 2224,
      "OL": 2225,
      "Ġsum": 2226,
      "ask": 2227,
      "ATION": 2228,
      "let": 2229,
      "Ġlearning": 2230,
      "Ġprofess": 2231,
      "Ġstrong": 2232,
      "Ġregard": 2233,
      "wards": 2234,
      "ĠNational": 2235,
      "ĠPlan": 2236,
      "Ġtreatment": 2237,
      "utions": 2238,
      "utes": 2239,
      "ones": 2240,
      "ĠInt": 2241,
      "|--------------------": 2242,
      "Ġleft": 2243,
      "Ġmillion": 2244,
      "side": 2245,
      "icro": 2246,
      "Ġcirc": 2247,
      "Ġprior": 2248,
      "ĠĠĠĠĠĠĠĠĠĠĠĠĠĠĠĠĠĠĠĠĠĠĠĠĠ": 2249,
      "Ġant": 2250,
      "regate": 2251,
      "Ġevent": 2252,
      "ATE": 2253,
      "Ġtrad": 2254,
      "Ġappear": 2255,
      "Ġbig": 2256,
      "Pro": 2257,
      "ĠCal": 2258,
      "Ġansw": 2259,
      "Ġsite": 2260,
      "âĢ¢": 2261,
      "ĠMin": 2262,
      "Ġdone": 2263,
      "ready": 2264,
      "Ġvarious": 2265,
      ",âĢĿ": 2266,
      "aring": 2267,
      "Ġearly": 2268,
      "Ġbelow": 2269,
      "ĠBl": 2270,
      "AD": 2271,
      "ĠCompany": 2272,
      "icult": 2273,
      "Ġage": 2274,
      "Ġstep": 2275,
      "Ġport": 2276,
      "For": 2277,
      "aces": 2278,
      "Ġaway": 2279,
      "Ġworks": 2280,
      "Ġhtt": 2281,
      "Ġacross": 2282,
      "Am": 2283,
      "Ġsolic": 2284,
      "ĠPre": 2285,
      "Ġissues": 2286,
      "ĠEurope": 2287,
      "ene": 2288,
      "Ġopportun": 2289,
      "Ġsure": 2290,
      "Ġrequest": 2291,
      "ung": 2292,
      "Ġpolicy": 2293,
      "Ġapproach": 2294,
      "II": 2295,
      "Ġhouse": 2296,
      "Ġwr": 2297,
      "Ġ#": 2298,
      "isions": 2299,
      "Ġfar": 2300,
      "Ġside": 2301,
      "Ġgre": 2302,
      "sup": 2303,
      "hing": 2304,
      "Ġreturn": 2305,
      "Ġtoget": 2306,
      "Ġtogether": 2307,
      "ĠPage": 2308,
      "Ġenough": 2309,
      "Ġagree": 2310,
      "Ġachie": 2311,
      "ney": 2312,
      "Ġâĸ¼": 2313,
      "ĠDr": 2314,
      "ĠGu": 2315,
      "lected": 2316,
      "Ġ:": 2317,
      "ored": 2318,
      "Ġlevels": 2319,
      "AP": 2320,
      "Ġclaim": 2321,
      "Ġapplication": 2322,
      "Ġappropri": 2323,
      "Ġmeeting": 2324,
      "PF": 2325,
      "urch": 2326,
      "Ġweek": 2327,
      "ĠCouncil": 2328,
      "Ġloss": 2329,
      "Ġjob": 2330,
      "Ġspace": 2331,
      "go": 2332,
      "Ġconsider": 2333,
      "Ġproblems": 2334,
      "Ġrecogn": 2335,
      "ĠDes": 2336,
      "ĠBelow": 2337,
      "cation": 2338,
      "Ġmoney": 2339,
      "Ġnecessary": 2340,
      "Ġsingle": 2341,
      "cer": 2342,
      "Ġlater": 2343,
      "Ġalready": 2344,
      "ociety": 2345,
      "ĠSchool": 2346,
      "oice": 2347,
      "ĠOrganization": 2348,
      "Ġconsidered": 2349,
      "Ġterms": 2350,
      "Ġbehav": 2351,
      "ticle": 2352,
      "istic": 2353,
      "Ġsens": 2354,
      "Ġeducation": 2355,
      "###": 2356,
      "ump": 2357,
      "Ġpriv": 2358,
      "epend": 2359,
      "Ġcommerc": 2360,
      "apt": 2361,
      "ership": 2362,
      "Ġthing": 2363,
      "ister": 2364,
      "ĠDirect": 2365,
      "Ġsays": 2366,
      "Ġaccept": 2367,
      "now": 2368,
      "Ġfail": 2369,
      "Ġhistory": 2370,
      "Ġ<": 2371,
      "Ġtaken": 2372,
      "onse": 2373,
      "ique": 2374,
      "Ġprevious": 2375,
      "Ġdate": 2376,
      "Ġneg": 2377,
      "ony": 2378,
      "ĠDepartment": 2379,
      "name": 2380,
      "ĠCor": 2381,
      "ĠWor": 2382,
      "Ġlit": 2383,
      "ĠĠĠĠĠĠĠĠĠĠĠĠĠĠĠĠĠĠĠĠĠĠ": 2384,
      "\\)": 2385,
      "ivity": 2386,
      "Ġparent": 2387,
      "itional": 2388,
      "atures": 2389,
      "ison": 2390,
      "nces": 2391,
      "Ġproduction": 2392,
      "ĠFin": 2393,
      "erson": 2394,
      "onst": 2395,
      "ples": 2396,
      "Ġlikely": 2397,
      "uck": 2398,
      "Ġconsum": 2399,
      "Ġtell": 2400,
      "ried": 2401,
      "Ġself": 2402,
      "Ġposition": 2403,
      "Ġtext": 2404,
      "Ġcause": 2405,
      "Ġnorm": 2406,
      "rated": 2407,
      "Ġconcern": 2408,
      "ĠĠĠĠĠĠĠĠĠĠĠĠĠĠĠĠĠĠĠĠĠĠĠĠ": 2409,
      "ĠWith": 2410,
      "Ġpatients": 2411,
      "most": 2412,
      "ptional": 2413,
      "Ġtemper": 2414,
      "Ġproducts": 2415,
      "Ġproperty": 2416,
      "Ġrange": 2417,
      "ĠDo": 2418,
      "--|Ċ": 2419,
      "poses": 2420,
      "Ġdam": 2421,
      "Ġess": 2422,
      "ĠOne": 2423,
      "Ġknowledge": 2424,
      "Ġrole": 2425,
      "Ġill": 2426,
      "hib": 2427,
      "ĠTra": 2428,
      "Ġhowever": 2429,
      "Ġvers": 2430,
      "Ġrelationship": 2431,
      "Ġsold": 2432,
      "yl": 2433,
      "ights": 2434,
      "osed": 2435,
      "Ġground": 2436,
      "Ġcontract": 2437,
      "Ġconduct": 2438,
      "Ġpred": 2439,
      "Ġcommercial": 2440,
      "augh": 2441,
      "ĠRec": 2442,
      "Ġcases": 2443,
      "lobal": 2444,
      "UE": 2445,
      "Ġstaff": 2446,
      "Ġmakes": 2447,
      "igation": 2448,
      "www": 2449,
      "Ġchall": 2450,
      "chan": 2451,
      "ĠEarmarked": 2452,
      "Ġgot": 2453,
      "Ġaud": 2454,
      "ournal": 2455,
      "Ġbuilding": 2456,
      "Ġprevent": 2457,
      "Ġsubm": 2458,
      "ĠQu": 2459,
      "Ġtarget": 2460,
      "Ġobserv": 2461,
      "ĠST": 2462,
      "ĠTHE": 2463,
      "Ġcompet": 2464,
      "Ġcreate": 2465,
      "ivil": 2466,
      "Ġvalues": 2467,
      "teg": 2468,
      "Ġrequirements": 2469,
      "Ġcred": 2470,
      "Ġsuper": 2471,
      "Ġpurposes": 2472,
      "ĠAbove": 2473,
      "Ġlower": 2474,
      "Ġmind": 2475,
      "rug": 2476,
      "Ġabs": 2477,
      "son": 2478,
      "Ġey": 2479,
      "________________________________": 2480,
      "ĠFr": 2481,
      "Trans": 2482,
      "ĠJan": 2483,
      "pped": 2484,
      "Ġdifficult": 2485,
      "ulated": 2486,
      "Ġoccur": 2487,
      "Ġtool": 2488,
      "Ġcontact": 2489,
      "Ġtraining": 2490,
      "oll": 2491,
      "Ġdr": 2492,
      "Ġver": 2493,
      "Ġsat": 2494,
      "Ġensure": 2495,
      "ai": 2496,
      "Ġmaintain": 2497,
      "gress": 2498,
      "Ġtechnology": 2499,
      "Ġshare": 2500,
      "Ġcalc": 2501,
      "Ġgroups": 2502,
      "There": 2503,
      "Ġquestions": 2504,
      "Ġdeb": 2505,
      "Ġflo": 2506,
      "Ġactually": 2507,
      "Ġdom": 2508,
      "'ve": 2509,
      "Ġstructure": 2510,
      "ension": 2511,
      "ĠEd": 2512,
      "aging": 2513,
      "Ġbegin": 2514,
      "Ġobtain": 2515,
      "pro": 2516,
      "lin": 2517,
      "ibr": 2518,
      "Ġhours": 2519,
      "ĠPres": 2520,
      "urb": 2521,
      "How": 2522,
      "Ġearmarked": 2523,
      "ĠCOMM": 2524,
      "...Ċ": 2525,
      "selves": 2526,
      "Ġeval": 2527,
      "Ġlove": 2528,
      "Ġadditional": 2529,
      "ĠGe": 2530,
      "fact": 2531,
      "ĠPar": 2532,
      "Ġtalk": 2533,
      "ĠSte": 2534,
      "orts": 2535,
      "Bl": 2536,
      "Ġrather": 2537,
      "Ġplant": 2538,
      "Ġgrowth": 2539,
      "Ġcannot": 2540,
      "|---------": 2541,
      "uly": 2542,
      "ĠCommittee": 2543,
      "sequ": 2544,
      "|-----------------": 2545,
      "Ġclose": 2546,
      "PFN": 2547,
      "MP": 2548,
      "Ġneeded": 2549,
      "Ġevidence": 2550,
      "Ġseen": 2551,
      "Ġwords": 2552,
      "Ġonce": 2553,
      "ront": 2554,
      "irm": 2555,
      "Ġpersonal": 2556,
      "Ġsize": 2557,
      "vey": 2558,
      "Ġmonths": 2559,
      "ÂłÂłÂłÂł": 2560,
      "Ġresources": 2561,
      "Ġcreat": 2562,
      "Ġnational": 2563,
      "iles": 2564,
      "You": 2565,
      "ĠPr": 2566,
      "}{": 2567,
      "Ġwhole": 2568,
      "roup": 2569,
      "Ġprovides": 2570,
      "CO": 2571,
      "Ġthought": 2572,
      "aged": 2573,
      "Ġnatural": 2574,
      "Ġcosts": 2575,
      "ipment": 2576,
      "Ġut": 2577,
      "Ġeffects": 2578,
      "ĠCour": 2579,
      "Ġdeg": 2580,
      "Ġstandard": 2581,
      "ï¬": 2582,
      "ĠAND": 2583,
      "Ġassociated": 2584,
      "Ġstudies": 2585,
      "Ġsoft": 2586,
      "Ġlanguage": 2587,
      "medi": 2588,
      "ĠVPFN": 2589,
      "Ġsect": 2590,
      "CE": 2591,
      "math": 2592,
      "hic": 2593,
      "Ġeffic": 2594,
      "Ġetc": 2595,
      "Ġengine": 2596,
      "empt": 2597,
      "Ġsent": 2598,
      "Ġitem": 2599,
      "istics": 2600,
      "erscript": 2601,
      "|---------|Ċ": 2602,
      "lation": 2603,
      "ĠDist": 2604,
      "Ġanim": 2605,
      "sych": 2606,
      "Ġshown": 2607,
      "example": 2608,
      "Ġwind": 2609,
      "Ġstory": 2610,
      "espec": 2611,
      "superscript": 2612,
      "textsuperscript": 2613,
      "Ġinteg": 2614,
      "apter": 2615,
      "ĠCommission": 2616,
      ".âĢĿĊ": 2617,
      "frac": 2618,
      "oura": 2619,
      "lege": 2620,
      "aching": 2621,
      "lied": 2622,
      "Ġinflu": 2623,
      "especially": 2624,
      "ĠCommun": 2625,
      "Ġarg": 2626,
      "Ġphot": 2627,
      "Ġcountries": 2628,
      "ĠAcc": 2629,
      "AME": 2630,
      "iation": 2631,
      "Ġtoday": 2632,
      "ief": 2633,
      "ii": 2634,
      "ender": 2635,
      "Ġsepar": 2636,
      "atives": 2637,
      "Ġfrequ": 2638,
      "Ġdoing": 2639,
      "Ġfive": 2640,
      "omes": 2641,
      "Ġpaper": 2642,
      "@example": 2643,
      "Ġever": 2644,
      "ging": 2645,
      "anies": 2646,
      "ĠAf": 2647,
      "Ġprincip": 2648,
      "Ġissue": 2649,
      "ĠBy": 2650,
      "Ġpoints": 2651,
      "Ġhappen": 2652,
      "MS": 2653,
      "just": 2654,
      "Ġcheck": 2655,
      "aining": 2656,
      "ush": 2657,
      "ĠNorth": 2658,
      "ival": 2659,
      "Ġactivity": 2660,
      "atter": 2661,
      "Ġincluded": 2662,
      "ault": 2663,
      "emic": 2664,
      "Ġaverage": 2665,
      "Ġproposed": 2666,
      "ĠOff": 2667,
      "ĠJune": 2668,
      "aries": 2669,
      "Ġpub": 2670,
      "ands": 2671,
      "Ġeconomic": 2672,
      "ĠMc": 2673,
      "Ġperm": 2674,
      "ĠRE": 2675,
      "Ġbo": 2676,
      "Ġdig": 2677,
      "izing": 2678,
      "na": 2679,
      "anced": 2680,
      "Ġspecies": 2681,
      "RI": 2682,
      "reet": 2683,
      "ilt": 2684,
      "Ġsurface": 2685,
      "rast": 2686,
      ")**Ċ": 2687,
      "Ġpopulation": 2688,
      "Ġappropriate": 2689,
      "ĠSouth": 2690,
      "Ġfire": 2691,
      "MI": 2692,
      "illed": 2693,
      "Ġmultip": 2694,
      "Ġrights": 2695,
      "Ġdisease": 2696,
      "arc": 2697,
      "ĠNe": 2698,
      "Ġpath": 2699,
      "ĠProgram": 2700,
      "To": 2701,
      "ĠEdu": 2702,
      "Ġvir": 2703,
      "ĠAc": 2704,
      "ĠMarch": 2705,
      "Ġindustry": 2706,
      "umb": 2707,
      "Ġlive": 2708,
      "Ġ\\)": 2709,
      "UN": 2710,
      "Ġreceived": 2711,
      "Ġheld": 2712,
      "Ġdeath": 2713,
      "lex": 2714,
      "Ġstudent": 2715,
      "ties": 2716,
      "mm": 2717,
      "Ġreported": 2718,
      "itud": 2719,
      "oman": 2720,
      "Ġentire": 2721,
      "sh": 2722,
      "ecut": 2723,
      "Ġcontent": 2724,
      "Ġteac": 2725,
      "Ġproced": 2726,
      "Ġsound": 2727,
      "duit": 2728,
      "ĠYork": 2729,
      "Ġsubst": 2730,
      "ĠĠĠĠĠĠĠĠĠĠĠĠĠĠĠĠĠĠĠĠĠĠĠĠĠĠĠĠĠĠĠĠĠ": 2731,
      "cies": 2732,
      "Ġblood": 2733,
      "Ġcomplex": 2734,
      "-based": 2735,
      "ites": 2736,
      "lor": 2737,
      "CC": 2738,
      "ows": 2739,
      "place": 2740,
      "Ġconsist": 2741,
      "Ġshows": 2742,
      "Ġmor": 2743,
      "\\(": 2744,
      "Ġ--": 2745,
      "iam": 2746,
      "aced": 2747,
      "Ġimm": 2748,
      "Ġcut": 2749,
      "ĠTr": 2750,
      "âĢ¦âĢ¦": 2751,
      "Ġspe": 2752,
      "Ġmass": 2753,
      "etic": 2754,
      "ises": 2755,
      "ĠSystem": 2756,
      "Ġresponse": 2757,
      "ĠVal": 2758,
      "ager": 2759,
      "Ġincreased": 2760,
      "SS": 2761,
      "Ġfall": 2762,
      "dd": 2763,
      "Ġespecially": 2764,
      "ĠRep": 2765,
      "Ġphysical": 2766,
      "cember": 2767,
      "urance": 2768,
      "ured": 2769,
      "Ġmatter": 2770,
      "FEC": 2771,
      "ĠDevelop": 2772,
      "Ġaccording": 2773,
      "Ġpractice": 2774,
      "Ġdocument": 2775,
      "Ġcity": 2776,
      "Ġgame": 2777,
      "verse": 2778,
      "Ġheart": 2779,
      "Ġsex": 2780,
      "Ġestim": 2781,
      "Ġbar": 2782,
      "Ġviol": 2783,
      "Al": 2784,
      "Ġnetwork": 2785,
      "Ġla": 2786,
      "Ġlay": 2787,
      "Ġtw": 2788,
      "Ġsource": 2789,
      "Ġcame": 2790,
      "ĠConduit": 2791,
      "Ġtypes": 2792,
      "lying": 2793,
      "Amount": 2794,
      "Ġlog": 2795,
      "ÂłĊ": 2796,
      "Ġways": 2797,
      "Ġprograms": 2798,
      "Transaction": 2799,
      "uel": 2800,
      "BL": 2801,
      "Ġdeal": 2802,
      "Ġyet": 2803,
      "ITTE": 2804,
      "ĠDis": 2805,
      "Ġdoesn": 2806,
      "Ġintrodu": 2807,
      "Ġsal": 2808,
      "ensive": 2809,
      "Ġbelieve": 2810,
      "Ġassist": 2811,
      "iction": 2812,
      "Ġyoung": 2813,
      "Ġdecision": 2814,
      "-in": 2815,
      "Ġwa": 2816,
      "Ġdeveloped": 2817,
      "ĠWill": 2818,
      "ĠAug": 2819,
      "ĠTechn": 2820,
      "Ġmaterials": 2821,
      "optional": 2822,
      "ĠResearch": 2823,
      "AG": 2824,
      "wh": 2825,
      "pper": 2826,
      "ĠOct": 2827,
      "Ġclos": 2828,
      "ĠPa": 2829,
      "ls": 2830,
      "ift": 2831,
      "Ġincludes": 2832,
      "Ġonline": 2833,
      "ĠAust": 2834,
      "acks": 2835,
      "iff": 2836,
      "Ġusually": 2837,
      "Wh": 2838,
      "ences": 2839,
      "itiz": 2840,
      "Blue": 2841,
      "Ġidea": 2842,
      "Ġmax": 2843,
      "overed": 2844,
      "uary": 2845,
      "ength": 2846,
      "Ġrev": 2847,
      "Ġdidn": 2848,
      "Ġnature": 2849,
      "oph": 2850,
      "ĠChar": 2851,
      "-S": 2852,
      "ched": 2853,
      "Ġpositive": 2854,
      "Ġbit": 2855,
      "udget": 2856,
      "Ġsafety": 2857,
      "Ġconcept": 2858,
      "Ġemail": 2859,
      "UBTOTAL": 2860,
      "Ex": 2861,
      "ores": 2862,
      "ITTEE": 2863,
      "Ġfactors": 2864,
      "Ġability": 2865,
      "âĢĻre": 2866,
      "Ġwritten": 2867,
      "hemical": 2868,
      "ĠSpec": 2869,
      "Ġmedical": 2870,
      "Ġlimited": 2871,
      "TH": 2872,
      "ĠSch": 2873,
      "ĠApr": 2874,
      "erve": 2875,
      "do": 2876,
      "Ġcompon": 2877,
      "resp": 2878,
      "ĠReceipts": 2879,
      "Ġbal": 2880,
      "Ġcondition": 2881,
      "ĠSub": 2882,
      "Ġevents": 2883,
      "ches": 2884,
      "iences": 2885,
      "ĠCOMMITTEE": 2886,
      "Ġtaking": 2887,
      "Ġemer": 2888,
      "'ll": 2889,
      "Ġface": 2890,
      "Ġsomeone": 2891,
      "Ġwin": 2892,
      "-re": 2893,
      "Ġrefer": 2894,
      "ĠManagement": 2895,
      "Ġword": 2896,
      "Ġscient": 2897,
      "itation": 2898,
      "ĠSection": 2899,
      "Ġmess": 2900,
      "OC": 2901,
      "iti": 2902,
      "wise": 2903,
      "ĠPe": 2904,
      "Ġemp": 2905,
      "ĠSome": 2906,
      "---|---|": 2907,
      "Ġcr": 2908,
      "ĠAssoci": 2909,
      "ober": 2910,
      "Ġpack": 2911,
      "ached": 2912,
      ");": 2913,
      "ili": 2914,
      "ha": 2915,
      "reme": 2916,
      "IR": 2917,
      "elling": 2918,
      "co": 2919,
      "ĠBar": 2920,
      "itch": 2921,
      "Ġinstit": 2922,
      "Ġmethods": 2923,
      "ĠCons": 2924,
      "Ġtrue": 2925,
      "Ġtook": 2926,
      "Ġred": 2927,
      "ips": 2928,
      "ĠDecember": 2929,
      "ike": 2930,
      "Ġequipment": 2931,
      "Ġalmost": 2932,
      "ĠMon": 2933,
      "inary": 2934,
      "Ġstates": 2935,
      "Ġbasis": 2936,
      "ĠSm": 2937,
      "Ġunderstanding": 2938,
      "ĠMod": 2939,
      "omet": 2940,
      "su": 2941,
      "rial": 2942,
      "ze": 2943,
      "Figure": 2944,
      "ĠActBlue": 2945,
      "Ġexisting": 2946,
      "Ġoil": 2947,
      "$$": 2948,
      "reng": 2949,
      "aut": 2950,
      "pping": 2951,
      "ĠMy": 2952,
      "Ġwriting": 2953,
      "hood": 2954,
      "AB": 2955,
      "Ġmechan": 2956,
      "Ġsense": 2957,
      "anks": 2958,
      "Ġcells": 2959,
      "lements": 2960,
      "Ġste": 2961,
      "opt": 2962,
      "ĠHar": 2963,
      "Ġdefin": 2964,
      "à¤¾": 2965,
      "ĠAre": 2966,
      "SE": 2967,
      "ĠJuly": 2968,
      "ufact": 2969,
      "ĠPublic": 2970,
      "ĠImp": 2971,
      "ster": 2972,
      "ĠCanad": 2973,
      "Ġvide": 2974,
      "ae": 2975,
      "ĠGra": 2976,
      "Ġregular": 2977,
      "Ġful": 2978,
      "cks": 2979,
      "Ġbenefits": 2980,
      "lt": 2981,
      "Ġjud": 2982,
      "see": 2983,
      "Ġcompanies": 2984,
      "].": 2985,
      "ĠCamb": 2986,
      "Ġcoll": 2987,
      "Ġsecurity": 2988,
      "ply": 2989,
      "Ġbreak": 2990,
      "part": 2991,
      "vest": 2992,
      "Ġhalf": 2993,
      "He": 2994,
      "ground": 2995,
      "bon": 2996,
      "Ġbring": 2997,
      "Ġtemperature": 2998,
      "ĠServices": 2999,
      "Ġflu": 3000,
      "Ġvehic": 3001,
      "los": 3002,
      "bsite": 3003,
      "Ġfinal": 3004,
      "Ġquick": 3005,
      "|--------------------------------------------------------": 3006,
      "Ġoutside": 3007,
      "(\\": 3008,
      "Ġbr": 3009,
      "Ġthemselves": 3010,
      "cell": 3011,
      "Ġfav": 3012,
      "Ġskills": 3013,
      "Ġcontinue": 3014,
      "à¸": 3015,
      "Ġcorrect": 3016,
      "play": 3017,
      "Ġcomes": 3018,
      "levant": 3019,
      "ided": 3020,
      "Ġmom": 3021,
      "like": 3022,
      ".e": 3023,
      "ares": 3024,
      "ĠWorld": 3025,
      "Ġmedia": 3026,
      "rant": 3027,
      "Ġadminist": 3028,
      "ĠWar": 3029,
      "Ġexperim": 3030,
      "ĠMark": 3031,
      "\"Ċ": 3032,
      "Ġweight": 3033,
      "oose": 3034,
      "Ġcover": 3035,
      "fficient": 3036,
      "Ġremov": 3037,
      "Ġconstruction": 3038,
      "Ġexpected": 3039,
      "fully": 3040,
      "SUBTOTAL": 3041,
      "rew": 3042,
      "aving": 3043,
      "TER": 3044,
      "Ġmember": 3045,
      "ĠAggregate": 3046,
      "ĠInter": 3047,
      "ĠAfric": 3048,
      "Ġitself": 3049,
      "SI": 3050,
      "ĠLaw": 3051,
      "come": 3052,
      "Ġrelative": 3053,
      "Ġexpress": 3054,
      "ĠTO": 3055,
      "equ": 3056,
      "ĠSept": 3057,
      "ĠREC": 3058,
      "Ġdrug": 3059,
      "Ġfeed": 3060,
      "ĠBu": 3061,
      "yc": 3062,
      "Ġlab": 3063,
      "back": 3064,
      "Ġinstall": 3065,
      "Ġsimple": 3066,
      "Ġpressure": 3067,
      "imately": 3068,
      "eta": 3069,
      "ĠĠĠĠĠĠĠĠĠĠĠĠĠĠĠĠĠĠĠĠĠĠĠĠĠĠ": 3070,
      "Ġdest": 3071,
      "ĠGroup": 3072,
      "When": 3073,
      "Ġlooking": 3074,
      "umber": 3075,
      "ype": 3076,
      "Mem": 3077,
      "Ġmach": 3078,
      "ĠBrown": 3079,
      "Ġprep": 3080,
      "Ġtable": 3081,
      "Ġroom": 3082,
      "Ġavoid": 3083,
      "ĠHis": 3084,
      "ĠAfter": 3085,
      "Ġboard": 3086,
      "Ġliving": 3087,
      "Ġincome": 3088,
      "Ġgetting": 3089,
      "ĠĠĠĠĠĠĠĠĠĠĠĠĠĠĠĠĠĠĠĠĠĠĠĠĠĠĠĠ": 3090,
      "Ġge": 3091,
      "Ġrespect": 3092,
      "PA": 3093,
      "ĠEnglish": 3094,
      "load": 3095,
      "ington": 3096,
      "ĠHigh": 3097,
      "ĠUs": 3098,
      "irection": 3099,
      "ĠACT": 3100,
      "aves": 3101,
      "MENT": 3102,
      "ixed": 3103,
      "Ġgas": 3104,
      "riend": 3105,
      "bur": 3106,
      "Ġindepend": 3107,
      "Ġwide": 3108,
      "Ġinitial": 3109,
      "Ġlonger": 3110,
      "Â°": 3111,
      "Ġindividuals": 3112,
      "Ġinvolved": 3113,
      "ĠInstit": 3114,
      "Ġparam": 3115,
      "ĠBrit": 3116,
      "ĠEducation": 3117,
      "MA": 3118,
      "arily": 3119,
      "vis": 3120,
      "Ġinternational": 3121,
      "Ġidentify": 3122,
      "Ġreduce": 3123,
      "Ġasked": 3124,
      "ĠII": 3125,
      "Ġpurch": 3126,
      "Ġlink": 3127,
      "-w": 3128,
      "Ġuser": 3129,
      "Ġlegal": 3130,
      "Ġdescribed": 3131,
      "Ġasp": 3132,
      "Ġprec": 3133,
      "Ġrecommend": 3134,
      "Ġcamp": 3135,
      "-C": 3136,
      "Ġanswer": 3137,
      "Ġsix": 3138,
      "Ġactive": 3139,
      "$,": 3140,
      "/or": 3141,
      "ĠCambridge": 3142,
      "Ġanything": 3143,
      "off": 3144,
      "Ġnight": 3145,
      "set": 3146,
      "Ġprobably": 3147,
      "cal": 3148,
      "oon": 3149,
      "Ġpattern": 3150,
      "ey": 3151,
      "Ġstra": 3152,
      "Ġthird": 3153,
      "lim": 3154,
      "ĠProf": 3155,
      "ĠSupp": 3156,
      "Ġcreated": 3157,
      "ĠInternational": 3158,
      "ronic": 3159,
      "nov": 3160,
      "And": 3161,
      "Ġfarm": 3162,
      "Ġfair": 3163,
      "ĠProject": 3164,
      "Ġord": 3165,
      "lam": 3166,
      "yle": 3167,
      "Ġpresented": 3168,
      "Ġtherefore": 3169,
      "ĠEar": 3170,
      "Ġcou": 3171,
      "Ġmicro": 3172,
      "oring": 3173,
      "Ġgreater": 3174,
      "Ġelse": 3175,
      "Ġessential": 3176,
      "Ġinsp": 3177,
      "Ġbroad": 3178,
      "Ġbuy": 3179,
      "raft": 3180,
      "-h": 3181,
      "Ġwent": 3182,
      "Ġcross": 3183,
      "Ġclean": 3184,
      "Ġglobal": 3185,
      "Ġdou": 3186,
      "Ġminutes": 3187,
      "ctor": 3188,
      "ĠApril": 3189,
      "aly": 3190,
      "itting": 3191,
      "Ġdemonst": 3192,
      "ino": 3193,
      "ĠĠĠĠĠĠĠĠĠĠĠĠĠĠĠĠĠĠĠĠĠĠĠĠĠĠĠ": 3194,
      "ĠFeb": 3195,
      "Any": 3196,
      "Ġcompared": 3197,
      "Ġincreasing": 3198,
      "Ġdifference": 3199,
      "uk": 3200,
      "ĠCourt": 3201,
      "ford": 3202,
      "On": 3203,
      "Ġsett": 3204,
      "Ġroad": 3205,
      "Ġprice": 3206,
      "Ġconcent": 3207,
      "ĠDevelopment": 3208,
      "YY": 3209,
      "State": 3210,
      "Ġoffer": 3211,
      "ĠService": 3212,
      "Ġeasy": 3213,
      "light": 3214,
      "Ġrespond": 3215,
      "Ġerr": 3216,
      "ops": 3217,
      "acity": 3218,
      "airs": 3219,
      "Ġdesigned": 3220,
      "ĠPark": 3221,
      "ession": 3222,
      "issions": 3223,
      "Ġdirectly": 3224,
      "Ġanaly": 3225,
      "Ġrates": 3226,
      "itle": 3227,
      "ĠGerm": 3228,
      "Ġexpect": 3229,
      "Ġrecent": 3230,
      "Ġbad": 3231,
      "Ġscience": 3232,
      "Ġcapital": 3233,
      "ils": 3234,
      "iency": 3235,
      "ĠPresident": 3236,
      "ĠFund": 3237,
      "ĠWork": 3238,
      "ĠDec": 3239,
      "ovember": 3240,
      "vert": 3241,
      "ned": 3242,
      "IV": 3243,
      "pha": 3244,
      "ancy": 3245,
      "Ġder": 3246,
      "mpt": 3247,
      "Ġoriginal": 3248,
      "Ġstreng": 3249,
      "Ġmodels": 3250,
      "che": 3251,
      "Ġinform": 3252,
      "Ġcourt": 3253,
      "|-------": 3254,
      "Ġregion": 3255,
      "dro": 3256,
      "ana": 3257,
      "ĠLL": 3258,
      "Ġoffice": 3259,
      "ĠTotal": 3260,
      "Ġaltern": 3261,
      "istry": 3262,
      "eters": 3263,
      "bert": 3264,
      "Ġpict": 3265,
      "Ġstarted": 3266,
      "Ġchalleng": 3267,
      "inated": 3268,
      "Ġprojects": 3269,
      "Ġstrateg": 3270,
      "rs": 3271,
      "Ġseems": 3272,
      "Name": 3273,
      "iforn": 3274,
      "Ġexerc": 3275,
      "ĠDav": 3276,
      "Ġarticle": 3277,
      "ĠWater": 3278,
      "Ġmusic": 3279,
      "ricult": 3280,
      "Ġenvironmental": 3281,
      "Ġseries": 3282,
      "where": 3283,
      "Ġimmedi": 3284,
      ".;": 3285,
      "Ġreading": 3286,
      "ĠCenter": 3287,
      "Ġcode": 3288,
      "encies": 3289,
      "Ġparts": 3290,
      "ĠPat": 3291,
      "ming": 3292,
      "Ġdefined": 3293,
      "Ġrelig": 3294,
      "ening": 3295,
      "Ġparents": 3296,
      "Ġunits": 3297,
      "ĠĠĠĠĠĠĠĠĠĠĠĠĠĠĠĠĠĠĠĠĠĠĠĠĠĠĠĠĠĠ": 3298,
      "Ġsolution": 3299,
      "ĠJanuary": 3300,
      "ĠĠĠĠĠĠĠĠĠĠĠĠĠĠĠĠĠĠĠĠĠĠĠĠĠĠĠĠĠĠĠ": 3301,
      "-st": 3302,
      "ĠAugust": 3303,
      "Ġstruct": 3304,
      "venue": 3305,
      "osis": 3306,
      "vention": 3307,
      "itizens": 3308,
      "Ġprote": 3309,
      "Ġblack": 3310,
      "Ġcomputer": 3311,
      "Ph": 3312,
      "Ġtransfer": 3313,
      "Ġmeasures": 3314,
      "Ġsust": 3315,
      "Ġprivate": 3316,
      "ulate": 3317,
      "aches": 3318,
      "IG": 3319,
      "ï¬ģ": 3320,
      "fect": 3321,
      "Ġbur": 3322,
      "Ġwalk": 3323,
      "ider": 3324,
      "ĠOH": 3325,
      "ifornia": 3326,
      "Ġhistor": 3327,
      "Ġunit": 3328,
      "Ġri": 3329,
      "Ġnormal": 3330,
      "olid": 3331,
      "QS": 3332,
      "Ġuses": 3333,
      "ĠAmerica": 3334,
      "ĠRet": 3335,
      "Ġnote": 3336,
      "Ġmonitor": 3337,
      "sec": 3338,
      "Ġtransport": 3339,
      "UL": 3340,
      "Ġlic": 3341,
      "uff": 3342,
      "Ġrelevant": 3343,
      "Ġheav": 3344,
      "bb": 3345,
      "ĠAP": 3346,
      "Ġemb": 3347,
      "ĠEngine": 3348,
      "Ġvac": 3349,
      "Ġarch": 3350,
      "RA": 3351,
      "BLUE": 3352,
      "Ġdetermine": 3353,
      "Ġthroughout": 3354,
      "NA": 3355,
      "Ġcredit": 3356,
      "king": 3357,
      "ĠScience": 3358,
      "icip": 3359,
      "Ġconnect": 3360,
      "Ġbir": 3361,
      "Ġsimply": 3362,
      "Ġbound": 3363,
      "But": 3364,
      "Ġstress": 3365,
      "Ġguid": 3366,
      "icies": 3367,
      ".)": 3368,
      ".C": 3369,
      "Ġreceive": 3370,
      "ett": 3371,
      "ham": 3372,
      "ults": 3373,
      "asons": 3374,
      "Ġcoun": 3375,
      "Ġliter": 3376,
      "Ġemployees": 3377,
      "Ġfeatures": 3378,
      "ĠACTBLUE": 3379,
      "force": 3380,
      "-M": 3381,
      "Ġgenerally": 3382,
      "Ġcateg": 3383,
      "ners": 3384,
      "Ġinput": 3385,
      "Ġmultiple": 3386,
      "my": 3387,
      "Ġbase": 3388,
      "ĠInst": 3389,
      "Ġmanufact": 3390,
      "Ġsociety": 3391,
      "elt": 3392,
      "abilities": 3393,
      "ivision": 3394,
      "omp": 3395,
      "bor": 3396,
      "Ġfile": 3397,
      "ĠAustral": 3398,
      "Ġencoura": 3399,
      "Ġattempt": 3400,
      "Ġsoftware": 3401,
      "Ġplanning": 3402,
      "Ġquite": 3403,
      "irit": 3404,
      "Ġparty": 3405,
      "Ġachieve": 3406,
      "ĠOffice": 3407,
      "mon": 3408,
      "Ġstandards": 3409,
      "ospital": 3410,
      "Ġce": 3411,
      "Ġautom": 3412,
      "Ġfront": 3413,
      "Ġupd": 3414,
      "SC": 3415,
      "Ġbecame": 3416,
      "Ġnothing": 3417,
      "ĠWhile": 3418,
      "Ġassum": 3419,
      "ĠSeptember": 3420,
      "Ġprotect": 3421,
      "book": 3422,
      "So": 3423,
      "eal": 3424,
      "Ġaware": 3425,
      "Ġmention": 3426,
      "Ġtowards": 3427,
      "Ġcontext": 3428,
      "No": 3429,
      "Ġaccur": 3430,
      "ĠEl": 3431,
      "Ġprogress": 3432,
      "Ġspeed": 3433,
      "Memo": 3434,
      "ĠAD": 3435,
      "Ġlack": 3436,
      "change": 3437,
      "ĠNet": 3438,
      "Ġdistribution": 3439,
      "term": 3440,
      "era": 3441,
      "hens": 3442,
      "ĠOctober": 3443,
      "ĠReports": 3444,
      "Ġwhite": 3445,
      "head": 3446,
      "aily": 3447,
      "Ġtakes": 3448,
      "Ġrules": 3449,
      "Ġforward": 3450,
      "Ġprimary": 3451,
      "lier": 3452,
      "ĠSom": 3453,
      "ibrary": 3454,
      "Ġqual": 3455,
      "overy": 3456,
      "Ġwebsite": 3457,
      "ecutive": 3458,
      "Ġadded": 3459,
      "ĠSur": 3460,
      "Ġcontinu": 3461,
      "astic": 3462,
      "Ġheat": 3463,
      "Ġforce": 3464,
      "Ġcancer": 3465,
      "eting": 3466,
      "joy": 3467,
      "Ġtravel": 3468,
      "Ġoperations": 3469,
      "Ġgrant": 3470,
      "Ġago": 3471,
      "Ġlocation": 3472,
      "Ġimage": 3473,
      "Ġidentified": 3474,
      "Ġinstead": 3475,
      "Ġden": 3476,
      "rec": 3477,
      "-l": 3478,
      "raction": 3479,
      "Ġsafe": 3480,
      "Ġcontain": 3481,
      "ĠAnt": 3482,
      "Ġsam": 3483,
      "ĠDistrict": 3484,
      "Ġsupply": 3485,
      "Ġstatus": 3486,
      "Ġdirection": 3487,
      "Ġhous": 3488,
      "Ġaffect": 3489,
      "ĠSher": 3490,
      "leep": 3491,
      "lated": 3492,
      "Ġprocesses": 3493,
      "|--------------": 3494,
      "gest": 3495,
      "Ġassessment": 3496,
      "ĠBi": 3497,
      "Ġtrying": 3498,
      "Ġsituation": 3499,
      "respond": 3500,
      "ĠGovernment": 3501,
      "oles": 3502,
      "Ġund": 3503,
      "Ġparticularly": 3504,
      "hel": 3505,
      "ilitary": 3506,
      "Ġmeaning": 3507,
      "Ġmodern": 3508,
      "ĠNO": 3509,
      "ĠMore": 3510,
      "Ġregarding": 3511,
      "Ġspeak": 3512,
      "Ġattention": 3513,
      "Ġvia": 3514,
      "ĠCalifornia": 3515,
      "Ġapplications": 3516,
      "Ġestablished": 3517,
      "ĠNovember": 3518,
      "Ġbehavior": 3519,
      "itude": 3520,
      "ĠInformation": 3521,
      "ĠDef": 3522,
      "Ġep": 3523,
      "Ġdecre": 3524,
      "ĠForm": 3525,
      "Ġassign": 3526,
      "ĠDirector": 3527,
      "ĠOb": 3528,
      "Ġdemand": 3529,
      "Ġquant": 3530,
      "Ġpublished": 3531,
      "Ġjo": 3532,
      "Ġenh": 3533,
      "Ġestablish": 3534,
      "Ġvisit": 3535,
      "apan": 3536,
      "Ġdeep": 3537,
      "ĠSw": 3538,
      "ament": 3539,
      "ese": 3540,
      "Ġresponsible": 3541,
      "ĠAnn": 3542,
      "aint": 3543,
      "Ġexplo": 3544,
      "City": 3545,
      "OS": 3546,
      "ĠÎ": 3547,
      "mission": 3548,
      "isation": 3549,
      "actions": 3550,
      "Ġlength": 3551,
      "ĠEuropean": 3552,
      "Ġdevice": 3553,
      "Ġ>": 3554,
      "Ġinj": 3555,
      "Ġfriends": 3556,
      "asc": 3557,
      "-y": 3558,
      "erous": 3559,
      "Ġpatient": 3560,
      "Ġsources": 3561,
      "Ġproviding": 3562,
      "ĠHouse": 3563,
      "Ġitems": 3564,
      "Ġthus": 3565,
      "DA": 3566,
      "Ġsqu": 3567,
      "Ġsearch": 3568,
      "ĠYour": 3569,
      "room": 3570,
      "Ġapply": 3571,
      "ĠStatements": 3572,
      "Ġcard": 3573,
      "enses": 3574,
      "\\[": 3575,
      "ZED": 3576,
      "Ġpp": 3577,
      "Ġdraw": 3578,
      ")**": 3579,
      "Ġprotection": 3580,
      "atur": 3581,
      "itable": 3582,
      "Ġeverything": 3583,
      "Ġtold": 3584,
      "Ġdetails": 3585,
      "Ġrequires": 3586,
      ".m": 3587,
      "rative": 3588,
      "Ġthreat": 3589,
      "Ġinterp": 3590,
      "ĠRECE": 3591,
      "vere": 3592,
      "Ġlimit": 3593,
      "Ġapplied": 3594,
      "rought": 3595,
      "uman": 3596,
      "idents": 3597,
      "Ġrat": 3598,
      "lusion": 3599,
      "Ġstay": 3600,
      "Ġcommunication": 3601,
      "Ġclimate": 3602,
      "ĠData": 3603,
      "à¥į": 3604,
      "ecause": 3605,
      "Ġplease": 3606,
      "Table": 3607,
      "Ġfeet": 3608,
      "--------------------------------": 3609,
      "Ġclin": 3610,
      "TR": 3611,
      "Ġaim": 3612,
      "à¥įà¤": 3613,
      "ĠCON": 3614,
      "order": 3615,
      "Ġcompar": 3616,
      "unch": 3617,
      "ĠSen": 3618,
      "Ġapprox": 3619,
      "ĠFrom": 3620,
      "izations": 3621,
      "Ġserious": 3622,
      "isf": 3623,
      "Ġload": 3624,
      "ensity": 3625,
      "Ġpsych": 3626,
      "Ġnumbers": 3627,
      "ception": 3628,
      "br": 3629,
      "Ġfem": 3630,
      "lands": 3631,
      "Ġrespective": 3632,
      "leg": 3633,
      "Un": 3634,
      "ĠSim": 3635,
      "ternal": 3636,
      "Ġeveryone": 3637,
      "Ġallows": 3638,
      "Ġcat": 3639,
      "Ġculture": 3640,
      "UT": 3641,
      "ĠExp": 3642,
      "ĠHist": 3643,
      "Ġleave": 3644,
      "Ġcert": 3645,
      "Ġacqu": 3646,
      "Ġprofessional": 3647,
      "{\\": 3648,
      "Ġsequ": 3649,
      "Ġbasic": 3650,
      "ĠKing": 3651,
      "TEMI": 3652,
      "Con": 3653,
      "Ġwon": 3654,
      "Ġadopt": 3655,
      "Ġnegative": 3656,
      "Ġvideo": 3657,
      "Ġten": 3658,
      "Ġir": 3659,
      "Ġreference": 3660,
      "EE": 3661,
      "Ġbrain": 3662,
      "orks": 3663,
      "Ġlin": 3664,
      ".**": 3665,
      "Ġoutput": 3666,
      "TEMIZED": 3667,
      "Ġfun": 3668,
      "Ġfoot": 3669,
      "iber": 3670,
      "rod": 3671,
      "ĠRel": 3672,
      "ruary": 3673,
      "Ġplants": 3674,
      "Ġslow": 3675,
      "tenance": 3676,
      "ĠOf": 3677,
      "uration": 3678,
      "orage": 3679,
      "gency": 3680,
      "ĠYes": 3681,
      "Ġbenefit": 3682,
      "Ġnut": 3683,
      "cont": 3684,
      "inate": 3685,
      "ologies": 3686,
      "ĠChe": 3687,
      "reed": 3688,
      "Ġbehind": 3689,
      "Ġstri": 3690,
      "ĠRECEIP": 3691,
      "Ġevalu": 3692,
      "Ġexact": 3693,
      "alls": 3694,
      "nes": 3695,
      "Ġcopy": 3696,
      "Ġdat": 3697,
      "Ġtown": 3698,
      "ĠRed": 3699,
      "Ġlives": 3700,
      "Ġlocated": 3701,
      "yond": 3702,
      "urrent": 3703,
      "ev": 3704,
      "Ġcurrently": 3705,
      "Ġofficial": 3706,
      "Ġopportunity": 3707,
      "ously": 3708,
      "Ġgreen": 3709,
      "Ġfollows": 3710,
      "Ġdamage": 3711,
      "ĠJournal": 3712,
      "ĠRECEIPTS": 3713,
      "ĠLa": 3714,
      "cast": 3715,
      "Ġcollection": 3716,
      "ama": 3717,
      "Ġapproved": 3718,
      ".A": 3719,
      "Ġenjoy": 3720,
      "Ġcopied": 3721,
      "Ġcollect": 3722,
      "Ġcritical": 3723,
      "ĠJust": 3724,
      "VE": 3725,
      "Ġfunctions": 3726,
      "uge": 3727,
      "ĠÃ": 3728,
      "Ġhttps": 3729,
      "Ġscreen": 3730,
      "Ġschools": 3731,
      "ĠCH": 3732,
      "Ġusers": 3733,
      "elta": 3734,
      "orpor": 3735,
      "ography": 3736,
      "ĠIndia": 3737,
      "imal": 3738,
      "lies": 3739,
      "Ġnotice": 3740,
      ")$": 3741,
      "Ġhttp": 3742,
      "ĠOut": 3743,
      "Ġdetermined": 3744,
      "more": 3745,
      "ĠAssociation": 3746,
      "ara": 3747,
      "Ġadjust": 3748,
      "estern": 3749,
      "Ġsomet": 3750,
      "Ġpolicies": 3751,
      "Ġpaid": 3752,
      "illing": 3753,
      "ero": 3754,
      "Ġreflect": 3755,
      "Ġcapacity": 3756,
      "loc": 3757,
      "Ġmother": 3758,
      "Ġseason": 3759,
      "Ġrule": 3760,
      "Ġoverall": 3761,
      "otion": 3762,
      "htt": 3763,
      "alpha": 3764,
      "Ġpret": 3765,
      "Ġsuff": 3766,
      "gment": 3767,
      "ĠMich": 3768,
      "Ġtheory": 3769,
      "ĠTown": 3770,
      "Ġelements": 3771,
      "oe": 3772,
      "rown": 3773,
      "NAME": 3774,
      "Ġreports": 3775,
      "Ġoperation": 3776,
      "used": 3777,
      "idential": 3778,
      "ynam": 3779,
      "Ġinvestig": 3780,
      "(s": 3781,
      "'d": 3782,
      "Ġcarry": 3783,
      "ucle": 3784,
      "Ġfish": 3785,
      "arter": 3786,
      "ĠOur": 3787,
      "ĠStat": 3788,
      "ĠVol": 3789,
      "Ġplans": 3790,
      "\",": 3791,
      "ferences": 3792,
      "Ġsolicit": 3793,
      "haps": 3794,
      "Ġnews": 3795,
      "Ġstop": 3796,
      "cial": 3797,
      "Ġgovern": 3798,
      "Ġwood": 3799,
      "ĠThen": 3800,
      "Ġresist": 3801,
      "Ġdepend": 3802,
      "ĠĠĠĠĠĠĠĠĠĠĠĠĠĠĠĠĠĠĠĠĠĠĠĠĠĠĠĠĠĠĠĠĠĠĠĠĠ": 3803,
      "ĠSal": 3804,
      "All": 3805,
      "OD": 3806,
      "Ġmis": 3807,
      "Ġsil": 3808,
      "Ġhot": 3809,
      "Ġmedic": 3810,
      "|------------------------------------------------------------": 3811,
      "Ġhor": 3812,
      "ĠBra": 3813,
      "izes": 3814,
      "ilies": 3815,
      "Ġbegan": 3816,
      "ĠInstitute": 3817,
      "Ġvot": 3818,
      "Ġpractices": 3819,
      "Ġisn": 3820,
      "ĠCA": 3821,
      "Ġaccord": 3822,
      "Ġmiss": 3823,
      "Ġlabor": 3824,
      "-term": 3825,
      "}Ċ": 3826,
      "Ġ................................................................": 3827,
      "PS": 3828,
      "Ġdecl": 3829,
      "Ġcentury": 3830,
      "-up": 3831,
      "Ġcolor": 3832,
      "ework": 3833,
      "Ġregist": 3834,
      "Ġargu": 3835,
      "à¤¾à¤": 3836,
      "iques": 3837,
      "OW": 3838,
      "amed": 3839,
      "Receipt": 3840,
      "ME": 3841,
      "ĠFOR": 3842,
      "Ġsample": 3843,
      "Ġproperties": 3844,
      "Ġiniti": 3845,
      "ĠReview": 3846,
      "Ġsurv": 3847,
      "Ġsoon": 3848,
      "Ġsympt": 3849,
      "Ġversion": 3850,
      "Ġpoor": 3851,
      "ĠPRO": 3852,
      "ky": 3853,
      "olic": 3854,
      "Ġfram": 3855,
      "####": 3856,
      "osition": 3857,
      "Ġlines": 3858,
      "-A": 3859,
      "Ġter": 3860,
      "Ġenter": 3861,
      "%)": 3862,
      "ĠAuthor": 3863,
      "Ġfat": 3864,
      "Ġeth": 3865,
      "Ġassets": 3866,
      "Ġunique": 3867,
      "ĠJapan": 3868,
      "Ġinstru": 3869,
      "oke": 3870,
      "Ġharm": 3871,
      "Ġoptions": 3872,
      "ĠPress": 3873,
      "Ġbudget": 3874,
      "Ġremain": 3875,
      "ĠIS": 3876,
      "dom": 3877,
      "-g": 3878,
      "ocal": 3879,
      "Ġsoil": 3880,
      "Ġmoment": 3881,
      "Ġsoliciting": 3882,
      "Ġannual": 3883,
      "Ġtools": 3884,
      "lick": 3885,
      "Ġhost": 3886,
      "ĠUse": 3887,
      "*Ċ": 3888,
      "umn": 3889,
      "ĠStreet": 3890,
      "Ġforms": 3891,
      "Ġpen": 3892,
      "has": 3893,
      "ashington": 3894,
      "Ġbank": 3895,
      "Ġsusp": 3896,
      "Ġinstruction": 3897,
      "andid": 3898,
      "ĠEnvironment": 3899,
      "Ġsustain": 3900,
      "Ġang": 3901,
      "Ġdog": 3902,
      "Ġsun": 3903,
      "Ġgir": 3904,
      "Ġwrite": 3905,
      "yp": 3906,
      "Ġopin": 3907,
      "oud": 3908,
      "Ġelectric": 3909,
      "Ġlate": 3910,
      "ĠGen": 3911,
      "Ġpopular": 3912,
      "abit": 3913,
      "Ġconstit": 3914,
      "new": 3915,
      "Ġopportunities": 3916,
      "ĠLet": 3917,
      "Ġdegree": 3918,
      "ĠChina": 3919,
      "Ġproduce": 3920,
      "Ġwhose": 3921,
      "Ġsometimes": 3922,
      "Ġinside": 3923,
      "Ġeyes": 3924,
      "ĠCollege": 3925,
      "Ġtrack": 3926,
      "eria": 3927,
      "iet": 3928,
      "Ġcomment": 3929,
      "Ġwond": 3930,
      "fort": 3931,
      "Ġtesting": 3932,
      "Ġoption": 3933,
      "ĠTable": 3934,
      "odes": 3935,
      "Ġcorrespond": 3936,
      "Ġstatement": 3937,
      "Ġreve": 3938,
      "Ġbooks": 3939,
      "Ġpredict": 3940,
      "iring": 3941,
      "range": 3942,
      "Ġcommunities": 3943,
      "Ġideas": 3944,
      "Ġmovement": 3945,
      "Ġbuilt": 3946,
      "with": 3947,
      "Ġ]": 3948,
      "char": 3949,
      "ĠDon": 3950,
      "Ġfilm": 3951,
      "Ġmotion": 3952,
      "ĠRoad": 3953,
      "resh": 3954,
      "Ġcommunic": 3955,
      "erg": 3956,
      "ĠAdminist": 3957,
      "Ġprint": 3958,
      "Ġblock": 3959,
      "_i": 3960,
      "ened": 3961,
      "LL": 3962,
      "Ġallowed": 3963,
      "Ġparticipants": 3964,
      "Ġpan": 3965,
      "Ġbeginning": 3966,
      "Ġworkers": 3967,
      "Mailing": 3968,
      "Ġhighly": 3969,
      "Ġextreme": 3970,
      "Ġtrade": 3971,
      "Ġtrust": 3972,
      "ĠStand": 3973,
      "Ġactions": 3974,
      "TC": 3975,
      "eds": 3976,
      "ades": 3977,
      "Ġsaw": 3978,
      "Ġinvestment": 3979,
      "Ġminimum": 3980,
      "ĠIndian": 3981,
      "Ġattack": 3982,
      "Ġgradu": 3983,
      "Ġstock": 3984,
      "Ġfr": 3985,
      "Ġcoming": 3986,
      "rest": 3987,
      "Ġmob": 3988,
      "ERS": 3989,
      "ĠProt": 3990,
      "water": 3991,
      "Ġthinking": 3992,
      "ĠRev": 3993,
      "Ġbott": 3994,
      "Ġsubs": 3995,
      "ĠDE": 3996,
      "rapy": 3997,
      "mar": 3998,
      "Ġled": 3999,
      "ĠSan": 4000,
      "ĠWilliam": 4001,
      "Ġmaximum": 4002,
      "Ġpric": 4003,
      "ica": 4004,
      "Ġwrong": 4005,
      "ĠId": 4006,
      "ĠBusiness": 4007,
      "rehens": 4008,
      "attle": 4009,
      "Ġagreement": 4010,
      "Ġdisplay": 4011,
      "Ġlost": 4012,
      "Ġfully": 4013,
      "ademic": 4014,
      "Ġones": 4015,
      "-B": 4016,
      "Ġgoal": 4017,
      "Ġdigital": 4018,
      "QT": 4019,
      "Ġresearc": 4020,
      "Ġcapt": 4021,
      "*.": 4022,
      "ĠMat": 4023,
      "Sh": 4024,
      "|------": 4025,
      "Ġdiagn": 4026,
      "lock": 4027,
      "Ġwaste": 4028,
      "ĠFebruary": 4029,
      "Ġchemical": 4030,
      "Ġvariety": 4031,
      "Ġcontroll": 4032,
      "ĠĠĠĠĠĠĠĠĠĠĠĠĠĠĠĠĠĠĠĠĠĠĠĠĠĠĠĠĠĠĠĠĠĠ": 4033,
      "tical": 4034,
      "Ġreasons": 4035,
      "zy": 4036,
      "Ġeasily": 4037,
      "ondon": 4038,
      "ĠTH": 4039,
      "Ġconsult": 4040,
      "Full": 4041,
      "|-----------------|Ċ": 4042,
      "Ġlif": 4043,
      "Ġcaused": 4044,
      "omb": 4045,
      "Ġbeyond": 4046,
      "||": 4047,
      "ani": 4048,
      "Ġunc": 4049,
      "Ġlarger": 4050,
      "Ġalthough": 4051,
      "Ġperformed": 4052,
      "ĠUN": 4053,
      "Ġconstant": 4054,
      "semb": 4055,
      "ĠHol": 4056,
      "ancing": 4057,
      "Ġhands": 4058,
      "|------------------|------------|Ċ": 4059,
      "ĠAtt": 4060,
      "Ġcam": 4061,
      "Ġprim": 4062,
      "Ġcivil": 4063,
      "Ġhimself": 4064,
      "lass": 4065,
      "Ġfavor": 4066,
      "ĠDisc": 4067,
      "Ġweeks": 4068,
      "-P": 4069,
      "lig": 4070,
      "Ġmagn": 4071,
      "ellig": 4072,
      "Ġobserved": 4073,
      "Ġdeveloping": 4074,
      "Ġskin": 4075,
      "Ġfriend": 4076,
      "-year": 4077,
      "Zip": 4078,
      "Ġsem": 4079,
      "Ġwatch": 4080,
      "Ġoperating": 4081,
      "Ġinfluence": 4082,
      "Ġdaily": 4083,
      "Ġexcept": 4084,
      "Ġfast": 4085,
      "Ġsites": 4086,
      "``": 4087,
      "Ġaccordance": 4088,
      "Ġsurvey": 4089,
      "rie": 4090,
      "ira": 4091,
      "ĠNumber": 4092,
      "ses": 4093,
      "Ġmilitary": 4094,
      "Ġuseful": 4095,
      "ĠEast": 4096,
      "Ġobtained": 4097,
      "ĠOper": 4098,
      "ĠDay": 4099,
      "Ġdim": 4100,
      "elines": 4101,
      "pm": 4102,
      "Ġdifferences": 4103,
      "Sp": 4104,
      "Ġstrate": 4105,
      "Ġstrategy": 4106,
      "field": 4107,
      "ĠOffic": 4108,
      "Ġdiscussion": 4109,
      "ĠElect": 4110,
      "Ġcompleted": 4111,
      "ĠSer": 4112,
      "Ġvalid": 4113,
      "Ġselect": 4114,
      "erville": 4115,
      "Ġactual": 4116,
      "asure": 4117,
      "-D": 4118,
      "Ġdead": 4119,
      "ĠProv": 4120,
      "rief": 4121,
      "Ġspread": 4122,
      "atform": 4123,
      "Ġotherwise": 4124,
      "ought": 4125,
      "Ġscale": 4126,
      "ĠPri": 4127,
      "aling": 4128,
      "Ġadvant": 4129,
      "Ġfacilities": 4130,
      "ĠPhys": 4131,
      "Ġsou": 4132,
      "Ġlaws": 4133,
      "Ġproduced": 4134,
      "ael": 4135,
      "Ġcarried": 4136,
      "\".": 4137,
      "rupt": 4138,
      "One": 4139,
      "Ġappoint": 4140,
      "Ġgives": 4141,
      "rench": 4142,
      "ĠJes": 4143,
      "Âłthe": 4144,
      "estic": 4145,
      "Ġwanted": 4146,
      "Ġinternal": 4147,
      "nel": 4148,
      "Ġchoice": 4149,
      "ĠÂ£": 4150,
      "ville": 4151,
      "mit": 4152,
      "Ġhope": 4153,
      "ĠChild": 4154,
      "ĠAng": 4155,
      "Ġquickly": 4156,
      "urt": 4157,
      "raw": 4158,
      "ĠUp": 4159,
      "ART": 4160,
      "Ġsector": 4161,
      "gor": 4162,
      "ĠAM": 4163,
      "ĠEst": 4164,
      "ĠClass": 4165,
      "Ġfactor": 4166,
      "ĠCanada": 4167,
      "ĠRuss": 4168,
      "ĠSE": 4169,
      "ruit": 4170,
      "comes": 4171,
      "Ġleading": 4172,
      "Ġextra": 4173,
      "ĠIm": 4174,
      "Ġefforts": 4175,
      "Ġstage": 4176,
      "ocol": 4177,
      "Ġec": 4178,
      "Ġdistribut": 4179,
      "Ġvolume": 4180,
      "Ġgoes": 4181,
      "rastructure": 4182,
      "ĠFigure": 4183,
      "ervation": 4184,
      "Ġfa": 4185,
      "ĠNow": 4186,
      "Ġbox": 4187,
      "Ġequal": 4188,
      "bit": 4189,
      "SP": 4190,
      "Ġfight": 4191,
      "Ġhon": 4192,
      "ively": 4193,
      "ki": 4194,
      "ĠWashington": 4195,
      "Ġfollowed": 4196,
      "ĠAny": 4197,
      "Ġwoman": 4198,
      "da": 4199,
      "Ġbrought": 4200,
      "ellow": 4201,
      "ĠProfess": 4202,
      "Ġimportance": 4203,
      "},": 4204,
      "itect": 4205,
      "ĠLand": 4206,
      "Ġconnection": 4207,
      "Ġrunning": 4208,
      "Ġadapt": 4209,
      "mary": 4210,
      "Ġforeign": 4211,
      "âĢĻve": 4212,
      "ĠBritish": 4213,
      "Ġsleep": 4214,
      "ĠMor": 4215,
      "ĠMus": 4216,
      "ounds": 4217,
      "Ġpark": 4218,
      "ĠSocial": 4219,
      "/s": 4220,
      "Ġtas": 4221,
      "Ġfunding": 4222,
      "ĠHer": 4223,
      "Ġinsurance": 4224,
      "Ġdevices": 4225,
      "Ġimplementation": 4226,
      "Ġdry": 4227,
      "At": 4228,
      "ula": 4229,
      "wood": 4230,
      "CR": 4231,
      "Ġprocedures": 4232,
      "amin": 4233,
      "Ġsatisf": 4234,
      "lications": 4235,
      "Ġcentral": 4236,
      "Ġrestrict": 4237,
      "ĠCommunity": 4238,
      "ĠBank": 4239,
      "ĠUnder": 4240,
      "Ġreduction": 4241,
      "Ġult": 4242,
      "Ġ%": 4243,
      "Friends": 4244,
      "Ġhom": 4245,
      "Ġcorpor": 4246,
      "Ar": 4247,
      "uses": 4248,
      "Ġmental": 4249,
      "Ġanyone": 4250,
      "Ġfamilies": 4251,
      "DE": 4252,
      "Ġbalance": 4253,
      "Ġpresence": 4254,
      "Ġanti": 4255,
      "Ġstated": 4256,
      "ords": 4257,
      "standing": 4258,
      "Ġindependent": 4259,
      "Ġworth": 4260,
      "ĠOp": 4261,
      "Ġtend": 4262,
      "Ġsymptoms": 4263,
      "pth": 4264,
      "arrow": 4265,
      "Ġlegis": 4266,
      "oming": 4267,
      "ux": 4268,
      "ĠAir": 4269,
      "ESS": 4270,
      "Ġearth": 4271,
      "Ġcomponents": 4272,
      "Ġcash": 4273,
      "ĠSomerville": 4274,
      "ITY": 4275,
      "ĠRem": 4276,
      "ilos": 4277,
      "ĠRiver": 4278,
      "Ġdrive": 4279,
      "Res": 4280,
      "Ġtraditional": 4281,
      "Ġpick": 4282,
      "Ġfunds": 4283,
      "Ġsuccessful": 4284,
      "Ġrepe": 4285,
      "dule": 4286,
      "ĠMost": 4287,
      "Ġmechanism": 4288,
      "}_": 4289,
      "IM": 4290,
      "à¤¿": 4291,
      "By": 4292,
      "Ġsales": 4293,
      "Ġcustomers": 4294,
      "OP": 4295,
      "ĠOver": 4296,
      "Ġexpos": 4297,
      "hest": 4298,
      "ĠTest": 4299,
      "hemat": 4300,
      "Ġneigh": 4301,
      "ĠPort": 4302,
      "Ġrecords": 4303,
      "Ġhealthy": 4304,
      "oes": 4305,
      "Ġyourself": 4306,
      "Ġconvers": 4307,
      "ĠUK": 4308,
      "Ġthous": 4309,
      "Ġfeature": 4310,
      "iece": 4311,
      "Ġvict": 4312,
      "rical": 4313,
      "ĠSP": 4314,
      "olec": 4315,
      "Ġvehicle": 4316,
      "ĠRequ": 4317,
      "App": 4318,
      "Ġselected": 4319,
      "ĠJew": 4320,
      "Ġsteps": 4321,
      "Ġstrength": 4322,
      "aker": 4323,
      "Ġcool": 4324,
      "ĠSherrod": 4325,
      "Ġinteresting": 4326,
      "rence": 4327,
      "iding": 4328,
      "lication": 4329,
      "ĠÂł": 4330,
      "Ġtask": 4331,
      "uty": 4332,
      "gar": 4333,
      "Ġconflic": 4334,
      "Ġutil": 4335,
      "rig": 4336,
      "Ġcenter": 4337,
      "amma": 4338,
      ")(": 4339,
      "oper": 4340,
      "Ġphase": 4341,
      "undred": 4342,
      "Ġchoose": 4343,
      "ĠAgree": 4344,
      "ĠLondon": 4345,
      "Ġsignificantly": 4346,
      "UC": 4347,
      "Ġcultural": 4348,
      "gorith": 4349,
      "Ġmemory": 4350,
      "Ġreach": 4351,
      "Ġremember": 4352,
      "que": 4353,
      "Ġinnov": 4354,
      "Ġauthority": 4355,
      "roduction": 4356,
      "Ġattend": 4357,
      "ying": 4358,
      "Ġgrowing": 4359,
      ".)Ċ": 4360,
      "retary": 4361,
      "ĠÐ": 4362,
      "Ġcompletely": 4363,
      "log": 4364,
      "ĠFore": 4365,
      "iveness": 4366,
      ".last": 4367,
      "Ġinterview": 4368,
      "Is": 4369,
      "Ġeconomy": 4370,
      "Ġâĸ¶": 4371,
      "Ġparties": 4372,
      "Ġorigin": 4373,
      ".lastname": 4374,
      "Ġperfect": 4375,
      "ĠGreen": 4376,
      "Ġrecently": 4377,
      "usion": 4378,
      "Ġcrim": 4379,
      "Ġhydro": 4380,
      "Ġteaching": 4381,
      "Ġapplicable": 4382,
      "Ġ($": 4383,
      "|-------|Ċ": 4384,
      "Ġdark": 4385,
      "ĠAv": 4386,
      "Ġanimals": 4387,
      "onom": 4388,
      "holders": 4389,
      "Ġtechniques": 4390,
      "alysis": 4391,
      "Ġteachers": 4392,
      "add": 4393,
      "works": 4394,
      "\\textsuperscript": 4395,
      "Ġbeaut": 4396,
      "ocr": 4397,
      "ĠCap": 4398,
      "ĠCivil": 4399,
      "Ġox": 4400,
      "Ġstatements": 4401,
      "Ġconsequ": 4402,
      "Ġfit": 4403,
      "Ġinterpret": 4404,
      "Ġcarbon": 4405,
      "Ġbecomes": 4406,
      "Ġfigure": 4407,
      "Ġseparate": 4408,
      "Ġes": 4409,
      "Ġreduced": 4410,
      "pid": 4411,
      "Ġchann": 4412,
      "Ġdang": 4413,
      "nown": 4414,
      "Ġexercise": 4415,
      "Ġcontains": 4416,
      "ĠEv": 4417,
      "Ġweb": 4418,
      "Ġwear": 4419,
      "CL": 4420,
      "Not": 4421,
      "Ġprop": 4422,
      "Ġforest": 4423,
      "ĠDet": 4424,
      "Ġfather": 4425,
      "Ġspirit": 4426,
      "requ": 4427,
      "Ġcomments": 4428,
      "Ġmount": 4429,
      "TA": 4430,
      "Ġur": 4431,
      "aled": 4432,
      "Ġrepl": 4433,
      "ĠEqu": 4434,
      "Ġfuel": 4435,
      "Ġtechnical": 4436,
      "DS": 4437,
      "PL": 4438,
      "Ġgave": 4439,
      "rick": 4440,
      "Ġsolutions": 4441,
      "Ġmajority": 4442,
      "Ġcharge": 4443,
      "Ġarri": 4444,
      "Ġnoted": 4445,
      "Ġdecisions": 4446,
      "Ġtests": 4447,
      "Ġmer": 4448,
      "Ġpretty": 4449,
      "ĠNote": 4450,
      "Ġhelps": 4451,
      "Ġspect": 4452,
      "Ġvisual": 4453,
      "gn": 4454,
      "Ġimmediately": 4455,
      "Ġsetting": 4456,
      "Ġhear": 4457,
      "Ġeffort": 4458,
      "Ġwww": 4459,
      "Ġconducted": 4460,
      "ball": 4461,
      "Ġfelt": 4462,
      "ĠBen": 4463,
      "Ġhar": 4464,
      "ĠAlso": 4465,
      "Ġmut": 4466,
      "ĠJesus": 4467,
      "Ġchanged": 4468,
      "Ġsn": 4469,
      "Ġshowed": 4470,
      "Ġimag": 4471,
      "Ġschem": 4472,
      "opy": 4473,
      "AY": 4474,
      "ald": 4475,
      "ĠPolicy": 4476,
      "coh": 4477,
      "Ġcircum": 4478,
      "body": 4479,
      "ĠLim": 4480,
      "Ġformer": 4481,
      "ĠEconom": 4482,
      "uit": 4483,
      "ĠDem": 4484,
      "ĠCle": 4485,
      "inct": 4486,
      "care": 4487,
      "Ġpicture": 4488,
      "ibly": 4489,
      "Ġproceed": 4490,
      "ifically": 4491,
      "Ġworked": 4492,
      "ivery": 4493,
      "ĠHere": 4494,
      "ius": 4495,
      "ĠControl": 4496,
      "hedule": 4497,
      "ĠĠĠĠĠĠĠĠĠĠĠĠĠĠĠĠĠĠĠĠĠĠĠĠĠĠĠĠĠĠĠĠĠĠĠ": 4498,
      "ĠChurch": 4499,
      "Ġchallenges": 4500,
      "Ġconstruct": 4501,
      "ĠDel": 4502,
      "With": 4503,
      "BC": 4504,
      "Ġheard": 4505,
      "ĠDavid": 4506,
      "eff": 4507,
      "ĠCare": 4508,
      "_{\\": 4509,
      "ĠCong": 4510,
      "Ġgames": 4511,
      "Ġdistance": 4512,
      "Ġrout": 4513,
      "Ġeat": 4514,
      "Ġtree": 4515,
      "Ġhyp": 4516,
      "luding": 4517,
      "Ġbehavi": 4518,
      "ĠMain": 4519,
      "ĠPaul": 4520,
      "agraph": 4521,
      "ilding": 4522,
      "ĠDesign": 4523,
      "ĠSince": 4524,
      "Ġcore": 4525,
      "la": 4526,
      "enty": 4527,
      "Ġalone": 4528,
      "ĠAlthough": 4529,
      "cient": 4530,
      "Ġcho": 4531,
      "ĠBlack": 4532,
      "osing": 4533,
      "enge": 4534,
      "Ġmachine": 4535,
      "Ġprotein": 4536,
      "Ġplaces": 4537,
      "Ġplaced": 4538,
      "Ġserve": 4539,
      "ifying": 4540,
      "SA": 4541,
      "Ġded": 4542,
      "],": 4543,
      "}}": 4544,
      "thern": 4545,
      "ĠPM": 4546,
      "ĠCorpor": 4547,
      "eline": 4548,
      "Ġincorpor": 4549,
      "Ġrele": 4550,
      "Ġextent": 4551,
      "Ġkids": 4552,
      "ĠEven": 4553,
      "Ġscen": 4554,
      "hern": 4555,
      "Ġgiving": 4556,
      "ĠSpecial": 4557,
      "ĠSM": 4558,
      "ship": 4559,
      ".D": 4560,
      "aign": 4561,
      "Ġcauses": 4562,
      "Ad": 4563,
      "Ġunless": 4564,
      "Ġbirth": 4565,
      "Ġsort": 4566,
      "Ġrelease": 4567,
      "Ġaffected": 4568,
      "Ġvirt": 4569,
      "aught": 4570,
      "IA": 4571,
      "Ġelement": 4572,
      "Ġwild": 4573,
      "Ġtou": 4574,
      "INE": 4575,
      "ij": 4576,
      "Ġprem": 4577,
      "Ġmonitoring": 4578,
      "arant": 4579,
      "ĠMany": 4580,
      "Ġpassed": 4581,
      "Ġsaying": 4582,
      "ĠTax": 4583,
      "Ġcontinued": 4584,
      "ĠTherefore": 4585,
      "Ġcustomer": 4586,
      "odies": 4587,
      "Cont": 4588,
      "ĠThus": 4589,
      "Ġpow": 4590,
      "Ġrob": 4591,
      "Ġstrategies": 4592,
      "active": 4593,
      "rees": 4594,
      "Ġfear": 4595,
      "ĠEN": 4596,
      "Ġgoals": 4597,
      "Ġprepar": 4598,
      "IF": 4599,
      "Ġpersons": 4600,
      "Ġmaintenance": 4601,
      "ĠEm": 4602,
      "Ġcry": 4603,
      "Ġcreating": 4604,
      "Te": 4605,
      "Ġdiet": 4606,
      "Ġorganizations": 4607,
      "Ġefficient": 4608,
      "ga": 4609,
      "Ġmessage": 4610,
      "Ġplatform": 4611,
      "Ġdynam": 4612,
      "ken": 4613,
      "Ġresponsibility": 4614,
      "Ġcru": 4615,
      "Ġfra": 4616,
      "Ġcandid": 4617,
      "Ġple": 4618,
      "Ġlat": 4619,
      "board": 4620,
      "Ġemployee": 4621,
      "rain": 4622,
      "Ġfrequency": 4623,
      "rep": 4624,
      "Ġremains": 4625,
      "urban": 4626,
      "Ġapproximately": 4627,
      "ĠON": 4628,
      "Ġletter": 4629,
      "reek": 4630,
      "going": 4631,
      "Ġclearly": 4632,
      "Ġjoint": 4633,
      "Ġmentioned": 4634,
      "Ġcoord": 4635,
      "Ġalternative": 4636,
      "Ġvote": 4637,
      "ndom": 4638,
      "aur": 4639,
      "Ġillust": 4640,
      "ĠSam": 4641,
      "ĠSociety": 4642,
      "Ġsubstant": 4643,
      "Ġexperien": 4644,
      "Ġbackground": 4645,
      "olar": 4646,
      "Ġemot": 4647,
      "Ġdiscussed": 4648,
      "Ġreli": 4649,
      "Ġdescription": 4650,
      "ĠSaf": 4651,
      "Ġphone": 4652,
      "ĠWhy": 4653,
      "arian": 4654,
      "ĠWell": 4655,
      "Ġmag": 4656,
      "Ġhour": 4657,
      "illage": 4658,
      "porary": 4659,
      "ste": 4660,
      "Ġfailure": 4661,
      "Ġsufficient": 4662,
      "Ġhundred": 4663,
      "Ġstructures": 4664,
      "ĠEarth": 4665,
      "ĠChair": 4666,
      "ros": 4667,
      "Le": 4668,
      "Ġtim": 4669,
      "Ġmiddle": 4670,
      "Ġbed": 4671,
      "Ġbul": 4672,
      "-F": 4673,
      "Ġimages": 4674,
      "left": 4675,
      "à¤¿à¤": 4676,
      "ĠContract": 4677,
      "(a": 4678,
      "den": 4679,
      "Ġstream": 4680,
      "Ġbab": 4681,
      "Ġearlier": 4682,
      "ĠLeg": 4683,
      "ĠAgreement": 4684,
      "Ġsurround": 4685,
      "Ġgraph": 4686,
      "Ġliqu": 4687,
      "Ġpet": 4688,
      "ingu": 4689,
      "men": 4690,
      "ĠManager": 4691,
      "ĠMary": 4692,
      "Ġprepared": 4693,
      "ĠJames": 4694,
      "Ġapproval": 4695,
      "orge": 4696,
      "Ġmanner": 4697,
      "Ġregulations": 4698,
      "zz": 4699,
      "Ġchapter": 4700,
      "Ġfirm": 4701,
      "==": 4702,
      "Ġcommit": 4703,
      "ĠArt": 4704,
      "ĠTechnology": 4705,
      "ĠRich": 4706,
      "rete": 4707,
      "Ġdocuments": 4708,
      "aters": 4709,
      "ilk": 4710,
      "ester": 4711,
      "Ġstru": 4712,
      "Ġpersp": 4713,
      "Ġswe": 4714,
      "Ġoffers": 4715,
      "Ġrisks": 4716,
      "key": 4717,
      "liance": 4718,
      "Ġacid": 4719,
      "ĠInf": 4720,
      "Ġcharacteristics": 4721,
      "ĠEngineering": 4722,
      "Ġmid": 4723,
      "Ġsignal": 4724,
      "Ġreplace": 4725,
      "Ġgets": 4726,
      "Ġerror": 4727,
      "inter": 4728,
      "omas": 4729,
      "ĠArch": 4730,
      "Ġfiles": 4731,
      "well": 4732,
      "ĠOR": 4733,
      "Ġevaluation": 4734,
      "Ġincreases": 4735,
      "Ġstorage": 4736,
      "MB": 4737,
      "Ġdoor": 4738,
      "ĠPost": 4739,
      "Ġrespectively": 4740,
      "Ġvolunt": 4741,
      "rehensive": 4742,
      "emy": 4743,
      "âĢĻll": 4744,
      "ĠRead": 4745,
      "Ġexpression": 4746,
      "ĠPower": 4747,
      "Ġinstance": 4748,
      "Ġpayment": 4749,
      "iat": 4750,
      "|----------------|Ċ": 4751,
      "}(": 4752,
      "Ġcollabor": 4753,
      "itors": 4754,
      "mal": 4755,
      "Ġprefer": 4756,
      "Ġsubmitted": 4757,
      "That": 4758,
      "Ġagricult": 4759,
      "Ġsitu": 4760,
      "Ġcommand": 4761,
      "orthern": 4762,
      "Ġnucle": 4763,
      "ĠTime": 4764,
      "Ġstore": 4765,
      "Ġtrend": 4766,
      "Ġscientific": 4767,
      "ĠJud": 4768,
      "igma": 4769,
      "Ġradio": 4770,
      "ĠHuman": 4771,
      "Ġtrees": 4772,
      "Ġmoving": 4773,
      "Ġcompl": 4774,
      "Ġclinical": 4775,
      "Ġexceed": 4776,
      "AND": 4777,
      "Ġdrink": 4778,
      "ĠSuper": 4779,
      "Ġefficiency": 4780,
      "ĠAfrica": 4781,
      "Ġtruth": 4782,
      "Ġreferred": 4783,
      "ĠMet": 4784,
      "Ġpoll": 4785,
      "Ġpreviously": 4786,
      "Ġcovered": 4787,
      "Ġtoward": 4788,
      "Ġpull": 4789,
      "à¥ĩ": 4790,
      "Ġconcerns": 4791,
      "Ġign": 4792,
      "ĠNY": 4793,
      "ogle": 4794,
      "ĠLear": 4795,
      "Ġparameters": 4796,
      "cohol": 4797,
      "ogen": 4798,
      "|---------------------------------------": 4799,
      "Ġmm": 4800,
      "ĠSum": 4801,
      "Ġreserv": 4802,
      "ĠNE": 4803,
      "Ġguide": 4804,
      "Ġdivid": 4805,
      "ĠTrust": 4806,
      "ĠMass": 4807,
      "rove": 4808,
      "cious": 4809,
      "UP": 4810,
      "Ġemployment": 4811,
      "Ġdepartment": 4812,
      "Ġpolice": 4813,
      "ranch": 4814,
      "Ġestimated": 4815,
      "New": 4816,
      "textit": 4817,
      "Ġmoved": 4818,
      "Ġexpand": 4819,
      "Total": 4820,
      "beta": 4821,
      "Ġnation": 4822,
      "arden": 4823,
      "ras": 4824,
      "ĠDD": 4825,
      "rote": 4826,
      "Ġreporting": 4827,
      "stitution": 4828,
      "Ġappears": 4829,
      "Ġmeasured": 4830,
      "Ġsexual": 4831,
      ".p": 4832,
      "ĠBecause": 4833,
      "rd": 4834,
      "rix": 4835,
      "Ġsav": 4836,
      "Ġrandom": 4837,
      "gra": 4838,
      "ĠOh": 4839,
      "ĠFrench": 4840,
      "^{-": 4841,
      "Ġdie": 4842,
      "ifications": 4843,
      "PR": 4844,
      "Ġwarm": 4845,
      "|-------------|Ċ": 4846,
      "Ġopinion": 4847,
      "Ġliterature": 4848,
      "Ġhousing": 4849,
      ".M": 4850,
      "ĠFurther": 4851,
      "Ġalgorith": 4852,
      "Ġsmaller": 4853,
      "Ġdecided": 4854,
      "Ġslight": 4855,
      "ny": 4856,
      "ĠNon": 4857,
      "Ġattribut": 4858,
      "Ġveget": 4859,
      "Ġeye": 4860,
      "ĠAN": 4861,
      "ĠVir": 4862,
      "ĠLord": 4863,
      "oration": 4864,
      "Ġprocessing": 4865,
      "ĠResp": 4866,
      "Ġdepos": 4867,
      "Ġemphas": 4868,
      "Ġgain": 4869,
      ".âĢĶ": 4870,
      "ĠAR": 4871,
      "|---|Ċ": 4872,
      "Ġdoub": 4873,
      "|----------------------------": 4874,
      "Ġolder": 4875,
      "Ġexamples": 4876,
      "ests": 4877,
      "Ġsurpr": 4878,
      "ka": 4879,
      "Ġissued": 4880,
      "Ġchurch": 4881,
      "Ġturned": 4882,
      "Ġdiv": 4883,
      "iful": 4884,
      "amily": 4885,
      "Ġson": 4886,
      "inding": 4887,
      "(b": 4888,
      "Ġamend": 4889,
      "Ġsch": 4890,
      "ĠFederal": 4891,
      "olute": 4892,
      "âĢĻm": 4893,
      "Ġfine": 4894,
      "Ġsymb": 4895,
      "Ġnor": 4896,
      "nect": 4897,
      "ĠChristian": 4898,
      "Ġdoll": 4899,
      "apers": 4900,
      "Ġbill": 4901,
      "Ġrecommended": 4902,
      "ÂŃ": 4903,
      "Ġoccup": 4904,
      "ĠDescription": 4905,
      "ĠTex": 4906,
      "Ġaspects": 4907,
      "Ġhospital": 4908,
      "|-----": 4909,
      "Ġconv": 4910,
      "Ġprovisions": 4911,
      "Ġsell": 4912,
      "Ã¡": 4913,
      "ĠPal": 4914,
      "ĠUnion": 4915,
      "ĠSecond": 4916,
      "Ġsen": 4917,
      "Ġ................................................": 4918,
      "iers": 4919,
      "Ġinterested": 4920,
      "Ġclaims": 4921,
      "Ġens": 4922,
      "Ġroll": 4923,
      "---|---|Ċ": 4924,
      "Ġfaith": 4925,
      "Ġstarting": 4926,
      "Ġknew": 4927,
      "Ġbond": 4928,
      "âĢ¦âĢ¦âĢ¦âĢ¦": 4929,
      "CA": 4930,
      "ĠPL": 4931,
      "Ġexplain": 4932,
      "Ġhighest": 4933,
      "Ġwid": 4934,
      "ĠMal": 4935,
      "Ġobjects": 4936,
      "En": 4937,
      "ĠWhite": 4938,
      "Ġcircumst": 4939,
      "Ġcourses": 4940,
      "Ġcold": 4941,
      "orrow": 4942,
      "Ġresulting": 4943,
      "Ġminor": 4944,
      "Ġnearly": 4945,
      "Ġsend": 4946,
      "FOR": 4947,
      "xi": 4948,
      "ĠAssess": 4949,
      "Ġexternal": 4950,
      "Ġconsistent": 4951,
      "Ġready": 4952,
      "-time": 4953,
      "Ġresearchers": 4954,
      "CP": 4955,
      "Ġobvious": 4956,
      "Ġdatab": 4957,
      "Ġhair": 4958,
      "mathcal": 4959,
      "ĠAustralia": 4960,
      "ico": 4961,
      "Ġexactly": 4962,
      "ĠBas": 4963,
      "ĠAccount": 4964,
      "Ġindustrial": 4965,
      "Ġpursu": 4966,
      "Ġcounter": 4967,
      "no": 4968,
      "ube": 4969,
      "Ð¾": 4970,
      "Ġlooked": 4971,
      "Ġmatch": 4972,
      "Ġpromot": 4973,
      "Ġtour": 4974,
      "Ġprovision": 4975,
      "ĠKe": 4976,
      "ĠTem": 4977,
      "known": 4978,
      "Ġexchange": 4979,
      "ITEMIZED": 4980,
      "phone": 4981,
      "ĠMart": 4982,
      "Ġimpacts": 4983,
      "Ġfacility": 4984,
      "Ġcombination": 4985,
      "Ġer": 4986,
      "ĠEnergy": 4987,
      "Ġsupported": 4988,
      "Ġprices": 4989,
      "fered": 4990,
      "Ġap": 4991,
      "Ġspecified": 4992,
      "Ġsamples": 4993,
      "Ġreligious": 4994,
      "Ġdebt": 4995,
      "rab": 4996,
      "-T": 4997,
      "/d": 4998,
      "Ġchance": 4999,
      "Ġdetailed": 5000,
      "Ġregul": 5001,
      "Ġmode": 5002,
      "Ġexposure": 5003,
      "ario": 5004,
      "roy": 5005,
      "OM": 5006,
      "Ġbatter": 5007,
      "section": 5008,
      "Ġconnected": 5009,
      "Ġperhaps": 5010,
      "Ġgeneration": 5011,
      "Ġcook": 5012,
      "Ġdeliver": 5013,
      "iter": 5014,
      "Ġelection": 5015,
      "ĠFinancial": 5016,
      "rier": 5017,
      "Ġtraffic": 5018,
      "VID": 5019,
      "rael": 5020,
      "Ġstyle": 5021,
      "Ġsong": 5022,
      "Ġnove": 5023,
      "Ġrapid": 5024,
      "ĠCost": 5025,
      "Ġinfrastructure": 5026,
      "ios": 5027,
      "ĠTre": 5028,
      "ALL": 5029,
      "ĠMac": 5030,
      "Ġbeg": 5031,
      "Ġstation": 5032,
      "ĠÂ±": 5033,
      "****": 5034,
      "Ġintended": 5035,
      "Ġrelationships": 5036,
      "Ġoutcomes": 5037,
      "inn": 5038,
      "othes": 5039,
      "otic": 5040,
      "Ġnone": 5041,
      "iment": 5042,
      "Ġhearing": 5043,
      "ĠPlease": 5044,
      "Ġunf": 5045,
      "atically": 5046,
      "Ġrecorded": 5047,
      "Ind": 5048,
      "Ġbillion": 5049,
      "Ġvoice": 5050,
      "Ġfindings": 5051,
      "Ġtypically": 5052,
      "Ġwish": 5053,
      "GE": 5054,
      "ĠRepublic": 5055,
      "Ġpiece": 5056,
      "ĠPeople": 5057,
      "iling": 5058,
      "Ġstories": 5059,
      "Ġbelief": 5060,
      "Ġsummer": 5061,
      "ulty": 5062,
      "Ġagency": 5063,
      "Ġprinciples": 5064,
      "upp": 5065,
      "Ġcycle": 5066,
      "ĠHy": 5067,
      "Ġclasses": 5068,
      "\\[Ċ": 5069,
      "ĠFound": 5070,
      "Ġhousehold": 5071,
      "ague": 5072,
      "Ġconsumption": 5073,
      "-H": 5074,
      "Ġteacher": 5075,
      "Ġcompliance": 5076,
      ".\\": 5077,
      "berg": 5078,
      "Ġengineering": 5079,
      "-le": 5080,
      "|------------------------|Ċ": 5081,
      "itz": 5082,
      "ĠSCH": 5083,
      "Ġrelatively": 5084,
      "Ġreality": 5085,
      "My": 5086,
      "rum": 5087,
      "isher": 5088,
      "cknow": 5089,
      "inese": 5090,
      "Ġbus": 5091,
      "Ġexpert": 5092,
      "Ġinterests": 5093,
      "cel": 5094,
      "Ġhop": 5095,
      "Ġtransform": 5096,
      "Ġdelivery": 5097,
      "Ġoffered": 5098,
      "cean": 5099,
      "Ġhabit": 5100,
      "house": 5101,
      "Ġwall": 5102,
      "ographic": 5103,
      "-R": 5104,
      "Ġaward": 5105,
      "Ġball": 5106,
      "Ġdefinition": 5107,
      "mark": 5108,
      "ĠArea": 5109,
      "ĠMo": 5110,
      "Ġcampaign": 5111,
      "Ġwasn": 5112,
      "Ġbrand": 5113,
      "Ġanimal": 5114,
      "rations": 5115,
      "ĠRd": 5116,
      "Ġequival": 5117,
      "Ġremoved": 5118,
      "De": 5119,
      "Ġ...": 5120,
      "ĠAud": 5121,
      "Ġnames": 5122,
      "Ġexperiences": 5123,
      "Ġpurchase": 5124,
      "Ġcriteria": 5125,
      "ĠInvest": 5126,
      "cl": 5127,
      "Ġband": 5128,
      "Ġacademic": 5129,
      "Ġselection": 5130,
      "Ġeducational": 5131,
      "Ġgender": 5132,
      "iance": 5133,
      "Pl": 5134,
      "atever": 5135,
      "uthors": 5136,
      "ĠGood": 5137,
      "Com": 5138,
      "iny": 5139,
      "Ġprocedure": 5140,
      "ĠAccording": 5141,
      "nership": 5142,
      "ĠBer": 5143,
      "-E": 5144,
      "Ġinvolve": 5145,
      "___": 5146,
      "-L": 5147,
      "Ġsevere": 5148,
      "icial": 5149,
      "Ġsets": 5150,
      "ystem": 5151,
      "Ġcouple": 5152,
      "alle": 5153,
      "-G": 5154,
      "Ġsoci": 5155,
      "ĠEvery": 5156,
      "Ġmap": 5157,
      "ĠTexas": 5158,
      "Ġfresh": 5159,
      "Ġsolid": 5160,
      "Ġforces": 5161,
      "Ġdistrict": 5162,
      "ĠCD": 5163,
      "Ġannoun": 5164,
      "MR": 5165,
      "Ġhuge": 5166,
      "Ġagreed": 5167,
      "Sc": 5168,
      "|---------|---------": 5169,
      "mosp": 5170,
      "abled": 5171,
      "ĠDi": 5172,
      "ĠFac": 5173,
      "ĠâĪ": 5174,
      "ticles": 5175,
      "âĤ": 5176,
      "Ġtechnologies": 5177,
      "Ġbrief": 5178,
      "mitted": 5179,
      "ĠAuthority": 5180,
      "Ġpages": 5181,
      "ĠLong": 5182,
      "Ġkept": 5183,
      "unicip": 5184,
      "olved": 5185,
      "ĠIII": 5186,
      "Ġnotes": 5187,
      "wide": 5188,
      "ida": 5189,
      "Ġleaders": 5190,
      "Ð°": 5191,
      "angle": 5192,
      "Ġbreat": 5193,
      "iform": 5194,
      "Ġtalking": 5195,
      "Ġspent": 5196,
      "ĠIns": 5197,
      "Ġweak": 5198,
      "$.": 5199,
      "Ġelim": 5200,
      "ibilities": 5201,
      "ĠMichael": 5202,
      "Ġtreated": 5203,
      "Ġtitle": 5204,
      "Ġattract": 5205,
      "ĠConf": 5206,
      "Ġbuildings": 5207,
      "Ġemergency": 5208,
      "Ġrare": 5209,
      "oses": 5210,
      "rates": 5211,
      "\\(^": 5212,
      "ĠAve": 5213,
      "Ġresource": 5214,
      "These": 5215,
      "Ġamounts": 5216,
      "Ġcomfort": 5217,
      "Ġinstitutions": 5218,
      "ĠDuring": 5219,
      "ĠAdv": 5220,
      "orial": 5221,
      "|----------------------------------------|---------|Ċ": 5222,
      "CS": 5223,
      "alt": 5224,
      "ĠMeeting": 5225,
      "Ġviolence": 5226,
      "Ġrise": 5227,
      "Ġlov": 5228,
      "Ġadvice": 5229,
      "Ġnamed": 5230,
      "Ġnorth": 5231,
      "Ġdisp": 5232,
      "scape": 5233,
      "Ġadequ": 5234,
      "Ġwonder": 5235,
      "Ġsea": 5236,
      "Ġfemale": 5237,
      "Ġclosed": 5238,
      "Ġfloor": 5239,
      "unk": 5240,
      "Ġfeeling": 5241,
      "ĠBr": 5242,
      "igen": 5243,
      "itness": 5244,
      "Ġimproved": 5245,
      "Ġblue": 5246,
      "Ġmorning": 5247,
      "âĢĿĊ": 5248,
      "Ġmale": 5249,
      "ĠGr": 5250,
      "ĠFl": 5251,
      "Ġweather": 5252,
      "ĠExecutive": 5253,
      "Ġshares": 5254,
      "OU": 5255,
      "Ġaccepted": 5256,
      "ĠComput": 5257,
      "/A": 5258,
      "Ġemissions": 5259,
      "ĠEngland": 5260,
      "ĠSecretary": 5261,
      "times": 5262,
      "Ġshape": 5263,
      "ĠPR": 5264,
      "Ġà¤ķ": 5265,
      "Ġcircumstances": 5266,
      "}\\)": 5267,
      "Ġamp": 5268,
      "ĠAut": 5269,
      "Ġmort": 5270,
      "ĠHistory": 5271,
      "Ġround": 5272,
      "ophy": 5273,
      "anging": 5274,
      "Our": 5275,
      "osen": 5276,
      "useum": 5277,
      "ota": 5278,
      "Mr": 5279,
      "ĠUSA": 5280,
      "\\(^{": 5281,
      "Ġintellig": 5282,
      "Cl": 5283,
      "Ġcele": 5284,
      "Ã¼": 5285,
      "|---------------": 5286,
      "Ġcollege": 5287,
      "ĠSecurity": 5288,
      "Ġchallenge": 5289,
      "Ġsave": 5290,
      "Ġdesp": 5291,
      "ĠEX": 5292,
      "ĠGreat": 5293,
      "Ġagencies": 5294,
      "ambda": 5295,
      "ĠChapter": 5296,
      "ĠSign": 5297,
      "Ġlooks": 5298,
      "Ġwhom": 5299,
      "Ġpowerful": 5300,
      "Ġadopted": 5301,
      "Ġprofession": 5302,
      "ĠHall": 5303,
      "Ġmill": 5304,
      "Ġexhib": 5305,
      "Ġpoly": 5306,
      "Ġadj": 5307,
      "Ġcy": 5308,
      "Ġhappened": 5309,
      "Ġpatterns": 5310,
      "End": 5311,
      "Ġrelation": 5312,
      "ĠSk": 5313,
      "Ġframework": 5314,
      "Ġurban": 5315,
      "Ġpeace": 5316,
      "Ġassistance": 5317,
      "Ġinstitution": 5318,
      "ĠEnvironmental": 5319,
      "Ġcra": 5320,
      "ĠWind": 5321,
      "ĠIsrael": 5322,
      "ĠSupport": 5323,
      "Ġshared": 5324,
      "Ġrock": 5325,
      "Int": 5326,
      "ipe": 5327,
      "urning": 5328,
      "Ġphilos": 5329,
      "ĠPlanning": 5330,
      "Ġbacter": 5331,
      "ĠHam": 5332,
      "Ġsubsequ": 5333,
      "Ġcomponent": 5334,
      "Ġresolution": 5335,
      "Ġstraight": 5336,
      "Ġhistorical": 5337,
      "Ġenhance": 5338,
      "Ġlargest": 5339,
      "ensions": 5340,
      "ĠCentral": 5341,
      "Ġyield": 5342,
      "Ġindex": 5343,
      "rian": 5344,
      "\\]Ċ": 5345,
      "Ġ@": 5346,
      "-of": 5347,
      "Ġseven": 5348,
      "Ġstim": 5349,
      "Ġmit": 5350,
      "ĠLi": 5351,
      "anges": 5352,
      "exp": 5353,
      "ifies": 5354,
      "Ġadvantage": 5355,
      "that": 5356,
      "ails": 5357,
      "ĠCongress": 5358,
      "Ġintroduced": 5359,
      "|---------------|Ċ": 5360,
      "which": 5361,
      "Ġratio": 5362,
      "mes": 5363,
      "Ġarchitect": 5364,
      "Ġtiss": 5365,
      "Ġcareer": 5366,
      "Ġmolec": 5367,
      "ĠRad": 5368,
      "Ġtried": 5369,
      "Ġrot": 5370,
      "EST": 5371,
      "och": 5372,
      "............": 5373,
      "Ġtrial": 5374,
      "sembly": 5375,
      "ĠEff": 5376,
      "itionally": 5377,
      "Ġrace": 5378,
      "Ġserved": 5379,
      "Ġhit": 5380,
      "oma": 5381,
      "ĠMethod": 5382,
      "bar": 5383,
      "Ġportion": 5384,
      "edd": 5385,
      "Ġfields": 5386,
      "Ġleadership": 5387,
      "Ġindicate": 5388,
      "ĠStudy": 5389,
      "Ġborn": 5390,
      "Ġplaying": 5391,
      "-pro": 5392,
      "Ġreasonable": 5393,
      "mat": 5394,
      "ulum": 5395,
      "Ġfixed": 5396,
      "Ġended": 5397,
      "Ġfreed": 5398,
      "Ġâĸ¡": 5399,
      "acing": 5400,
      "Ġarrange": 5401,
      "Ġmanage": 5402,
      "Ġoptim": 5403,
      "ĠSmith": 5404,
      "Ġvariables": 5405,
      "Ġphen": 5406,
      "udd": 5407,
      "efore": 5408,
      "ams": 5409,
      "Ġdetect": 5410,
      "ĠMedical": 5411,
      "Ġexcell": 5412,
      "Ġbusinesses": 5413,
      "Fig": 5414,
      "ĠFe": 5415,
      "Ġfirstname": 5416,
      "Ġexcess": 5417,
      "uality": 5418,
      "Ġther": 5419,
      "Ġmanufacture": 5420,
      "Ġdiss": 5421,
      "|----------": 5422,
      "Ġfacilit": 5423,
      "Ġshowing": 5424,
      "-n": 5425,
      "quad": 5426,
      "oor": 5427,
      "ensation": 5428,
      "Ġconsideration": 5429,
      "ĠGl": 5430,
      "antic": 5431,
      "|-----------------------------------------": 5432,
      "RS": 5433,
      "QU": 5434,
      "ĠAff": 5435,
      "abet": 5436,
      "After": 5437,
      "omin": 5438,
      "âĢĿ,": 5439,
      "uries": 5440,
      "Ġparagraph": 5441,
      "Ġtele": 5442,
      "Ġresistance": 5443,
      "Ġvary": 5444,
      "ĠRobert": 5445,
      "Ġformat": 5446,
      "Ġsouth": 5447,
      "Ġflex": 5448,
      "Add": 5449,
      "Ġconcentration": 5450,
      "-related": 5451,
      "Ġspecifically": 5452,
      "Ġremove": 5453,
      "Why": 5454,
      "ĠChinese": 5455,
      "ĠCitizens": 5456,
      "Ġthin": 5457,
      "Ġproposal": 5458,
      "Ġvictim": 5459,
      "Ġcolumn": 5460,
      "Ġaf": 5461,
      "Ġcontrast": 5462,
      "Ġdro": 5463,
      "Ġlayer": 5464,
      "Ġrecommendations": 5465,
      "ĠCL": 5466,
      "iled": 5467,
      "riday": 5468,
      "oding": 5469,
      "ĠAssist": 5470,
      "ĠOfficer": 5471,
      "VER": 5472,
      "ĠPay": 5473,
      "Ġpromote": 5474,
      "ado": 5475,
      "Ġrenew": 5476,
      "Ab": 5477,
      "riage": 5478,
      "Ġdoctor": 5479,
      "df": 5480,
      "ĠStr": 5481,
      "Ġadvance": 5482,
      "Ġmeetings": 5483,
      "Ġrich": 5484,
      "Ġeight": 5485,
      "Ġmiles": 5486,
      "Ġvs": 5487,
      "Ġgrade": 5488,
      "Ġmarkets": 5489,
      "While": 5490,
      "Ġves": 5491,
      "ĠBay": 5492,
      "ixt": 5493,
      "})": 5494,
      "reak": 5495,
      "ĠMiss": 5496,
      "Ġadults": 5497,
      "Ġstuff": 5498,
      "UD": 5499,
      "Ġmyself": 5500,
      "oking": 5501,
      "comp": 5502,
      "ĠSH": 5503,
      "Ġbottom": 5504,
      "ĠTwo": 5505,
      "Ġsynt": 5506,
      "Ġoccurs": 5507,
      "Ġfinding": 5508,
      "ĠHel": 5509,
      "ressed": 5510,
      "ĠAfrican": 5511,
      "Ġrelating": 5512,
      "tion": 5513,
      "Ã¤": 5514,
      "/m": 5515,
      "ĠAT": 5516,
      "eech": 5517,
      "Occupation": 5518,
      "Ġwrote": 5519,
      "iate": 5520,
      "Ġmatters": 5521,
      "ston": 5522,
      "acters": 5523,
      "Ġpractical": 5524,
      "From": 5525,
      "ĠIC": 5526,
      "Ġlik": 5527,
      "ooth": 5528,
      "Ġheavy": 5529,
      "ĠIndust": 5530,
      "Ġchanging": 5531,
      "Ġcitizens": 5532,
      "Ġregional": 5533,
      "Ġforth": 5534,
      "ĠSing": 5535,
      "Ġdefault": 5536,
      "ola": 5537,
      "Ġeffectively": 5538,
      "ago": 5539,
      "ĠIT": 5540,
      "forcement": 5541,
      "Ġalcohol": 5542,
      "ĠInternet": 5543,
      "ishes": 5544,
      "ulf": 5545,
      "Ġdepth": 5546,
      "Ġunivers": 5547,
      "MT": 5548,
      "ht": 5549,
      "Ġimprovement": 5550,
      "unday": 5551,
      "Ġdiscip": 5552,
      "aid": 5553,
      "Ġstrugg": 5554,
      "ĠEnd": 5555,
      "Ġcollected": 5556,
      "Ġjobs": 5557,
      "Ġrecovery": 5558,
      "Ġmaybe": 5559,
      "asion": 5560,
      "resents": 5561,
      "Ġfinally": 5562,
      "luded": 5563,
      "Ġmission": 5564,
      "Ġleaves": 5565,
      "Ġing": 5566,
      "Ġapprec": 5567,
      "Ġscore": 5568,
      "ĠHead": 5569,
      "ĠConst": 5570,
      "ĠNone": 5571,
      "Rec": 5572,
      "Ġcalculated": 5573,
      "ĠExt": 5574,
      ".gov": 5575,
      "Ġaw": 5576,
      "oute": 5577,
      "ĠConference": 5578,
      "**,": 5579,
      "Ġmotiv": 5580,
      "Ġproport": 5581,
      "Ġonto": 5582,
      "GR": 5583,
      "estion": 5584,
      "ĠProfessor": 5585,
      "Ġtrou": 5586,
      "olf": 5587,
      "Ġmetal": 5588,
      "Ġseek": 5589,
      "Ġconver": 5590,
      "Ġliquid": 5591,
      "Ġfig": 5592,
      "Ġmarketing": 5593,
      "ĠBur": 5594,
      "ĠWood": 5595,
      "Ġconcerned": 5596,
      "|-----------": 5597,
      "Ġgrad": 5598,
      "Ġnetworks": 5599,
      "oly": 5600,
      "They": 5601,
      "ubs": 5602,
      "Ġhumans": 5603,
      "ĠFL": 5604,
      "ĠPerson": 5605,
      "http": 5606,
      "ĠExper": 5607,
      "Go": 5608,
      "-e": 5609,
      "Ġundert": 5610,
      "ĠGerman": 5611,
      "ĠPract": 5612,
      "Ġkill": 5613,
      "Ġmig": 5614,
      "Ġadvanced": 5615,
      "Ġexperiment": 5616,
      "ician": 5617,
      "Ġmix": 5618,
      "ĠMicro": 5619,
      "rh": 5620,
      "PRO": 5621,
      "Ġgold": 5622,
      "Ġisol": 5623,
      "hetic": 5624,
      "Ġswitch": 5625,
      "Ġconflict": 5626,
      ".E": 5627,
      ".c": 5628,
      "eck": 5629,
      "Ġmo": 5630,
      "NO": 5631,
      "Ġlearned": 5632,
      ".*": 5633,
      "ĠAnnual": 5634,
      "Ġhappens": 5635,
      "ĠKore": 5636,
      "Ġsuggested": 5637,
      "|---------------------------------------|------------|Ċ": 5638,
      "Ġcomprehensive": 5639,
      "ĠAS": 5640,
      ")................................": 5641,
      "See": 5642,
      "Ġadvert": 5643,
      "ĠÂ§": 5644,
      "Ġreleased": 5645,
      "Ġeasier": 5646,
      "FF": 5647,
      "Ġtopic": 5648,
      "AA": 5649,
      "Ġplayed": 5650,
      "ĠCR": 5651,
      "Do": 5652,
      "Ġreb": 5653,
      "ĠTw": 5654,
      "ĠUnit": 5655,
      "Ã¶": 5656,
      "Ġmovie": 5657,
      "ĠTerm": 5658,
      "ĠGermany": 5659,
      "Ġspend": 5660,
      "ĠAnalysis": 5661,
      "IST": 5662,
      "Ġcertainly": 5663,
      "ipp": 5664,
      "Ġvacc": 5665,
      "Ġsomew": 5666,
      "band": 5667,
      "Ġregions": 5668,
      "ĠLife": 5669,
      "HS": 5670,
      "itative": 5671,
      "Ġcombined": 5672,
      "ĠIP": 5673,
      "Ġhappy": 5674,
      "/p": 5675,
      "|--------|Ċ": 5676,
      "orders": 5677,
      "Ġsymbol": 5678,
      "Se": 5679,
      "leq": 5680,
      "ĠLou": 5681,
      "Ġglass": 5682,
      "Ġtasks": 5683,
      "ĠProper": 5684,
      "rich": 5685,
      "Ġrevenue": 5686,
      "ĠAppro": 5687,
      "Ġgrand": 5688,
      "Ġpray": 5689,
      "ser": 5690,
      "Ġdrugs": 5691,
      "Ġvision": 5692,
      "Ġresidents": 5693,
      "Ġrain": 5694,
      "het": 5695,
      "gery": 5696,
      "Qu": 5697,
      "ceived": 5698,
      "aper": 5699,
      "ĠMember": 5700,
      "Ġquarter": 5701,
      "Ġmouth": 5702,
      "Ġargument": 5703,
      "tage": 5704,
      "Ġfees": 5705,
      "ĠLake": 5706,
      "!!": 5707,
      "Ġextremely": 5708,
      "Ġnovel": 5709,
      "Ġformed": 5710,
      "Ġgun": 5711,
      "ĠOrder": 5712,
      "Now": 5713,
      "Ġowner": 5714,
      "bi": 5715,
      "ILL": 5716,
      "Ġdescribe": 5717,
      "Ġ\\\\": 5718,
      "enda": 5719,
      "Ġcoverage": 5720,
      "olve": 5721,
      "Ġreached": 5722,
      "Ġabsolute": 5723,
      "ror": 5724,
      "Ġplayers": 5725,
      "ĠME": 5726,
      "Ġleads": 5727,
      "Ġexperienced": 5728,
      "Ġinstrument": 5729,
      "Please": 5730,
      "ĠLo": 5731,
      "ander": 5732,
      "ano": 5733,
      "Ġpercentage": 5734,
      "ĠOpen": 5735,
      "Ġcreation": 5736,
      "Ġtherapy": 5737,
      "Ġappeal": 5738,
      "mathbb": 5739,
      "ĠĠĠĠĠĠĠĠĠĠĠĠĠĠĠĠĠĠĠĠĠĠĠĠĠĠĠĠĠĠĠĠĠĠĠĠĠĠĠĠĠĠ": 5740,
      "istical": 5741,
      "ĠJose": 5742,
      "?\"": 5743,
      "].Ċ": 5744,
      "Ġpregn": 5745,
      "ĠGeorge": 5746,
      "Ġcategory": 5747,
      "Ġrequirement": 5748,
      "ĠArticle": 5749,
      "Ġadministration": 5750,
      "Ġexpenses": 5751,
      "Ġcharacters": 5752,
      "à¥Ģ": 5753,
      "burse": 5754,
      "Ġwants": 5755,
      "ishing": 5756,
      "ĠValue": 5757,
      "isk": 5758,
      "Ġinjury": 5759,
      "Ġrepresents": 5760,
      "Ġidentity": 5761,
      "Ġencourage": 5762,
      "Ġgenerated": 5763,
      "za": 5764,
      "Ġcast": 5765,
      "ĠPeter": 5766,
      "ĠFire": 5767,
      "Ġindicated": 5768,
      "ĠFig": 5769,
      "Ġguarant": 5770,
      "ĠType": 5771,
      "pi": 5772,
      "ĠMedic": 5773,
      "pling": 5774,
      "Ġbodies": 5775,
      "Ġdepending": 5776,
      "alse": 5777,
      "ections": 5778,
      "Ġproperly": 5779,
      "ya": 5780,
      "Ġvit": 5781,
      "endit": 5782,
      "Ġreaction": 5783,
      "ĠBill": 5784,
      "iant": 5785,
      "%Ċ": 5786,
      "ULE": 5787,
      "ĠTheir": 5788,
      "PE": 5789,
      "ĠWeb": 5790,
      "Def": 5791,
      "Ġthick": 5792,
      "à¤°": 5793,
      "ĠRob": 5794,
      "Ġauthors": 5795,
      "under": 5796,
      "ĠFood": 5797,
      "Ġwife": 5798,
      "ĠThomas": 5799,
      "Ġdouble": 5800,
      "Ġminim": 5801,
      "Ġcontinues": 5802,
      "ini": 5803,
      "ĠTR": 5804,
      "Ġapproaches": 5805,
      "ĠBE": 5806,
      "Ġmeant": 5807,
      "itter": 5808,
      "ĠPC": 5809,
      "amental": 5810,
      "Ġinfection": 5811,
      "Ġstanding": 5812,
      "_t": 5813,
      "Ġsand": 5814,
      "ARD": 5815,
      "Ġdiseases": 5816,
      "|---------|---------|-----------------|Ċ": 5817,
      "Ġcomparison": 5818,
      "othing": 5819,
      "}\\": 5820,
      "oted": 5821,
      "Ġacknow": 5822,
      "Ġtouch": 5823,
      "BS": 5824,
      "Ġsustainable": 5825,
      "Ġatmosp": 5826,
      "ĠSafety": 5827,
      "Ġdriving": 5828,
      "Ġaccounts": 5829,
      "Ġfol": 5830,
      "Ġdied": 5831,
      "orney": 5832,
      "lines": 5833,
      "Ġsuggests": 5834,
      "onic": 5835,
      "eared": 5836,
      "itled": 5837,
      "oyal": 5838,
      "Ġexplan": 5839,
      "Ġheight": 5840,
      "Ġperspective": 5841,
      "Comm": 5842,
      "ĠDivision": 5843,
      "Ġmedium": 5844,
      "Ġmist": 5845,
      "ĠMill": 5846,
      "comm": 5847,
      "OUR": 5848,
      "ĠSystems": 5849,
      "gu": 5850,
      "ĠAngel": 5851,
      "IE": 5852,
      "Ġspeech": 5853,
      "rect": 5854,
      "Ġstar": 5855,
      "ĠWestern": 5856,
      "Ġsched": 5857,
      "hemistry": 5858,
      "ĠStudents": 5859,
      "ĠFrance": 5860,
      "ĠMult": 5861,
      "acher": 5862,
      "ĠSou": 5863,
      "Ġmotor": 5864,
      "Ġmulti": 5865,
      "ĠDC": 5866,
      "ĠVis": 5867,
      "Ġbeautiful": 5868,
      "Ġsale": 5869,
      "doi": 5870,
      "Ġmaster": 5871,
      "endix": 5872,
      "ags": 5873,
      "Ġnoise": 5874,
      "Some": 5875,
      "ĠJer": 5876,
      "ĠLocal": 5877,
      "agers": 5878,
      "ĠChange": 5879,
      "ĠOnce": 5880,
      "ĠNAME": 5881,
      "inger": 5882,
      "riculum": 5883,
      "Ġfocused": 5884,
      "(x": 5885,
      "Ġraised": 5886,
      "Other": 5887,
      "ï»": 5888,
      "ĠAL": 5889,
      "emp": 5890,
      "Ġtransition": 5891,
      "Ġearn": 5892,
      "UM": 5893,
      "ĠCentre": 5894,
      "hi": 5895,
      "uled": 5896,
      "Ġgoods": 5897,
      "Ġupper": 5898,
      "ĠMer": 5899,
      "ĠPsych": 5900,
      "Ġcris": 5901,
      "down": 5902,
      "Ġaren": 5903,
      "Ġegg": 5904,
      "licit": 5905,
      "Ġpun": 5906,
      ":**Ċ": 5907,
      "aste": 5908,
      "Ġviews": 5909,
      "ĠModel": 5910,
      "Ġfeedback": 5911,
      "Ġmobile": 5912,
      "Agg": 5913,
      "Ġtrain": 5914,
      "Ġelectronic": 5915,
      "icians": 5916,
      "Ġcoast": 5917,
      "ĠProcess": 5918,
      "onday": 5919,
      "Ġsequence": 5920,
      "olars": 5921,
      "td": 5922,
      "Ġlibrary": 5923,
      "Ġexplained": 5924,
      "gamma": 5925,
      "oday": 5926,
      "Ġarm": 5927,
      "Ġdensity": 5928,
      "icated": 5929,
      "Ġentry": 5930,
      "________________________": 5931,
      "-Ċ": 5932,
      "ctions": 5933,
      "ĠWhere": 5934,
      "Ġice": 5935,
      "atin": 5936,
      "Ġtrig": 5937,
      "YYY": 5938,
      "ĠPet": 5939,
      "Ġcalls": 5940,
      "iliar": 5941,
      "Ġrent": 5942,
      "ĠĠĠĠĠĠĠĠĠĠĠĠĠĠĠĠĠĠĠĠĠĠĠĠĠĠĠĠĠĠĠĠĠĠĠĠĠĠĠ": 5943,
      "losure": 5944,
      "ĠSol": 5945,
      "aughter": 5946,
      "erate": 5947,
      "Ġsigns": 5948,
      "Ġcontribute": 5949,
      "Ġtal": 5950,
      "Ġbelong": 5951,
      "ĠVi": 5952,
      "Ġexpressed": 5953,
      "ĠMex": 5954,
      "ĠĊ": 5955,
      "ĠSun": 5956,
      "ĠYYYY": 5957,
      "Ġallowing": 5958,
      "Ġsquare": 5959,
      "Ġmostly": 5960,
      "Ġafford": 5961,
      "urities": 5962,
      "ript": 5963,
      "Ġteams": 5964,
      "ĠSelf": 5965,
      "ulating": 5966,
      "Ġweap": 5967,
      "ctors": 5968,
      "lambda": 5969,
      "Ġconsent": 5970,
      "ĠLead": 5971,
      "Ġelig": 5972,
      "Ġspl": 5973,
      "ĠClub": 5974,
      "Ġscientists": 5975,
      "|------------------|---------|---------|-----------------|Ċ": 5976,
      "Ġï¬ģ": 5977,
      "roph": 5978,
      "|------------------------------------|-------|Ċ": 5979,
      "Ġpi": 5980,
      "ĠTV": 5981,
      "uris": 5982,
      "Âłand": 5983,
      "Ġguidance": 5984,
      "Ġvariable": 5985,
      "ĠAmericans": 5986,
      "iced": 5987,
      "Ġremaining": 5988,
      "ĠChief": 5989,
      "Ġpool": 5990,
      "Ġhaz": 5991,
      "Aggregate": 5992,
      "|--------------------------------------": 5993,
      "redit": 5994,
      "Ġglo": 5995,
      "cher": 5996,
      "Ġinteraction": 5997,
      "Ġsac": 5998,
      "ificate": 5999,
      "Ġguidelines": 6000,
      "Ġsolar": 6001,
      "tes": 6002,
      "ĠAgency": 6003,
      "AX": 6004,
      "mu": 6005,
      "lusive": 6006,
      "MC": 6007,
      "Ġwilling": 6008,
      "eek": 6009,
      "ye": 6010,
      "Ġevolution": 6011,
      "ĠLE": 6012,
      "Ðµ": 6013,
      "Ġimpl": 6014,
      "ĠEU": 6015,
      "/c": 6016,
      "ĠGold": 6017,
      "Ġconfig": 6018,
      "ĠBuilding": 6019,
      "anish": 6020,
      "Ġliber": 6021,
      "ĠHill": 6022,
      "Ġdirector": 6023,
      "enced": 6024,
      "ĠNor": 6025,
      "Ġprimarily": 6026,
      "Ġdatabase": 6027,
      "_\\": 6028,
      "Ð½": 6029,
      "Ġsin": 6030,
      "Ġamb": 6031,
      "igned": 6032,
      "Ġfoods": 6033,
      "Ġrecognized": 6034,
      "Ġlocations": 6035,
      "Ġstake": 6036,
      "eces": 6037,
      "ĠFoundation": 6038,
      "Ġvent": 6039,
      "Ġslightly": 6040,
      "END": 6041,
      "rator": 6042,
      "Ġcities": 6043,
      "aser": 6044,
      "ĠCamp": 6045,
      "Ġwhatever": 6046,
      "Ġimplemented": 6047,
      "ĠAccess": 6048,
      "Ġretain": 6049,
      "Ġfee": 6050,
      "ormal": 6051,
      "Ġbrother": 6052,
      "Ġreducing": 6053,
      "Ġzero": 6054,
      "Ġagent": 6055,
      "Ġperman": 6056,
      "ona": 6057,
      "Ġbaby": 6058,
      "osite": 6059,
      "ossible": 6060,
      "Ġspot": 6061,
      "Ġapparent": 6062,
      "Ġvessel": 6063,
      "ria": 6064,
      "|-----------|Ċ": 6065,
      "Ġsupporting": 6066,
      "Ġaccurate": 6067,
      "Acc": 6068,
      "EDULE": 6069,
      "Ġdomestic": 6070,
      "Ġsession": 6071,
      "ĠBook": 6072,
      "lude": 6073,
      "Ġfreedom": 6074,
      "ĠBo": 6075,
      "ĠCommon": 6076,
      "Ġplus": 6077,
      "rey": 6078,
      "Ġenable": 6079,
      "Ġconcer": 6080,
      "Ġdistinct": 6081,
      "Ġvul": 6082,
      "à¤Ĥ": 6083,
      "Ġachieved": 6084,
      "ÃŃ": 6085,
      "nic": 6086,
      "ĠPan": 6087,
      "Ġabsor": 6088,
      "Ġdream": 6089,
      "ports": 6090,
      "Ġdispos": 6091,
      "Ġvehicles": 6092,
      "ACT": 6093,
      "formance": 6094,
      "ĠBal": 6095,
      "ĠLab": 6096,
      "ache": 6097,
      "Ġtox": 6098,
      "TIC": 6099,
      "Ġorganic": 6100,
      "ĠĠĠĠĠĠĠĠĠĠĠĠĠĠĠĠĠĠĠĠĠĠĠĠĠĠĠĠĠĠĠĠĠĠĠĠĠĠĠĠĠĠĠĠĠĠ": 6101,
      ".B": 6102,
      "FR": 6103,
      "Ġsuitable": 6104,
      "Ġmal": 6105,
      "umin": 6106,
      "Ġsituations": 6107,
      "omy": 6108,
      "lar": 6109,
      "ĠLibrary": 6110,
      "Ġadult": 6111,
      "Ġobjectives": 6112,
      "Ġequivalent": 6113,
      "Ġbecoming": 6114,
      "|-------------": 6115,
      "Ġgar": 6116,
      "Ġinvent": 6117,
      "Ġsecure": 6118,
      "akers": 6119,
      "ĠSpring": 6120,
      "ĠChildren": 6121,
      "Me": 6122,
      "ĠMont": 6123,
      "Ġwindow": 6124,
      "ĠLevel": 6125,
      "ada": 6126,
      "fol": 6127,
      "ega": 6128,
      "Ġawareness": 6129,
      "Ġeventually": 6130,
      "ompl": 6131,
      "rating": 6132,
      "stream": 6133,
      "Ġ________________________________": 6134,
      "ĠQue": 6135,
      "ĠAdministration": 6136,
      "Ġdisapp": 6137,
      "itis": 6138,
      "ban": 6139,
      "Ġplayer": 6140,
      "gs": 6141,
      "Ġwinter": 6142,
      "IO": 6143,
      "Ġlimits": 6144,
      "Ġdelay": 6145,
      "road": 6146,
      "erk": 6147,
      "DF": 6148,
      "Ġesc": 6149,
      "ĠSuch": 6150,
      "Ġnav": 6151,
      "Ġnar": 6152,
      "ĠVict": 6153,
      "oto": 6154,
      "anged": 6155,
      "Ġâĸ¶**Ċ": 6156,
      "bra": 6157,
      "Ne": 6158,
      "-th": 6159,
      "Ġillness": 6160,
      "Ġnice": 6161,
      "othe": 6162,
      "Ġformal": 6163,
      "Ġexplore": 6164,
      "Ġparticipation": 6165,
      "ĠMax": 6166,
      "charge": 6167,
      "ANCE": 6168,
      "mas": 6169,
      "Ġgirl": 6170,
      "Ġdrop": 6171,
      "Ġalt": 6172,
      "ĠGovern": 6173,
      "Ġresponses": 6174,
      "Ġcorresponding": 6175,
      "ette": 6176,
      "Ġgone": 6177,
      "Ġancient": 6178,
      "^\\": 6179,
      "Ġtechnique": 6180,
      "ĠEnt": 6181,
      "Ġjournal": 6182,
      "ĠClin": 6183,
      "Ġcontained": 6184,
      "Ġchain": 6185,
      "ns": 6186,
      "uls": 6187,
      "Ġinvolves": 6188,
      "uable": 6189,
      "Ġscheme": 6190,
      "Ð¸": 6191,
      "Ġestimates": 6192,
      "sey": 6193,
      "ocation": 6194,
      "faces": 6195,
      "edia": 6196,
      "arsh": 6197,
      "iscal": 6198,
      "Here": 6199,
      "ĠĠĠĠĠĠĠĠĠĠĠĠĠĠĠĠĠĠĠĠĠĠĠĠĠĠĠĠĠĠĠĠĠĠĠĠĠĠ": 6200,
      "Ġschedule": 6201,
      "Ġiron": 6202,
      "Ġship": 6203,
      "ommod": 6204,
      "van": 6205,
      "orough": 6206,
      "Ġoccurred": 6207,
      "ĠMembers": 6208,
      "point": 6209,
      "ĠNews": 6210,
      "Ġcompetition": 6211,
      "Ġsan": 6212,
      "Ġobjective": 6213,
      "ĠDNA": 6214,
      "-W": 6215,
      "ortunately": 6216,
      "error": 6217,
      "$$Ċ": 6218,
      "olit": 6219,
      "ĠOnly": 6220,
      "Ste": 6221,
      "inity": 6222,
      "Ġmainly": 6223,
      "Ġprofit": 6224,
      "Ġaid": 6225,
      "Ġwel": 6226,
      "ĠTor": 6227,
      "Ġthank": 6228,
      "Ġcolon": 6229,
      "|------|Ċ": 6230,
      "ĠIll": 6231,
      "Ġstreet": 6232,
      "ĠFranc": 6233,
      "Ġtested": 6234,
      "enth": 6235,
      "ested": 6236,
      "Ġshot": 6237,
      "hop": 6238,
      "Ġpersonnel": 6239,
      "ansion": 6240,
      "KE": 6241,
      "}^{": 6242,
      "âĢĻd": 6243,
      "Ġperiods": 6244,
      "arp": 6245,
      "Ġpositions": 6246,
      "Ġformation": 6247,
      "Ġvolunte": 6248,
      "Ġinvestigation": 6249,
      "AGE": 6250,
      "Ġoblig": 6251,
      "Ġinternet": 6252,
      "Ġchannel": 6253,
      "Ġreject": 6254,
      "Ġhandle": 6255,
      "Ġindicates": 6256,
      "Ġnuclear": 6257,
      "Ġsto": 6258,
      "Ġdoi": 6259,
      "Ġlicense": 6260,
      "Ġhelped": 6261,
      "ĠColumb": 6262,
      "EX": 6263,
      "Ġpil": 6264,
      "ĠCarol": 6265,
      "Ġsyn": 6266,
      "Ġattached": 6267,
      "ĠMS": 6268,
      "agram": 6269,
      "Ġtopics": 6270,
      "Ġleader": 6271,
      "Sec": 6272,
      "Ġspring": 6273,
      "ĠÂ·": 6274,
      "Ġparticipate": 6275,
      "but": 6276,
      "itely": 6277,
      "ĠÏ": 6278,
      "ias": 6279,
      "including": 6280,
      "Ġeating": 6281,
      "Ġdespite": 6282,
      "Ġpartner": 6283,
      "rive": 6284,
      "ĠNov": 6285,
      "Ġkid": 6286,
      "ptions": 6287,
      "inder": 6288,
      "ĠĠĠĠĠĠĠĠĠĠĠĠĠĠĠĠĠĠĠĠĠĠĠĠĠĠĠĠĠĠĠĠĠĠĠĠ": 6289,
      "irt": 6290,
      "roid": 6291,
      "Ġframe": 6292,
      "acc": 6293,
      "/C": 6294,
      "Ġcriminal": 6295,
      "Ġexcellent": 6296,
      "ĠScott": 6297,
      "Ġanalys": 6298,
      "Ġextensive": 6299,
      "TO": 6300,
      "Ġnumerous": 6301,
      "apping": 6302,
      "Ġmg": 6303,
      "ĠCE": 6304,
      "Ġsections": 6305,
      "Ġdial": 6306,
      "Ġoutcome": 6307,
      "Ġsecondary": 6308,
      "Ġsteel": 6309,
      "Ġofficers": 6310,
      "Ġdraft": 6311,
      "TED": 6312,
      "Ġaccompl": 6313,
      "Ġtransmission": 6314,
      "Ġkeeping": 6315,
      "Election": 6316,
      "Ġaccomp": 6317,
      "Ġgene": 6318,
      "Ġdecrease": 6319,
      "ĠAssessment": 6320,
      "ĠSC": 6321,
      "ARY": 6322,
      "aud": 6323,
      "bour": 6324,
      "Ġcro": 6325,
      "time": 6326,
      "ĠOld": 6327,
      "oster": 6328,
      "rene": 6329,
      "ĠStudies": 6330,
      "Î±": 6331,
      "uted": 6332,
      "Ġcontaining": 6333,
      "ita": 6334,
      "ĠLearning": 6335,
      "Ġmathemat": 6336,
      "ĠEr": 6337,
      "Ġuncertain": 6338,
      "cd": 6339,
      "ĠDirectors": 6340,
      "SION": 6341,
      "ura": 6342,
      "Ġking": 6343,
      "ellect": 6344,
      "ailability": 6345,
      "ERE": 6346,
      "|----------------------------------------------------------------": 6347,
      "Ġlatest": 6348,
      "ato": 6349,
      "Ġdepart": 6350,
      "',": 6351,
      "ORT": 6352,
      "Ġcontrolled": 6353,
      "ĠLabor": 6354,
      "Ġreturned": 6355,
      "ĠLike": 6356,
      "Ġclient": 6357,
      "Reg": 6358,
      "Let": 6359,
      "Ġpresident": 6360,
      "atal": 6361,
      "ĠAlex": 6362,
      "Ġestimate": 6363,
      "rite": 6364,
      "_D": 6365,
      "ints": 6366,
      "Ġlinear": 6367,
      "Ġmanaged": 6368,
      "Ġpresentation": 6369,
      "Ġthousands": 6370,
      "Ġfruit": 6371,
      "Ġinstructions": 6372,
      "uct": 6373,
      "Ġfrequently": 6374,
      "ĠBoth": 6375,
      "ĠUsing": 6376,
      "TY": 6377,
      "oning": 6378,
      "Ġpeak": 6379,
      "Ġcup": 6380,
      "ĠProtection": 6381,
      "Ġsmart": 6382,
      "Ġmere": 6383,
      "Ġburn": 6384,
      "Ġlose": 6385,
      "Ġsole": 6386,
      "irms": 6387,
      "Ġsecret": 6388,
      "Ġpossibility": 6389,
      "Ġdefend": 6390,
      "onym": 6391,
      "Ã³": 6392,
      "ĠWomen": 6393,
      "Ġteach": 6394,
      "sis": 6395,
      "Ġaudience": 6396,
      "ĠWorks": 6397,
      "Ġarticles": 6398,
      "Ġelectricity": 6399,
      "life": 6400,
      "Ġhomes": 6401,
      "can": 6402,
      "Ġplastic": 6403,
      "rics": 6404,
      "Ġcontribution": 6405,
      "Ġexistence": 6406,
      "Ġriver": 6407,
      "Type": 6408,
      "Ġconcepts": 6409,
      "delta": 6410,
      "Ġwouldn": 6411,
      "Ġ,Ċ": 6412,
      "Ġbehaviour": 6413,
      "$_": 6414,
      "ĠResources": 6415,
      "ĠLtd": 6416,
      "Ġ\\\\Ċ": 6417,
      "ĠHome": 6418,
      "Ġfacts": 6419,
      "ek": 6420,
      "/L": 6421,
      "Ġdram": 6422,
      "Ġwitness": 6423,
      "Ġholding": 6424,
      "ĠMount": 6425,
      "Ġpartners": 6426,
      "ĠLu": 6427,
      "ĠLow": 6428,
      "unicipal": 6429,
      "ĠFrank": 6430,
      "Ġregistered": 6431,
      "Ġped": 6432,
      "Ġagg": 6433,
      "Ġdoubt": 6434,
      "ĠAG": 6435,
      "phi": 6436,
      "alled": 6437,
      "istan": 6438,
      "Ġcommonly": 6439,
      "Ġdefic": 6440,
      "Ġextended": 6441,
      "Ġedge": 6442,
      "Ġwire": 6443,
      "Ġemotional": 6444,
      "Ġscene": 6445,
      "Or": 6446,
      "HO": 6447,
      "osc": 6448,
      "](": 6449,
      "Ġopening": 6450,
      "PER": 6451,
      "inet": 6452,
      "Ġrural": 6453,
      "ĠCurrent": 6454,
      "ao": 6455,
      "Ġconcerning": 6456,
      "ĠIdent": 6457,
      "Ġyes": 6458,
      "ourney": 6459,
      "Ġlegislation": 6460,
      "ICE": 6461,
      "Ġdriver": 6462,
      "Ġast": 6463,
      "Ġprobability": 6464,
      "urisd": 6465,
      "Â°C": 6466,
      "rag": 6467,
      "Ġsubjects": 6468,
      "ĠLimited": 6469,
      "hab": 6470,
      "osystem": 6471,
      "Ġcyc": 6472,
      "))": 6473,
      "Ġzone": 6474,
      "sigma": 6475,
      "Ġelev": 6476,
      "Ġleaving": 6477,
      "ENTS": 6478,
      "URE": 6479,
      "Ġtheore": 6480,
      "egin": 6481,
      "ena": 6482,
      "Ġsubmit": 6483,
      "Ġanalyz": 6484,
      "Ġ(\"": 6485,
      "Ġindu": 6486,
      "Âłof": 6487,
      "Ġphoto": 6488,
      "ĠIr": 6489,
      "ĠĠĠĠĠĠĠĠĠĠĠĠĠĠĠĠĠĠĠĠĠĠĠĠĠĠĠĠĠĠĠĠĠĠĠĠĠĠĠĠĠ": 6490,
      "Ġwait": 6491,
      "abetes": 6492,
      "Ġideal": 6493,
      "Ġjustice": 6494,
      "Ġvan": 6495,
      "Ġtypical": 6496,
      "Ġguess": 6497,
      "ĠList": 6498,
      "ensus": 6499,
      "yer": 6500,
      "ĠPropos": 6501,
      "ĠRights": 6502,
      "Ġdefine": 6503,
      "Ġauthorities": 6504,
      "Ġprotocol": 6505,
      "Ġagents": 6506,
      "Ġalle": 6507,
      "Ġsugar": 6508,
      "aturday": 6509,
      "Ġprinciple": 6510,
      "ĠCanadian": 6511,
      "ĠCOVID": 6512,
      "sect": 6513,
      "Ġexists": 6514,
      "Ġyouth": 6515,
      "ĠPhil": 6516,
      "ĠWhe": 6517,
      "Ġneuro": 6518,
      "ĠCS": 6519,
      "Ġscope": 6520,
      "Ġroot": 6521,
      "ĠâĢ¦": 6522,
      "_n": 6523,
      "ĠBet": 6524,
      "Ġmilk": 6525,
      "`Ċ": 6526,
      "athy": 6527,
      "Ġcontrols": 6528,
      "ĠParty": 6529,
      "ursday": 6530,
      "riers": 6531,
      "Ġcommitted": 6532,
      "Ġaudit": 6533,
      "Ġproof": 6534,
      "Ġfif": 6535,
      "ĠComple": 6536,
      "Ġlots": 6537,
      "ĠCert": 6538,
      "Ġcrime": 6539,
      "Your": 6540,
      "rust": 6541,
      "Ġfilter": 6542,
      "omega": 6543,
      "Ġantic": 6544,
      "ĠJul": 6545,
      "Ġcorporate": 6546,
      "ĠPub": 6547,
      "ocks": 6548,
      "Ġknows": 6549,
      "Ġextract": 6550,
      "Ġseemed": 6551,
      "Ġtaxes": 6552,
      "Ġexec": 6553,
      "ĠRock": 6554,
      "Ġantib": 6555,
      "ĠLog": 6556,
      "Ġdepends": 6557,
      ".n": 6558,
      "inating": 6559,
      "ednes": 6560,
      "Ġcontinuous": 6561,
      "inance": 6562,
      "Ġdestroy": 6563,
      "Ġmand": 6564,
      "ĠTer": 6565,
      "Yes": 6566,
      "ygen": 6567,
      "Ġsharing": 6568,
      "Ġcouldn": 6569,
      "cribed": 6570,
      "ml": 6571,
      "Ġlect": 6572,
      "Ġrequested": 6573,
      "Ġwealth": 6574,
      "ĠIsland": 6575,
      "ingly": 6576,
      "Ġpreparation": 6577,
      "atial": 6578,
      "ector": 6579,
      "Ġseeing": 6580,
      "Ġwet": 6581,
      "Ġneut": 6582,
      "ĠMrs": 6583,
      "imens": 6584,
      "ĠDO": 6585,
      "Ġserver": 6586,
      "ĠHen": 6587,
      "ĺĲ": 6588,
      "Ġgenetic": 6589,
      "Ġrein": 6590,
      "Ġelectrical": 6591,
      "-the": 6592,
      "edy": 6593,
      "Ġreact": 6594,
      "Ġgenerate": 6595,
      "iated": 6596,
      "MO": 6597,
      "Ġfell": 6598,
      "Ġ`": 6599,
      "ĠAI": 6600,
      "ipped": 6601,
      "rem": 6602,
      "dden": 6603,
      "Ġreceiving": 6604,
      "Ġid": 6605,
      "ĠUt": 6606,
      "Ġmur": 6607,
      "Don": 6608,
      "Ġment": 6609,
      "Ġmeasurement": 6610,
      "Ġdiscrim": 6611,
      "Ġnurs": 6612,
      "Ġchosen": 6613,
      "ĠWil": 6614,
      "Ġremote": 6615,
      "âĢĿ.": 6616,
      "ĠFlo": 6617,
      "ĠIts": 6618,
      "Ġconsidering": 6619,
      "Ġtransportation": 6620,
      "Ġdownload": 6621,
      "Ġterrit": 6622,
      "Ġkilled": 6623,
      "Ġshift": 6624,
      "Ġparameter": 6625,
      "Ġfunctional": 6626,
      "Ġvulner": 6627,
      "Ġfailed": 6628,
      "Ġdetection": 6629,
      "Ġfundamental": 6630,
      "ĠStaff": 6631,
      "Ġgirls": 6632,
      "Ġphenomen": 6633,
      "Ġmanager": 6634,
      "-level": 6635,
      "Ġfill": 6636,
      "ĠGlobal": 6637,
      "Ġtruly": 6638,
      "ÂłÂłÂłÂłÂłÂłÂłÂł": 6639,
      "ĠTim": 6640,
      "Ġcamera": 6641,
      "IB": 6642,
      "ĠDev": 6643,
      "ĠConc": 6644,
      "Ġconscious": 6645,
      "Ġreviewed": 6646,
      "ivered": 6647,
      "Ġentered": 6648,
      "itivity": 6649,
      "ears": 6650,
      "ÑĤ": 6651,
      "Ġwave": 6652,
      "Ġpayments": 6653,
      "Ġsigned": 6654,
      "Ġdecide": 6655,
      "ERV": 6656,
      "ABLE": 6657,
      "stood": 6658,
      "ĠLin": 6659,
      "how": 6660,
      "Ġboy": 6661,
      "ïº": 6662,
      "Ġgod": 6663,
      "Ġhealthcare": 6664,
      "inations": 6665,
      "asp": 6666,
      "However": 6667,
      "Ġassigned": 6668,
      "Sub": 6669,
      "Ġcrucial": 6670,
      "Ġpartnership": 6671,
      "Ġdiscovered": 6672,
      "etry": 6673,
      "ĠMD": 6674,
      "Ġconsequences": 6675,
      "Ġadding": 6676,
      "Ġinstruct": 6677,
      "location": 6678,
      "iverse": 6679,
      "Ġreligion": 6680,
      "Ġconsists": 6681,
      "aph": 6682,
      "ĠCult": 6683,
      "ĠOx": 6684,
      "Ġaccommod": 6685,
      "Ġprofile": 6686,
      "Ġemployed": 6687,
      "Ġpursuant": 6688,
      "Ġtum": 6689,
      "CD": 6690,
      "Ġbelieved": 6691,
      "anguages": 6692,
      "acebook": 6693,
      "type": 6694,
      "Ġpopulations": 6695,
      "Ġrepresented": 6696,
      "Ġrepair": 6697,
      "ANT": 6698,
      "Ġplanned": 6699,
      "Ġofficer": 6700,
      "FL": 6701,
      "war": 6702,
      "Ġalgorithm": 6703,
      "Ġcategories": 6704,
      "orter": 6705,
      "https": 6706,
      "Ġrid": 6707,
      "Ġjudge": 6708,
      "ĠFlor": 6709,
      "Ġthoughts": 6710,
      "Â®": 6711,
      "nam": 6712,
      "Ġsupports": 6713,
      "ayer": 6714,
      "Ġfamiliar": 6715,
      "stract": 6716,
      "Dr": 6717,
      "Ġax": 6718,
      "Ġsudden": 6719,
      "Ġlandscape": 6720,
      "Ġinterface": 6721,
      ".R": 6722,
      "Ġreform": 6723,
      "Ġhelping": 6724,
      "iary": 6725,
      "Ġlisten": 6726,
      "lamm": 6727,
      "from": 6728,
      "astern": 6729,
      "ĠRES": 6730,
      "Ġpotentially": 6731,
      ".J": 6732,
      "Ġforced": 6733,
      "ĠOhio": 6734,
      "NE": 6735,
      "ĠFamily": 6736,
      "ferent": 6737,
      "ureau": 6738,
      "ĠSpe": 6739,
      "Ġmanual": 6740,
      "cers": 6741,
      "Ġtrip": 6742,
      ".P": 6743,
      "rition": 6744,
      "Ġbattery": 6745,
      "):Ċ": 6746,
      "Ġpal": 6747,
      "Ġaccuracy": 6748,
      "Ġgranted": 6749,
      "ĠGoogle": 6750,
      "inner": 6751,
      "ĠNetwork": 6752,
      "-se": 6753,
      "igital": 6754,
      "osph": 6755,
      "ffee": 6756,
      "Ġflood": 6757,
      "isms": 6758,
      "ECT": 6759,
      "Ġcolle": 6760,
      "Part": 6761,
      "Ġcounty": 6762,
      "Ġconsumers": 6763,
      "ĠCond": 6764,
      "col": 6765,
      "ĠTransport": 6766,
      "ĠStandard": 6767,
      "va": 6768,
      "Ġrecognition": 6769,
      "Ġsounds": 6770,
      "ednesday": 6771,
      "ĠJun": 6772,
      "las": 6773,
      "Ġsurrounding": 6774,
      "xiety": 6775,
      "Ġcatch": 6776,
      "Ġplanet": 6777,
      "Us": 6778,
      "Ġequity": 6779,
      "amination": 6780,
      "Ġofficials": 6781,
      "ĠDIS": 6782,
      "Ġanswers": 6783,
      "antly": 6784,
      "%,": 6785,
      "Ġoperate": 6786,
      "ĠFree": 6787,
      "Ġasset": 6788,
      "Ġrank": 6789,
      "ĠJo": 6790,
      "Ġdiam": 6791,
      "Ġwidely": 6792,
      "Ġjoin": 6793,
      "Ġclar": 6794,
      "arn": 6795,
      "ĠCoun": 6796,
      "Ġinformed": 6797,
      "Ġimprovements": 6798,
      "Ġprohib": 6799,
      "anta": 6800,
      "ependent": 6801,
      "ĠVer": 6802,
      "Ġabuse": 6803,
      "Ġpackage": 6804,
      "bursement": 6805,
      "Ġadequate": 6806,
      "Ġfulf": 6807,
      "Ġorient": 6808,
      "Ġraise": 6809,
      "Ġhighlight": 6810,
      "ĠCorporation": 6811,
      "ĠMs": 6812,
      "uesday": 6813,
      "</": 6814,
      "Ġmixed": 6815,
      "Ġdiversity": 6816,
      ".'": 6817,
      "Ġassume": 6818,
      "Ġ{": 6819,
      "ĠCr": 6820,
      "Ġrepresentative": 6821,
      "flow": 6822,
      ").**": 6823,
      "overty": 6824,
      "Ġaccounting": 6825,
      "Be": 6826,
      "Ġpure": 6827,
      "(c": 6828,
      "irty": 6829,
      "Ġconsumer": 6830,
      "ĠAcad": 6831,
      "Ġfalse": 6832,
      "Ġspaces": 6833,
      "allel": 6834,
      "Ġcommitment": 6835,
      "icks": 6836,
      "Ġlived": 6837,
      "ĠBudget": 6838,
      "ĠRoman": 6839,
      "Ġseed": 6840,
      "ĠTop": 6841,
      "/S": 6842,
      "uma": 6843,
      "Ġplot": 6844,
      "Ġinstalled": 6845,
      "Ġhus": 6846,
      "Ġstorm": 6847,
      "Ġcharges": 6848,
      "ogue": 6849,
      "Ġsimpl": 6850,
      "Ġfaster": 6851,
      "Ġsensitive": 6852,
      "ĠMad": 6853,
      "---|---|---|---|": 6854,
      "Ġnative": 6855,
      "isition": 6856,
      "Ġacts": 6857,
      "isters": 6858,
      "ĠJr": 6859,
      "ancer": 6860,
      "vision": 6861,
      "acific": 6862,
      "Ġopened": 6863,
      "ĠSunday": 6864,
      "}^": 6865,
      "Ġclust": 6866,
      "Delta": 6867,
      "gent": 6868,
      "Ġtun": 6869,
      "Ġexposed": 6870,
      "Ġproviders": 6871,
      "|-----------------|------------|Ċ": 6872,
      "Ġdecades": 6873,
      "ĠJapanese": 6874,
      "mega": 6875,
      "Ġtissue": 6876,
      "ĠWal": 6877,
      "Ġconfirm": 6878,
      "uties": 6879,
      "Ġstudied": 6880,
      "irement": 6881,
      "Ġupdate": 6882,
      "ĠAgricult": 6883,
      "Ġongoing": 6884,
      "erman": 6885,
      "Ġintervention": 6886,
      "Ġprincipal": 6887,
      "Ġlinked": 6888,
      "Ġconcrete": 6889,
      "word": 6890,
      "ĠVirgin": 6891,
      "Ġmac": 6892,
      "Ġdangerous": 6893,
      "ĠIss": 6894,
      "Ġcommission": 6895,
      "Ġinstruments": 6896,
      "Hz": 6897,
      "ĠWho": 6898,
      "essions": 6899,
      "ION": 6900,
      "Ġregulation": 6901,
      "Ġlabel": 6902,
      "Ġpanel": 6903,
      "Ġfix": 6904,
      "Ġengage": 6905,
      "Ġfilled": 6906,
      "ĠRef": 6907,
      "Ġequation": 6908,
      "Ġparking": 6909,
      "Ġclick": 6910,
      "ĠRichard": 6911,
      "Ġpul": 6912,
      "Ġclients": 6913,
      "eties": 6914,
      "Ġguy": 6915,
      "Ġstored": 6916,
      "idden": 6917,
      "imb": 6918,
      "Ġbreast": 6919,
      "ĠTur": 6920,
      "Ġjurisd": 6921,
      "Ġexperts": 6922,
      "Ġmedicine": 6923,
      "Ġintegrated": 6924,
      "Ġconven": 6925,
      "Ġcontem": 6926,
      "gypt": 6927,
      "-V": 6928,
      "Ġintent": 6929,
      "Ġstarts": 6930,
      "|-----------------|----------------|Ċ": 6931,
      "rants": 6932,
      "izon": 6933,
      "Ġassociation": 6934,
      "}{\\": 6935,
      "Ġvirus": 6936,
      "rome": 6937,
      "Ġowners": 6938,
      "Stud": 6939,
      "ĠSil": 6940,
      "BA": 6941,
      "Ġpup": 6942,
      "ognitive": 6943,
      "hips": 6944,
      "oung": 6945,
      "Ġsupposed": 6946,
      "ĠRO": 6947,
      "Ġkit": 6948,
      "aneous": 6949,
      "Ġpump": 6950,
      "irmed": 6951,
      "ĠPrincip": 6952,
      "PC": 6953,
      "Pr": 6954,
      "igan": 6955,
      "Ġpieces": 6956,
      "Ġconfidence": 6957,
      "ĠAction": 6958,
      "ĠĠĠĠĠĠĠĠĠĠĠĠĠĠĠĠĠĠĠĠĠĠĠĠĠĠĠĠĠĠĠĠĠĠĠĠĠĠĠĠĠĠĠĠĠĠĠĠ": 6959,
      "reshold": 6960,
      "Ġbegins": 6961,
      "ĠSand": 6962,
      "ady": 6963,
      "Ġsick": 6964,
      "ĠIV": 6965,
      "ugg": 6966,
      "espite": 6967,
      "Section": 6968,
      "gal": 6969,
      "Ġahead": 6970,
      "Ġplate": 6971,
      "anda": 6972,
      "Ġshap": 6973,
      "-N": 6974,
      "ym": 6975,
      "ĠFriday": 6976,
      ");Ċ": 6977,
      "Ġduty": 6978,
      "Ġvaluable": 6979,
      "Ġpossibly": 6980,
      "Ġcrisis": 6981,
      "Ġflat": 6982,
      "ĠCa": 6983,
      "ĠIL": 6984,
      "Ġtow": 6985,
      "ãģ": 6986,
      "ĠMag": 6987,
      "Ġmanufacturing": 6988,
      "Ġbehalf": 6989,
      "Ġseeking": 6990,
      "Ġfigures": 6991,
      "Ġvoltage": 6992,
      "sum": 6993,
      "ĠSciences": 6994,
      "ĠVictor": 6995,
      "ĠTitle": 6996,
      "Ġaddressed": 6997,
      "Ġuniversity": 6998,
      "Ġlinks": 6999,
      "ĠSet": 7000,
      "Ġdistributed": 7001,
      "Ġsup": 7002,
      "Ġmeasurements": 7003,
      "Ġderived": 7004,
      "Ġsurgery": 7005,
      "aren": 7006,
      "Ġprepare": 7007,
      "Ġbattle": 7008,
      "ĠColor": 7009,
      "Ġerrors": 7010,
      "ĠTreat": 7011,
      "ologist": 7012,
      "Ġpublication": 7013,
      "Ġagricultural": 7014,
      "Ġsenior": 7015,
      "ĠStep": 7016,
      "She": 7017,
      "Ġhelpful": 7018,
      "orld": 7019,
      "teen": 7020,
      "ĠGuide": 7021,
      "ĠMarket": 7022,
      "Ġsettings": 7023,
      "Ġpermit": 7024,
      "ĠIslam": 7025,
      "ĠMartin": 7026,
      "DR": 7027,
      "hav": 7028,
      "Ġentirely": 7029,
      "Fin": 7030,
      "ventional": 7031,
      "Ġexecut": 7032,
      "Since": 7033,
      "ĠArab": 7034,
      "Ġentitled": 7035,
      "Ġthanks": 7036,
      "Ġgenes": 7037,
      "uous": 7038,
      "ĠCustom": 7039,
      "ĠAsia": 7040,
      "ĠAustralian": 7041,
      "YS": 7042,
      "ĠMaterial": 7043,
      "Ġlock": 7044,
      "ĠHand": 7045,
      "Ġdegrees": 7046,
      "-on": 7047,
      "ĠPoint": 7048,
      "Ġoffering": 7049,
      "Ġauthorized": 7050,
      "Ġdivided": 7051,
      "Ġsupplement": 7052,
      "ĠSA": 7053,
      "Ġentity": 7054,
      "oral": 7055,
      "lined": 7056,
      "ĠStar": 7057,
      "ĠSCHEDULE": 7058,
      "Ġdeploy": 7059,
      "ĠMa": 7060,
      "OND": 7061,
      "burg": 7062,
      "Ġpowers": 7063,
      "Ġtot": 7064,
      "ĠHospital": 7065,
      "Ġappeared": 7066,
      "Ġunlike": 7067,
      "PO": 7068,
      "Ġstick": 7069,
      "ĠCharles": 7070,
      "bl": 7071,
      "|----------------------------------------|--------------------": 7072,
      "ĠForest": 7073,
      "gments": 7074,
      "Ġshoot": 7075,
      "icago": 7076,
      "stein": 7077,
      "Ġaccident": 7078,
      "Ġadvoc": 7079,
      "ĠRussia": 7080,
      "Ġevaluate": 7081,
      "ĠBlo": 7082,
      "Âłin": 7083,
      "Ġjourney": 7084,
      "Ġdomain": 7085,
      "Ġexperiments": 7086,
      "Par": 7087,
      "Ġabsence": 7088,
      "ĠValley": 7089,
      "Ġcere": 7090,
      "First": 7091,
      "zen": 7092,
      "Ġinject": 7093,
      "ĠCath": 7094,
      "-sh": 7095,
      "Ġorders": 7096,
      "Ġdelivered": 7097,
      "Des": 7098,
      "ava": 7099,
      "Ġdesire": 7100,
      "Ġblog": 7101,
      "ĠProduct": 7102,
      "HA": 7103,
      "erved": 7104,
      "losed": 7105,
      "real": 7106,
      "ĠJohnson": 7107,
      "-sc": 7108,
      "Ġbiological": 7109,
      "Ġprotected": 7110,
      "Ġnegot": 7111,
      "Ġdollars": 7112,
      "Â·": 7113,
      "Ġcurriculum": 7114,
      "-like": 7115,
      "Ġcausing": 7116,
      "Ġ)": 7117,
      "ĠPen": 7118,
      "Ġadvis": 7119,
      "Ġbacteria": 7120,
      "Ġlosses": 7121,
      "ĠMO": 7122,
      "racy": 7123,
      "FS": 7124,
      "Âłto": 7125,
      "Ġlatter": 7126,
      "Ġidentification": 7127,
      "ĠMaster": 7128,
      "Ġlargely": 7129,
      "Ġimproving": 7130,
      "state": 7131,
      "ading": 7132,
      "Ġsed": 7133,
      "Ġsides": 7134,
      "Ġfurn": 7135,
      "ourse": 7136,
      "Ġworse": 7137,
      "Ġunable": 7138,
      "kin": 7139,
      "General": 7140,
      "Ġbanks": 7141,
      "Ġupdated": 7142,
      "ĠSenate": 7143,
      "chen": 7144,
      "ĠNav": 7145,
      "ĠLouis": 7146,
      "ĠDen": 7147,
      "ellectual": 7148,
      "ĠDou": 7149,
      "Ġintelligence": 7150,
      "ocratic": 7151,
      "Ġsubstantial": 7152,
      "-O": 7153,
      ".-": 7154,
      "Ġpair": 7155,
      "Ġcapable": 7156,
      "LY": 7157,
      "..................": 7158,
      "Ġsubsequent": 7159,
      "/f": 7160,
      "duate": 7161,
      "Ġconstra": 7162,
      "Ġcircuit": 7163,
      "_k": 7164,
      "Ġdiverse": 7165,
      "Ġeffectiveness": 7166,
      "ĠServant": 7167,
      "Ġanticip": 7168,
      "ĠInterest": 7169,
      "Ġproportion": 7170,
      "ĠPA": 7171,
      "Ġsurve": 7172,
      "Ġtemperatures": 7173,
      "Ġexpensive": 7174,
      "Ġliability": 7175,
      "Ġindeed": 7176,
      "Ġcars": 7177,
      "Ġmaintained": 7178,
      "Ġnecessarily": 7179,
      "ĠMinister": 7180,
      "Ġamaz": 7181,
      "bf": 7182,
      "ĠBY": 7183,
      "ĠTeam": 7184,
      "Ġfab": 7185,
      "ailed": 7186,
      "ĠFair": 7187,
      "ĠEconomic": 7188,
      "ML": 7189,
      "using": 7190,
      "Ġtargets": 7191,
      "Ġregulatory": 7192,
      "ĠCOMP": 7193,
      ".:": 7194,
      "earing": 7195,
      "Ġresidential": 7196,
      "osh": 7197,
      "Ġceleb": 7198,
      "rel": 7199,
      "Ġexpendit": 7200,
      "tau": 7201,
      "isp": 7202,
      "aming": 7203,
      "Ġimmediate": 7204,
      "ĠField": 7205,
      "Ġappearance": 7206,
      "Ġimpossible": 7207,
      "ĠCall": 7208,
      "ĠED": 7209,
      "ipping": 7210,
      "Ed": 7211,
      "Pre": 7212,
      "ocket": 7213,
      "ĠRegist": 7214,
      "Ġfarmers": 7215,
      "Ġstrategic": 7216,
      "ĠBack": 7217,
      "operation": 7218,
      "Ġmoral": 7219,
      "|-------|------------|Ċ": 7220,
      "Ġgarden": 7221,
      "Ġclosely": 7222,
      "Ġconference": 7223,
      "Ġclassroom": 7224,
      "Ġfaculty": 7225,
      "ĠProperty": 7226,
      "Ġbow": 7227,
      "iology": 7228,
      "ÂłÂłÂł": 7229,
      "Ġasking": 7230,
      "then": 7231,
      "Î½": 7232,
      "Ġgather": 7233,
      "Ġremoval": 7234,
      "ircraft": 7235,
      "Ġmuscle": 7236,
      "alty": 7237,
      ".ht": 7238,
      "idity": 7239,
      "Ġstable": 7240,
      "Ġspending": 7241,
      "ĠAnother": 7242,
      "Ġextension": 7243,
      "CON": 7244,
      "Ġexamination": 7245,
      "ude": 7246,
      "ĠConstitution": 7247,
      "ĠCapital": 7248,
      "ĠPass": 7249,
      "atus": 7250,
      "Ġdiagnosis": 7251,
      "itage": 7252,
      "Ġprosp": 7253,
      "Ġlicens": 7254,
      "Ġamended": 7255,
      "Ġintroduction": 7256,
      "ĠSup": 7257,
      "Ġloan": 7258,
      "Ġgrass": 7259,
      "ications": 7260,
      "Ġintegration": 7261,
      "NS": 7262,
      "Ġapart": 7263,
      "More": 7264,
      "Ġshut": 7265,
      "Ġmissing": 7266,
      "Ġunderstood": 7267,
      "Ġsignals": 7268,
      "ventions": 7269,
      "Ġatmosphere": 7270,
      "Ġwaters": 7271,
      "Ġmarriage": 7272,
      "coming": 7273,
      "Ġrepeated": 7274,
      "FA": 7275,
      "ĠCur": 7276,
      "ĠCheck": 7277,
      "organ": 7278,
      "Ġprofessionals": 7279,
      "Ġwaiting": 7280,
      "Ġtells": 7281,
      "Ass": 7282,
      "May": 7283,
      "ĠVari": 7284,
      "Ġsnow": 7285,
      "Ġletters": 7286,
      "ĠFY": 7287,
      "ua": 7288,
      "Ġaspect": 7289,
      "ĠLar": 7290,
      "Ġrevealed": 7291,
      "encing": 7292,
      "Ġattacks": 7293,
      "Ġtrib": 7294,
      "ĠSEC": 7295,
      "ĠMel": 7296,
      "Ġdemonstrate": 7297,
      "Ġnutri": 7298,
      "Ġchief": 7299,
      "ifts": 7300,
      "ĠSS": 7301,
      "ĠCard": 7302,
      "Ġfiled": 7303,
      "Ġneighbor": 7304,
      "Ġstations": 7305,
      "Ġspeaking": 7306,
      "Ġplays": 7307,
      "Ġrail": 7308,
      "Ġcreative": 7309,
      "-day": 7310,
      "Ġprove": 7311,
      "(t": 7312,
      "ati": 7313,
      "umes": 7314,
      "ĠRegional": 7315,
      "Ġmanif": 7316,
      "ĠConnect": 7317,
      "Ġprecise": 7318,
      "Ġchair": 7319,
      "Ġprison": 7320,
      "Ġeligible": 7321,
      "Ġrough": 7322,
      "rency": 7323,
      "PT": 7324,
      "kins": 7325,
      "Ġthrow": 7326,
      "ĠTom": 7327,
      "Ġroutine": 7328,
      "Ġmineral": 7329,
      "Ġdesignated": 7330,
      "ĠRest": 7331,
      "Ġchart": 7332,
      "levision": 7333,
      "Ġkinds": 7334,
      "ugh": 7335,
      "Ġrefers": 7336,
      "Ġrub": 7337,
      "Ġcoe": 7338,
      "Ġcomposition": 7339,
      "Ġprovider": 7340,
      "ĠOwn": 7341,
      "ĠJewish": 7342,
      "ĠGet": 7343,
      "Ġpaint": 7344,
      "Ġmechanisms": 7345,
      "yr": 7346,
      "licated": 7347,
      "Ġsheet": 7348,
      "Ġoral": 7349,
      "Ġresid": 7350,
      "Ġconclusion": 7351,
      "Ġinstallation": 7352,
      "Ġregularly": 7353,
      "/Ċ": 7354,
      "rary": 7355,
      "Ġobs": 7356,
      "Ġregistration": 7357,
      "ĠLLC": 7358,
      "Ġwest": 7359,
      "Ġstructural": 7360,
      "Ġinvestments": 7361,
      "Im": 7362,
      "oric": 7363,
      "ĠRussian": 7364,
      "lusions": 7365,
      "ĠOrd": 7366,
      "visor": 7367,
      "eding": 7368,
      "Ġsummary": 7369,
      "Ġrow": 7370,
      "Ġensuring": 7371,
      "Ġexpansion": 7372,
      "ĠAmend": 7373,
      "liament": 7374,
      "ĠVe": 7375,
      "Ġcards": 7376,
      "Ġretail": 7377,
      "Ġradiation": 7378,
      "ousing": 7379,
      "top": 7380,
      "Ġroles": 7381,
      "Ġprogramme": 7382,
      "Ġimmun": 7383,
      "Ġexperimental": 7384,
      "Ġnom": 7385,
      "ĠPers": 7386,
      "ĠPriv": 7387,
      "ĠManual": 7388,
      "rieved": 7389,
      "Ġfamous": 7390,
      "Ġpermanent": 7391,
      "ĠWay": 7392,
      "Ġpip": 7393,
      "Ġuniform": 7394,
      "employ": 7395,
      "Ġteeth": 7396,
      "viation": 7397,
      "iration": 7398,
      "-a": 7399,
      "Ġfert": 7400,
      "Ġunderlying": 7401,
      "ĠStock": 7402,
      "Ġtwenty": 7403,
      "Ġcompletion": 7404,
      "asy": 7405,
      "agon": 7406,
      "ITH": 7407,
      "Ġpapers": 7408,
      "ĠThose": 7409,
      "Ġforg": 7410,
      "Ġadministrative": 7411,
      "amber": 7412,
      "ĠFact": 7413,
      "ashion": 7414,
      "ĠTraining": 7415,
      "ĠNorthern": 7416,
      "Ġadm": 7417,
      "Ġdiscover": 7418,
      "ometimes": 7419,
      "Ġinvolving": 7420,
      "Ġlegisl": 7421,
      "?\"Ċ": 7422,
      "Î¿": 7423,
      "Ġsuccessfully": 7424,
      "Ġcompensation": 7425,
      "-con": 7426,
      "ĠKey": 7427,
      "Ġvirtual": 7428,
      "olidated": 7429,
      "ĠFurthermore": 7430,
      "RC": 7431,
      "ems": 7432,
      "ĠEth": 7433,
      "ocument": 7434,
      "Ġcarrying": 7435,
      "istent": 7436,
      "Ġgreatest": 7437,
      "ĠDoes": 7438,
      "riting": 7439,
      "ÑĢ": 7440,
      "Ġpus": 7441,
      "ĠEgypt": 7442,
      "ATIONS": 7443,
      "Ġwithd": 7444,
      "Ġdebate": 7445,
      "ĠSl": 7446,
      "Ġpermitted": 7447,
      "Ġsmooth": 7448,
      "Ġprogramming": 7449,
      "ĠMcC": 7450,
      "Man": 7451,
      "Ġdynamic": 7452,
      "ĠNOT": 7453,
      "LA": 7454,
      "Ġgovernments": 7455,
      "osa": 7456,
      "Ġsubsid": 7457,
      "Ġwhereas": 7458,
      "ĠMexico": 7459,
      "ĠBre": 7460,
      "Ġspiritual": 7461,
      "ĠHaw": 7462,
      "KS": 7463,
      "holder": 7464,
      "UND": 7465,
      "ĠGeorg": 7466,
      "Ġautomatically": 7467,
      "DP": 7468,
      "Per": 7469,
      "ĠIntroduction": 7470,
      "Ġcoal": 7471,
      "Med": 7472,
      "ums": 7473,
      "Ġdemonstrated": 7474,
      "Ġwalking": 7475,
      "Ġunp": 7476,
      "Ġcritic": 7477,
      "ĠGrant": 7478,
      "Ġdirected": 7479,
      "Ġecosystem": 7480,
      "list": 7481,
      "Ġ.Ċ": 7482,
      "ĠPlace": 7483,
      "Ġchoices": 7484,
      "Ġdesired": 7485,
      "Ġregister": 7486,
      "Ġtaught": 7487,
      "ĠLee": 7488,
      "theta": 7489,
      "IGH": 7490,
      "IAL": 7491,
      "Ġseconds": 7492,
      "Ġruns": 7493,
      "ĠASS": 7494,
      "Can": 7495,
      "Ġoperational": 7496,
      "Ġlanguages": 7497,
      "Ġenforcement": 7498,
      "Ġterror": 7499,
      "ĠStudent": 7500,
      "Ġappointed": 7501,
      "while": 7502,
      "ĠBig": 7503,
      "Ġroute": 7504,
      "Ġmatrix": 7505,
      "quir": 7506,
      "Ġtick": 7507,
      "Ġpictures": 7508,
      "Ġavailability": 7509,
      "iner": 7510,
      "-and": 7511,
      "oned": 7512,
      "eper": 7513,
      "ora": 7514,
      "Ġincreasingly": 7515,
      "Ġexpectations": 7516,
      "Ġcm": 7517,
      "Ġengagement": 7518,
      "Ġye": 7519,
      "Ġchronic": 7520,
      "oir": 7521,
      "rogen": 7522,
      "Ġmarked": 7523,
      "Ġholds": 7524,
      "partial": 7525,
      "kes": 7526,
      "ĠCP": 7527,
      "Ġpresents": 7528,
      "-free": 7529,
      "Ġadverse": 7530,
      "Ġpharm": 7531,
      ")**:": 7532,
      "ait": 7533,
      "Ġalter": 7534,
      "Ġbutton": 7535,
      "Ġtight": 7536,
      "ircle": 7537,
      "Ġshel": 7538,
      "celer": 7539,
      "ĠSpanish": 7540,
      "ĠTri": 7541,
      "\\text": 7542,
      "Ġhyper": 7543,
      "Ġlaboratory": 7544,
      "ca": 7545,
      "Ġstages": 7546,
      "Ġbroken": 7547,
      "Ġdefense": 7548,
      "Ġconservation": 7549,
      "Ġcrow": 7550,
      "Ġban": 7551,
      "Ġarms": 7552,
      "ĠITEMIZED": 7553,
      "ĠInstead": 7554,
      "Co": 7555,
      "yd": 7556,
      "Ġexplanation": 7557,
      "box": 7558,
      "option": 7559,
      "Ġwalls": 7560,
      "ĠLos": 7561,
      "rat": 7562,
      "ĠFlorida": 7563,
      "Ġconnections": 7564,
      "Ġunknown": 7565,
      "ĠSea": 7566,
      "Ġmodified": 7567,
      "ĠImpact": 7568,
      "ĠCam": 7569,
      "ificial": 7570,
      "Ġinteractions": 7571,
      "/j": 7572,
      "Ġsignificance": 7573,
      "-mail": 7574,
      "ĠMoreover": 7575,
      "Over": 7576,
      "Ġdescribes": 7577,
      "|-------------------------------------------------------------": 7578,
      "sub": 7579,
      "Ġstrongly": 7580,
      "Ġnit": 7581,
      "arks": 7582,
      "night": 7583,
      "reation": 7584,
      "ĠMake": 7585,
      "Ġdepression": 7586,
      "Ġorganized": 7587,
      "ella": 7588,
      "Ġfluid": 7589,
      "ĠMil": 7590,
      "ĠPot": 7591,
      "Ġsolve": 7592,
      "Ġinhib": 7593,
      "Ġcontracts": 7594,
      "Get": 7595,
      "\")": 7596,
      "ĠPlant": 7597,
      "MV": 7598,
      "Ġanxiety": 7599,
      "Ġcharged": 7600,
      "ĠâĪĴ": 7601,
      "Ġmonthly": 7602,
      "Ġflows": 7603,
      "endar": 7604,
      "Ġvariation": 7605,
      "ĠÂłĠÂł": 7606,
      "ĠGuid": 7607,
      "otes": 7608,
      "Ġpm": 7609,
      "isite": 7610,
      "-de": 7611,
      "Ġpriority": 7612,
      "ĠAngeles": 7613,
      "Ġreplaced": 7614,
      "ĠReal": 7615,
      "Ġthousand": 7616,
      "eless": 7617,
      "Ġexecutive": 7618,
      "Ġends": 7619,
      "Ġprompt": 7620,
      "Ġsalt": 7621,
      "ĠMur": 7622,
      "acent": 7623,
      "Source": 7624,
      "ker": 7625,
      "emed": 7626,
      "ĠChicago": 7627,
      "valuation": 7628,
      "reland": 7629,
      "Ġrevolution": 7630,
      "Ġinterpretation": 7631,
      "Ġnormally": 7632,
      "Ġdedicated": 7633,
      "Ġengaged": 7634,
      "Ġincident": 7635,
      "Ġrecognize": 7636,
      "Ġimmig": 7637,
      "position": 7638,
      "Ġmel": 7639,
      "ĠCase": 7640,
      "Ġstars": 7641,
      "Ġextend": 7642,
      "Ġoxygen": 7643,
      "Dep": 7644,
      "bed": 7645,
      "Ġbright": 7646,
      "Ġrepresentation": 7647,
      "ĠSurvey": 7648,
      "Ġdistingu": 7649,
      "FT": 7650,
      "Ġreaders": 7651,
      "Ġdogs": 7652,
      "Ġvast": 7653,
      "Ġmessages": 7654,
      "Ġcommunications": 7655,
      "Ġhusband": 7656,
      "Ġsports": 7657,
      "Ġinnovation": 7658,
      "Ġreader": 7659,
      "ĠMuslim": 7660,
      "ĠFarm": 7661,
      "Ġfle": 7662,
      "stone": 7663,
      "ĠPacific": 7664,
      "Ġsentence": 7665,
      "Ġles": 7666,
      "Ġremained": 7667,
      "Ġemployer": 7668,
      "Ġcarefully": 7669,
      "Ġhypothes": 7670,
      "amm": 7671,
      "ĠJoseph": 7672,
      "ĠAB": 7673,
      "ĠApplication": 7674,
      "Ġsubt": 7675,
      "Ġturns": 7676,
      "ĠHE": 7677,
      "ĠQuality": 7678,
      "ĠJustice": 7679,
      "uction": 7680,
      "ĠGrand": 7681,
      "Ġrelief": 7682,
      "Ġduties": 7683,
      "Ġopposite": 7684,
      "_R": 7685,
      "Ġneither": 7686,
      "Ġjump": 7687,
      "Ġsegment": 7688,
      "Ġcounsel": 7689,
      "Ġdependent": 7690,
      "Ġcomply": 7691,
      "Ġboundary": 7692,
      "Ġprox": 7693,
      "ĠContin": 7694,
      "Ġtwice": 7695,
      "Ġelectron": 7696,
      "umer": 7697,
      "Ġcloud": 7698,
      "aniel": 7699,
      "Ġaccum": 7700,
      "ih": 7701,
      "ĠBible": 7702,
      "ĠAp": 7703,
      "Ġcloser": 7704,
      "GA": 7705,
      "PH": 7706,
      "Up": 7707,
      "Ġpossess": 7708,
      "ĠStart": 7709,
      "Ġ;": 7710,
      "Ġcandidates": 7711,
      "Ġinteract": 7712,
      "ĠParticip": 7713,
      "Ġminute": 7714,
      "\".Ċ": 7715,
      "ĠGal": 7716,
      "Ġstrict": 7717,
      "Ġdates": 7718,
      "Ġhero": 7719,
      "ĠThrough": 7720,
      "Ps": 7721,
      "Ġtoxic": 7722,
      "John": 7723,
      "Ġmaintaining": 7724,
      "Ġfavorite": 7725,
      "inking": 7726,
      "vironments": 7727,
      ".O": 7728,
      "Ġgap": 7729,
      "Ġhaven": 7730,
      "Ġmeth": 7731,
      "ĠFil": 7732,
      "Ġincent": 7733,
      "ĠJeff": 7734,
      "ussion": 7735,
      "Ġampl": 7736,
      "Ġbone": 7737,
      "elled": 7738,
      "$Ċ": 7739,
      "Cons": 7740,
      "ĠEmp": 7741,
      "ĠCC": 7742,
      "ĠMedicine": 7743,
      "|----------|Ċ": 7744,
      "Ġtail": 7745,
      "Ġassumed": 7746,
      "UST": 7747,
      "fit": 7748,
      "Ġfault": 7749,
      "Ġdiabetes": 7750,
      "Ġrecip": 7751,
      "|-----------------|---------------|Ċ": 7752,
      "ean": 7753,
      "win": 7754,
      "abil": 7755,
      "bury": 7756,
      "Ġclub": 7757,
      "ĠKnow": 7758,
      "prise": 7759,
      "ludes": 7760,
      "Ġforget": 7761,
      "Ġvisible": 7762,
      "âĪ": 7763,
      "SW": 7764,
      "Ġmeat": 7765,
      "itudes": 7766,
      "ĠPE": 7767,
      "illa": 7768,
      "Ġrational": 7769,
      "Ġeast": 7770,
      "Ġalign": 7771,
      "Ġapplicant": 7772,
      "Ġourselves": 7773,
      "ĠVirginia": 7774,
      "ĠCommer": 7775,
      "Ġcandidate": 7776,
      "Ġspons": 7777,
      "Ġparallel": 7778,
      "Ġpoverty": 7779,
      "Ġcorner": 7780,
      "Most": 7781,
      "Comp": 7782,
      "pat": 7783,
      "sell": 7784,
      "mann": 7785,
      "orph": 7786,
      "ĠLight": 7787,
      "=\"": 7788,
      "Col": 7789,
      "ruption": 7790,
      "Ġvital": 7791,
      "Ġrecyc": 7792,
      "Ġreturns": 7793,
      "Ġâĸ¼**": 7794,
      "iana": 7795,
      "Ġflag": 7796,
      "ĠSar": 7797,
      "ĠMonday": 7798,
      "andemic": 7799,
      "ospit": 7800,
      "onymous": 7801,
      "ĠNatural": 7802,
      "Ġscript": 7803,
      "|------------------------------------------------------------------------": 7804,
      "Ġdil": 7805,
      "Ġcoffee": 7806,
      "aints": 7807,
      "à¥ĭ": 7808,
      "Ġille": 7809,
      "Ġuns": 7810,
      "ASE": 7811,
      "Ġrealize": 7812,
      "Ġexception": 7813,
      "pet": 7814,
      "Ġrequests": 7815,
      "IES": 7816,
      "LO": 7817,
      "rance": 7818,
      "-be": 7819,
      "ucky": 7820,
      "|------------------|---------|Ċ": 7821,
      "ĠIncre": 7822,
      "ĠUr": 7823,
      "Ġinitiatives": 7824,
      "Ġstakeholders": 7825,
      "ĠAdditionally": 7826,
      "print": 7827,
      "Ġthreshold": 7828,
      "ASS": 7829,
      "Ġrecept": 7830,
      "ĠES": 7831,
      "Ġfeelings": 7832,
      "ĠStandards": 7833,
      "Ġbirds": 7834,
      "Ġscholars": 7835,
      "ĠIreland": 7836,
      "|------------------------------------------------------------|---|Ċ": 7837,
      "ĠTechnical": 7838,
      "ĠRepresent": 7839,
      "III": 7840,
      "Ġvillage": 7841,
      "Ġenroll": 7842,
      "eller": 7843,
      "-off": 7844,
      "icious": 7845,
      "rog": 7846,
      "Ġdaughter": 7847,
      "herent": 7848,
      "ĠObama": 7849,
      "ĠColl": 7850,
      "Ġmarried": 7851,
      "Ġton": 7852,
      "ĠFinance": 7853,
      "ustain": 7854,
      "Â²": 7855,
      "Ġconfiguration": 7856,
      "Ġmath": 7857,
      "Ġphotos": 7858,
      "Ġbear": 7859,
      "ĠMuseum": 7860,
      "Ġscores": 7861,
      "ĠLA": 7862,
      "ĠConserv": 7863,
      "OOL": 7864,
      "Ġresulted": 7865,
      "Ġcentre": 7866,
      "Ġskill": 7867,
      "Ġsweet": 7868,
      "Ġaccessible": 7869,
      "Ġhabitat": 7870,
      "ĠKh": 7871,
      "Ġarchitecture": 7872,
      "vant": 7873,
      "ĠSpace": 7874,
      "Ø§": 7875,
      "Ġdisorder": 7876,
      "Ġtrained": 7877,
      "aria": 7878,
      "bo": 7879,
      "Ġborrow": 7880,
      "rt": 7881,
      "BN": 7882,
      "ĠEmer": 7883,
      "Ġtoler": 7884,
      "Ġcryst": 7885,
      "aturally": 7886,
      "Ġobservations": 7887,
      "kay": 7888,
      "Ġentertain": 7889,
      "Ġputting": 7890,
      "Ġedition": 7891,
      "Ġhouses": 7892,
      "Ġsubstance": 7893,
      "ĠEnter": 7894,
      "Ġsuit": 7895,
      "Ġdrawn": 7896,
      "Ġtransp": 7897,
      "ĠPenn": 7898,
      "Ġju": 7899,
      "Ġusage": 7900,
      "Ġdivision": 7901,
      "```Ċ": 7902,
      "ĠPerformance": 7903,
      "ĠHave": 7904,
      "Ġlie": 7905,
      ".L": 7906,
      "^*": 7907,
      "ĠCourse": 7908,
      "Ġpolitics": 7909,
      "Ġdisturb": 7910,
      "Ġimmune": 7911,
      "Ġfraction": 7912,
      "âĢĻ,": 7913,
      "Ġloved": 7914,
      "Ġowned": 7915,
      "Ġring": 7916,
      "ĠStatement": 7917,
      "Ġcas": 7918,
      "ĠHO": 7919,
      "lets": 7920,
      "Ġalloc": 7921,
      "Ġnarrow": 7922,
      "ĠForce": 7923,
      "Ġconversation": 7924,
      "Ġduration": 7925,
      "ĠDue": 7926,
      "Ñģ": 7927,
      "fall": 7928,
      "ĠSus": 7929,
      "ether": 7930,
      "ãĢ": 7931,
      "Ġelected": 7932,
      ")}": 7933,
      "isting": 7934,
      "Ġorganis": 7935,
      "ĠChristmas": 7936,
      "Ġreliable": 7937,
      "olving": 7938,
      "ĠWall": 7939,
      "Ġdust": 7940,
      "ĠWild": 7941,
      "Ġdefinitely": 7942,
      "Ret": 7943,
      "Em": 7944,
      "iot": 7945,
      "hesis": 7946,
      "====": 7947,
      "Ġdrinking": 7948,
      "Ġapprove": 7949,
      "ĠSat": 7950,
      "Ġtransactions": 7951,
      "ĠSep": 7952,
      "ĠFour": 7953,
      "à¤¨": 7954,
      "Ġversus": 7955,
      "isco": 7956,
      "Ġgrown": 7957,
      "Ġarrest": 7958,
      "Ġannounced": 7959,
      "Ġsurvival": 7960,
      "ĠAssistant": 7961,
      "Ġdocumentation": 7962,
      "ĠPaper": 7963,
      "DC": 7964,
      "ĠComputer": 7965,
      "ĠPack": 7966,
      "Ġempt": 7967,
      "ĠLic": 7968,
      "oxide": 7969,
      "Although": 7970,
      "inator": 7971,
      "Ġmusc": 7972,
      "Ġhazard": 7973,
      "-old": 7974,
      "hent": 7975,
      "Ġremind": 7976,
      "elfare": 7977,
      "Ġtrends": 7978,
      "ĠJews": 7979,
      "zil": 7980,
      "Ġinspection": 7981,
      "ĠAvenue": 7982,
      "operative": 7983,
      "Ġtables": 7984,
      "ĠCredit": 7985,
      "ĠAtl": 7986,
      "-ex": 7987,
      "Ġstone": 7988,
      "Ġapplies": 7989,
      "Ġcourts": 7990,
      "Ġtransl": 7991,
      "Another": 7992,
      "Ġwatching": 7993,
      "Ġcart": 7994,
      "eli": 7995,
      "ĠAffairs": 7996,
      "ACH": 7997,
      "According": 7998,
      "Ġrelax": 7999,
      "Ġmetab": 8000,
      "ĠFinally": 8001,
      "outs": 8002,
      "Ġfirms": 8003,
      "ĠSeries": 8004,
      "venues": 8005,
      "ĠSoft": 8006,
      "ĠHa": 8007,
      "Ġdrain": 8008,
      "Ġpush": 8009,
      "ĠVan": 8010,
      ".pdf": 8011,
      "Ġstability": 8012,
      "ĠĠĠĠĠĠĠĠĠĠĠĠĠĠĠĠĠĠĠĠĠĠĠĠĠĠĠĠĠĠĠĠĠĠĠĠĠĠĠĠĠĠĠĠĠĠĠĠĠĠĠĠĠĠĠĠĠĠĠĠĠĠĠĠĠĠĠĠĠĠĠĠĠĠĠĠĠĠĠĠĠĠĠĠĠĠĠĠĠĠĠĠĠĠĠĠĠĠĠĠĠĠĠĠĠĠĠĠĠĠĠĠĠĠĠĠĠĠĠĠĠĠĠĠĠĠĠĠ": 8013,
      "ï¼": 8014,
      "icon": 8015,
      "Ġsuc": 8016,
      "Ġpermission": 8017,
      "west": 8018,
      "Ġsupplies": 8019,
      "ropri": 8020,
      "folio": 8021,
      "Ġnine": 8022,
      "Ġcapture": 8023,
      "Ġcovers": 8024,
      "roc": 8025,
      "ĠKen": 8026,
      "Ġexpense": 8027,
      "THE": 8028,
      "Ġestate": 8029,
      "Ġmassive": 8030,
      "During": 8031,
      "ecess": 8032,
      "Ġbroadcast": 8033,
      "Ġstatistics": 8034,
      "\"I": 8035,
      "Ġexplains": 8036,
      "Are": 8037,
      "ĠBased": 8038,
      "Ġfold": 8039,
      "Ġrestaur": 8040,
      "{R": 8041,
      "Ġyellow": 8042,
      "mond": 8043,
      "ollowing": 8044,
      "ĠScot": 8045,
      "Ġdetermination": 8046,
      "ĠShare": 8047,
      "TIONS": 8048,
      "ĠTOTAL": 8049,
      "ĠThree": 8050,
      "ĠSW": 8051,
      "ifferent": 8052,
      "Ġproteins": 8053,
      "nal": 8054,
      "oli": 8055,
      "ads": 8056,
      "str": 8057,
      "Ġran": 8058,
      "-ch": 8059,
      "Ġimplications": 8060,
      "ĠSouthern": 8061,
      "ĠHon": 8062,
      "Ġdealing": 8063,
      "ĠPH": 8064,
      "ulus": 8065,
      "Ġprevention": 8066,
      "etric": 8067,
      "uling": 8068,
      "Ġpollution": 8069,
      "(d": 8070,
      ".**Ċ": 8071,
      "ACK": 8072,
      "Ġcollaboration": 8073,
      "Ġocean": 8074,
      "ĠPS": 8075,
      "fty": 8076,
      "Ġusual": 8077,
      "Sign": 8078,
      "fe": 8079,
      "Ġpreced": 8080,
      "Ġdecline": 8081,
      "Ġprev": 8082,
      "BM": 8083,
      "Ġbio": 8084,
      "ĠPop": 8085,
      "Ġque": 8086,
      "Ġdetermining": 8087,
      "first": 8088,
      "ĠPo": 8089,
      "ĠBlue": 8090,
      "ĠBO": 8091,
      "ĠGar": 8092,
      "Ġfinished": 8093,
      "Ġprivacy": 8094,
      "Ġ\\),": 8095,
      "izer": 8096,
      "Ġcorrelation": 8097,
      "Ġcompetitive": 8098,
      "Ġslowly": 8099,
      "Many": 8100,
      "ĠAvailable": 8101,
      "''": 8102,
      "ĠCT": 8103,
      "Ġownership": 8104,
      "ĠIR": 8105,
      "ĠFacebook": 8106,
      "Ġseat": 8107,
      "anger": 8108,
      "Ð¾Ð": 8109,
      "PM": 8110,
      "Ġresponsibilities": 8111,
      "ĠPolit": 8112,
      "ĠCirc": 8113,
      "iii": 8114,
      "Ġspatial": 8115,
      "Ġâľ": 8116,
      "ĠMean": 8117,
      "Omega": 8118,
      "Ġjudgment": 8119,
      "Ġhandling": 8120,
      "Ġharvest": 8121,
      "Ġenvironments": 8122,
      "Function": 8123,
      "Ġweapons": 8124,
      "Ġconfirmed": 8125,
      "Ġessay": 8126,
      "ĠAcademy": 8127,
      "ĠBir": 8128,
      "ologists": 8129,
      "Ġtemporary": 8130,
      "Âłd": 8131,
      "hire": 8132,
      "Ġblow": 8133,
      "Ġconj": 8134,
      "soft": 8135,
      "Ġjoined": 8136,
      "|-------------------|Ċ": 8137,
      "Ġmachines": 8138,
      "Ġstatistical": 8139,
      "Ġanalyses": 8140,
      "Ġconstitution": 8141,
      "Ġmembership": 8142,
      "_S": 8143,
      "Ġarbit": 8144,
      "Ġultimately": 8145,
      "ĠĠĠĠĠĠĠĠĠĠĠĠĠĠĠĠĠĠĠĠĠĠĠĠĠĠĠĠĠĠĠĠĠĠĠĠĠĠĠĠĠĠĠĠ": 8146,
      "Ġcrew": 8147,
      "Ġexplicit": 8148,
      "Ġintellectual": 8149,
      "Ġ}": 8150,
      "ĠCreek": 8151,
      "Ġbiggest": 8152,
      "Ġbread": 8153,
      "Ġimper": 8154,
      "Ġhonest": 8155,
      "VA": 8156,
      "Ġobst": 8157,
      "Ġmechanical": 8158,
      "Ġlimitations": 8159,
      "Where": 8160,
      "cm": 8161,
      "ĠSite": 8162,
      "DI": 8163,
      "Ġagenda": 8164,
      "-K": 8165,
      "Ġserving": 8166,
      "ĠKorea": 8167,
      "aked": 8168,
      "Ġfairly": 8169,
      "FORM": 8170,
      "ala": 8171,
      "ĠTAX": 8172,
      "ĠMinistry": 8173,
      "ĠCross": 8174,
      "ĠPur": 8175,
      "Ġattendance": 8176,
      "ĠMen": 8177,
      "Ġreplacement": 8178,
      "Ġflight": 8179,
      "inson": 8180,
      "Ġobligations": 8181,
      "ĠMedia": 8182,
      "brid": 8183,
      "Ġingred": 8184,
      "Ġcutting": 8185,
      "hered": 8186,
      "Ġsitting": 8187,
      "Ġfiscal": 8188,
      "Ġaircraft": 8189,
      "obile": 8190,
      "Ġcapabilities": 8191,
      "Ġgeomet": 8192,
      "Ġclassification": 8193,
      "rison": 8194,
      "Ġroof": 8195,
      "Ġcalling": 8196,
      "icing": 8197,
      "Ġtank": 8198,
      "icken": 8199,
      "lishing": 8200,
      "edu": 8201,
      "duction": 8202,
      "Ġevil": 8203,
      "Ġisland": 8204,
      "Ġsomewhat": 8205,
      "ĠMach": 8206,
      "Ġshock": 8207,
      "Ġapplying": 8208,
      "à¤ķ": 8209,
      "WH": 8210,
      "gers": 8211,
      "ĠBritain": 8212,
      "Ġrapidly": 8213,
      "ĠVillage": 8214,
      "Ġmovements": 8215,
      "inant": 8216,
      "Ġborder": 8217,
      "ĠNature": 8218,
      "Ġstret": 8219,
      "ĠAge": 8220,
      "azine": 8221,
      "-spec": 8222,
      "Ġdated": 8223,
      "utch": 8224,
      "iatric": 8225,
      "Ġtreatments": 8226,
      "ĠParis": 8227,
      "ilon": 8228,
      "ĠGreek": 8229,
      "ĠArts": 8230,
      "Ġhardware": 8231,
      "Ġnations": 8232,
      "Ġpatent": 8233,
      "gence": 8234,
      "Ġindustries": 8235,
      "Ġbuff": 8236,
      "Ġoccasion": 8237,
      "Ġphilosophy": 8238,
      "ĠScient": 8239,
      "oked": 8240,
      "onomic": 8241,
      "Ġplane": 8242,
      "inois": 8243,
      "Ġcouncil": 8244,
      "ĠTimes": 8245,
      "aws": 8246,
      "ĠChairman": 8247,
      "ĠMot": 8248,
      "Ġfoundation": 8249,
      "Ġqualified": 8250,
      "ĠIran": 8251,
      "Ġassessed": 8252,
      "ĠEL": 8253,
      "lder": 8254,
      "Ġcreates": 8255,
      "Ġconventional": 8256,
      "ĠAltern": 8257,
      "ocracy": 8258,
      "eries": 8259,
      "Ġfort": 8260,
      "Ġstring": 8261,
      "una": 8262,
      "FP": 8263,
      "Ġtro": 8264,
      "Ġmine": 8265,
      "Ġpaying": 8266,
      "Ä±": 8267,
      "irus": 8268,
      "Ġwarrant": 8269,
      "rho": 8270,
      "âĢĲ": 8271,
      "Ġbrings": 8272,
      "ansas": 8273,
      "ĠRen": 8274,
      "Ġguard": 8275,
      "TIVE": 8276,
      "ategory": 8277,
      "etary": 8278,
      "VTE": 8279,
      "lose": 8280,
      "osm": 8281,
      "mathbf": 8282,
      "Ġevening": 8283,
      "Ġchannels": 8284,
      "ĠDown": 8285,
      "ixture": 8286,
      "Ġ\\]Ċ": 8287,
      "ĠEll": 8288,
      "ldots": 8289,
      "aven": 8290,
      "Ġfly": 8291,
      "Ġcompare": 8292,
      "Ġexamine": 8293,
      "ĠWindows": 8294,
      "Of": 8295,
      "ĠKar": 8296,
      "ĠBow": 8297,
      "Ġparticles": 8298,
      "Ġthermal": 8299,
      "cdot": 8300,
      "ateral": 8301,
      "Ġlies": 8302,
      "Id": 8303,
      "Ġbag": 8304,
      "ĠLine": 8305,
      "ĠSERV": 8306,
      "Ġnode": 8307,
      "Ġsoul": 8308,
      "yan": 8309,
      "Ġdifficulty": 8310,
      "Ġthorough": 8311,
      "Ġutility": 8312,
      "Ġdemands": 8313,
      "ĠJones": 8314,
      "ĠSenior": 8315,
      "Ġbath": 8316,
      "Spec": 8317,
      "icted": 8318,
      "Ġholid": 8319,
      "Ġloans": 8320,
      "anning": 8321,
      "Ġtelevision": 8322,
      "agues": 8323,
      "à¤¤": 8324,
      "ĠHIV": 8325,
      "ĠObject": 8326,
      "ĠConsult": 8327,
      "sor": 8328,
      "orne": 8329,
      "ĠVice": 8330,
      "ĠYoung": 8331,
      "Âłc": 8332,
      "Ġoperator": 8333,
      "ostic": 8334,
      "Ġmodule": 8335,
      "ĠĠĠĠĠĠĠĠĠĠĠĠĠĠĠĠĠĠĠĠĠĠĠĠĠĠĠĠĠĠĠĠĠĠĠĠĠĠĠĠĠĠĠ": 8336,
      "âĢĤ": 8337,
      "Ġdirectors": 8338,
      "Ġfourth": 8339,
      "ĠRight": 8340,
      "ressive": 8341,
      "ĠInteg": 8342,
      "ĠRetired": 8343,
      "ĠCrit": 8344,
      "Ġsurfaces": 8345,
      "Ref": 8346,
      "reets": 8347,
      "Ġsimulation": 8348,
      "Ġrig": 8349,
      "Well": 8350,
      "ĠDu": 8351,
      "Ġmillions": 8352,
      "ĠArmy": 8353,
      "-J": 8354,
      "Ġpreferred": 8355,
      "Ġraw": 8356,
      "oz": 8357,
      "ĠBC": 8358,
      "Ġdu": 8359,
      "Ġstands": 8360,
      "Ġfighting": 8361,
      "MW": 8362,
      "vals": 8363,
      "ĠSupreme": 8364,
      "ĠLast": 8365,
      "Ġreviews": 8366,
      "QTJ": 8367,
      "ĠSaturday": 8368,
      "Ġdriven": 8369,
      "Ġsouthern": 8370,
      "arr": 8371,
      "Ġformula": 8372,
      "ĠTrade": 8373,
      "OG": 8374,
      "Ġsensitivity": 8375,
      "Ġvoting": 8376,
      "Ġstopped": 8377,
      "Ġconcentrations": 8378,
      "Ġconstructed": 8379,
      "icate": 8380,
      "ĠRisk": 8381,
      "Ġhundreds": 8382,
      ".[": 8383,
      "Ġabund": 8384,
      "Ġcognitive": 8385,
      "Ġindirect": 8386,
      "Ġ................................................................................................": 8387,
      "Ġsensor": 8388,
      "INT": 8389,
      "igenous": 8390,
      "rine": 8391,
      "omic": 8392,
      "Ġgram": 8393,
      "EAR": 8394,
      "Ġselling": 8395,
      "Ġexport": 8396,
      "Ġmanaging": 8397,
      "Ġobl": 8398,
      "ĠLind": 8399,
      "Ġcontinuing": 8400,
      "sq": 8401,
      "Ġepis": 8402,
      "Ġagreements": 8403,
      "ching": 8404,
      "Ġoutstanding": 8405,
      "Ġmoist": 8406,
      "iler": 8407,
      "Ġworry": 8408,
      "eping": 8409,
      "Ġknowing": 8410,
      "ĠBefore": 8411,
      "Ġacting": 8412,
      "annel": 8413,
      "ĠYet": 8414,
      "Ġcommunicate": 8415,
      "ĠCatholic": 8416,
      "adow": 8417,
      "Ġimagine": 8418,
      "Ġdisorders": 8419,
      "Ġmanip": 8420,
      "Ġphr": 8421,
      "ĠInsurance": 8422,
      "-v": 8423,
      "this": 8424,
      "Ġflav": 8425,
      "ĠConstruction": 8426,
      "pled": 8427,
      "ypes": 8428,
      "ĠLanguage": 8429,
      "Ġguys": 8430,
      "nger": 8431,
      "Ġmanagers": 8432,
      "Ġhappening": 8433,
      "ONE": 8434,
      "ĠToday": 8435,
      "orical": 8436,
      "Ġbridge": 8437,
      "ifer": 8438,
      "Ġinsert": 8439,
      "LIC": 8440,
      "Ġtrading": 8441,
      "Ġalb": 8442,
      "Ġwat": 8443,
      "ĠItaly": 8444,
      "ĠTel": 8445,
      "ĠContact": 8446,
      "ackson": 8447,
      "inf": 8448,
      "Ġhur": 8449,
      "Ġnewsp": 8450,
      "ĠCoast": 8451,
      "$$\\": 8452,
      "WA": 8453,
      "lers": 8454,
      "ĠAward": 8455,
      "sim": 8456,
      "cking": 8457,
      "uts": 8458,
      "ĠNC": 8459,
      "Ġdrawing": 8460,
      "ĠContractor": 8461,
      "BI": 8462,
      "Ġinh": 8463,
      "oting": 8464,
      "rooms": 8465,
      "Key": 8466,
      "Ġperforming": 8467,
      "Ġble": 8468,
      "Ġleaf": 8469,
      "Ġly": 8470,
      "Ġgraduate": 8471,
      "you": 8472,
      "igate": 8473,
      "Ġstores": 8474,
      "Ġrestrictions": 8475,
      "Ġsucceed": 8476,
      "Ġwriter": 8477,
      "ĠCell": 8478,
      "ĠMonitor": 8479,
      "Ġherself": 8480,
      "Ġtrouble": 8481,
      "Ġcolors": 8482,
      "bu": 8483,
      "ivities": 8484,
      "Ġwheel": 8485,
      "Ġfib": 8486,
      "rand": 8487,
      "/h": 8488,
      "ĠDigital": 8489,
      "ĠImprove": 8490,
      "ĠThanks": 8491,
      "Ġproducing": 8492,
      "Ġaudio": 8493,
      "Ġadoption": 8494,
      "Ġintensity": 8495,
      "Ġpandemic": 8496,
      "weight": 8497,
      "Ġthy": 8498,
      "sem": 8499,
      "ĠDATE": 8500,
      "Ġchallenging": 8501,
      "erior": 8502,
      "ĠSmall": 8503,
      "Ġagriculture": 8504,
      "asters": 8505,
      "Ġdism": 8506,
      "ĠAgain": 8507,
      "bec": 8508,
      "esis": 8509,
      "ĠBul": 8510,
      "Mod": 8511,
      "Ġexamined": 8512,
      "esides": 8513,
      "mod": 8514,
      "ĠSimilar": 8515,
      "ROM": 8516,
      "Act": 8517,
      "Ġnorthern": 8518,
      "Ġfeels": 8519,
      "Pe": 8520,
      "reate": 8521,
      "Ġmerely": 8522,
      "!\"": 8523,
      "Ġregardless": 8524,
      "Ġencouraged": 8525,
      "/D": 8526,
      "-qu": 8527,
      "|--------------|Ċ": 8528,
      "ĠThank": 8529,
      "|----------------------": 8530,
      "visory": 8531,
      "Ġfer": 8532,
      "|--------------------------------------------": 8533,
      "Ġaer": 8534,
      "Ġwelcome": 8535,
      "Ġinner": 8536,
      "ĠSO": 8537,
      "FC": 8538,
      "ĠPolice": 8539,
      "Ġangle": 8540,
      "Ġtransaction": 8541,
      "ifier": 8542,
      "Su": 8543,
      "Ġinn": 8544,
      "WS": 8545,
      "Ġbinding": 8546,
      "Ġrecover": 8547,
      "Ġvar": 8548,
      "Ġacquisition": 8549,
      "esh": 8550,
      "ĠJac": 8551,
      "Ġsuffering": 8552,
      "PP": 8553,
      "Ġcaught": 8554,
      "Ġquiet": 8555,
      "Ġboys": 8556,
      "such": 8557,
      "roke": 8558,
      "Ġsho": 8559,
      "ĠItal": 8560,
      "aintiff": 8561,
      "ĠHoly": 8562,
      "Ġspectrum": 8563,
      "secut": 8564,
      "merican": 8565,
      "Ġidentifying": 8566,
      "Ġ:**": 8567,
      "Ġemphasis": 8568,
      "ĠHot": 8569,
      "âĢ¦Ċ": 8570,
      "ĠExam": 8571,
      "ĠNations": 8572,
      "Ġages": 8573,
      "umps": 8574,
      "ĠHenry": 8575,
      "ĠResults": 8576,
      "Ġclock": 8577,
      "ĠKingdom": 8578,
      "Out": 8579,
      "Ġfan": 8580,
      "ĠInsp": 8581,
      "Ġfashion": 8582,
      "Ġkm": 8583,
      "Ġacceptable": 8584,
      "Ġfacilitate": 8585,
      "rity": 8586,
      "Ġbranch": 8587,
      "Ġyounger": 8588,
      "Ġinflamm": 8589,
      "Ġpregnancy": 8590,
      "ĠZh": 8591,
      "utation": 8592,
      "Ġdispl": 8593,
      "ials": 8594,
      "ĠNA": 8595,
      "Ġaffects": 8596,
      "vell": 8597,
      "oston": 8598,
      "Ġdip": 8599,
      "Ġdiscussions": 8600,
      "ibration": 8601,
      "$-": 8602,
      "ĠFed": 8603,
      "Ġvictims": 8604,
      "Ġscheduled": 8605,
      "everal": 8606,
      "reprene": 8607,
      "Ġneighborhood": 8608,
      "fortunately": 8609,
      "ĠCy": 8610,
      "ĠTake": 8611,
      "Ġintention": 8612,
      "Ġuniverse": 8613,
      "Ġsummar": 8614,
      "Ġsectors": 8615,
      "Ġsight": 8616,
      "tra": 8617,
      "Ġcable": 8618,
      "ruits": 8619,
      "Ġdose": 8620,
      "ĠPractice": 8621,
      "Ġod": 8622,
      "Ġsought": 8623,
      "Then": 8624,
      "Ġposted": 8625,
      "ĠTrad": 8626,
      "Ġshop": 8627,
      "Ġlessons": 8628,
      "Ġven": 8629,
      "ishment": 8630,
      "FI": 8631,
      "ricts": 8632,
      "Ġq": 8633,
      "Ġfabric": 8634,
      "Ġpin": 8635,
      "ĠEc": 8636,
      "ĠMichigan": 8637,
      "ĠAmendment": 8638,
      "liers": 8639,
      "Ġwestern": 8640,
      "ĠNever": 8641,
      "Ġcleaning": 8642,
      "ĠDise": 8643,
      "Ġvertical": 8644,
      "roud": 8645,
      "ĠKim": 8646,
      "ba": 8647,
      "Ġnerv": 8648,
      "ĠSTATE": 8649,
      "Ġgrid": 8650,
      "Ġsport": 8651,
      "Ġbeliefs": 8652,
      "odd": 8653,
      "ilde": 8654,
      "cribe": 8655,
      "Ġcab": 8656,
      "ĠAppendix": 8657,
      "Îµ": 8658,
      "Ġblocks": 8659,
      "Phone": 8660,
      "Ġacknowled": 8661,
      "ĠRate": 8662,
      "Ġaims": 8663,
      "ighter": 8664,
      "Ġlayers": 8665,
      "Ġmedication": 8666,
      "|--------------|-------|------------|Ċ": 8667,
      "after": 8668,
      "Ġtelling": 8669,
      "gage": 8670,
      "achment": 8671,
      "ĠSD": 8672,
      "door": 8673,
      "ĠEC": 8674,
      "ĠJim": 8675,
      "Ġtradition": 8676,
      "Ã¨": 8677,
      "Ġpassing": 8678,
      "Ġscenario": 8679,
      "urred": 8680,
      "REE": 8681,
      "ĠHousing": 8682,
      "Ġpsychological": 8683,
      "Ġsavings": 8684,
      "ĠHor": 8685,
      "bel": 8686,
      "ĠWeek": 8687,
      "Ġrespondents": 8688,
      "Ġordinary": 8689,
      "Ġsampling": 8690,
      "Rep": 8691,
      "Ġpurchased": 8692,
      "Ġease": 8693,
      "Ġhorse": 8694,
      "eness": 8695,
      "ĠGR": 8696,
      "Ġfacing": 8697,
      "Ġgall": 8698,
      "Ġliabilities": 8699,
      "Ġgreatly": 8700,
      "Gu": 8701,
      "ĠSav": 8702,
      "ĠShort": 8703,
      "_Ċ": 8704,
      "Ġentities": 8705,
      "Ġbeneficial": 8706,
      "Ġske": 8707,
      "Ñĸ": 8708,
      "Ġexpertise": 8709,
      "ĠPak": 8710,
      "ICAL": 8711,
      "haust": 8712,
      "ĠApple": 8713,
      "Ġdress": 8714,
      "anned": 8715,
      "onent": 8716,
      "ĠâĹ": 8717,
      "Under": 8718,
      "Ġrealized": 8719,
      "ĠPresent": 8720,
      "ĠUpd": 8721,
      "Ġinvestors": 8722,
      "Ġhorizon": 8723,
      "vin": 8724,
      "AST": 8725,
      "ĠRelations": 8726,
      "Ġconstantly": 8727,
      "asive": 8728,
      "ĠElectric": 8729,
      "ersion": 8730,
      "Ġessentially": 8731,
      "Post": 8732,
      "ĠĠĠĠĠĠĠĠĠĠĠĠĠĠĠĠĠĠĠĠĠĠĠĠĠĠĠĠĠĠĠĠĠĠĠĠĠĠĠĠ": 8733,
      "Ġenzy": 8734,
      "Ġcultiv": 8735,
      "Ġenemy": 8736,
      "uan": 8737,
      "Ġhorm": 8738,
      "Ġjurisdiction": 8739,
      "ĠMid": 8740,
      "ilation": 8741,
      "Ġcolour": 8742,
      "Ġbringing": 8743,
      "ĠBrazil": 8744,
      "Ġtips": 8745,
      "Ġlung": 8746,
      "ulative": 8747,
      "zer": 8748,
      "Ġcomfortable": 8749,
      "ĠGas": 8750,
      "Ġartists": 8751,
      "Ġmaxim": 8752,
      "Ġbrow": 8753,
      "-cent": 8754,
      "Ġproc": 8755,
      "Ġstead": 8756,
      "Ġfinds": 8757,
      "Ġsessions": 8758,
      "ĠTrib": 8759,
      "Ġheating": 8760,
      "Ġacceler": 8761,
      "Ġscreening": 8762,
      "PD": 8763,
      "Ġreceipt": 8764,
      "Ġdecreased": 8765,
      ".................................": 8766,
      "Ġrecording": 8767,
      "Ġseeds": 8768,
      "Î¹": 8769,
      "ĠTeacher": 8770,
      "Ġinitially": 8771,
      "Ġfasc": 8772,
      "/F": 8773,
      "Ġaqu": 8774,
      "retion": 8775,
      "Ġwage": 8776,
      "obby": 8777,
      "criptions": 8778,
      "Ġdisability": 8779,
      "Ġserves": 8780,
      "Ġdiscrimination": 8781,
      "Ġcorrectly": 8782,
      "ĠCast": 8783,
      "Ġcopies": 8784,
      "Ġturb": 8785,
      "ĠProm": 8786,
      "ĠDefense": 8787,
      "Ġtotally": 8788,
      "Ġdevelopments": 8789,
      "Ġincred": 8790,
      "Ġoriginally": 8791,
      "ĠHard": 8792,
      "Every": 8793,
      "----------------------------------------------------------------": 8794,
      "GS": 8795,
      "ellite": 8796,
      "ĠIllinois": 8797,
      "Ġdetected": 8798,
      "Ġ(*": 8799,
      "abeth": 8800,
      "ĠStrateg": 8801,
      "orry": 8802,
      "raq": 8803,
      "ĠSwed": 8804,
      "Ġturning": 8805,
      "Ġclassified": 8806,
      "Ġstruggle": 8807,
      "owa": 8808,
      "Ġpig": 8809,
      "Ġnaturally": 8810,
      "Ġadjacent": 8811,
      "Ġarray": 8812,
      "Ġhunt": 8813,
      "ORD": 8814,
      "ĠKent": 8815,
      "Ġwindows": 8816,
      "Ġdeclared": 8817,
      "ĠFinal": 8818,
      "Ġarmy": 8819,
      "anna": 8820,
      "Ġchemicals": 8821,
      "ĠParent": 8822,
      "ĠMath": 8823,
      "Ġath": 8824,
      "Ġworst": 8825,
      "ĠCoord": 8826,
      "Ġlaunch": 8827,
      "Ġtaste": 8828,
      "infty": 8829,
      "ourage": 8830,
      "Ġevaluated": 8831,
      "wan": 8832,
      "Ġhereby": 8833,
      "?âĢĿ": 8834,
      "Ġamazing": 8835,
      "Ġvector": 8836,
      "Ġ...Ċ": 8837,
      "reens": 8838,
      "ĠPrior": 8839,
      "ĠMic": 8840,
      "arters": 8841,
      "icide": 8842,
      "ĠTX": 8843,
      "ĠLatin": 8844,
      "Ġfewer": 8845,
      "Ġassembly": 8846,
      "ĠLess": 8847,
      "Ġboundaries": 8848,
      "Ġstronger": 8849,
      "Ġlogic": 8850,
      "Ġinitiative": 8851,
      "Ġtempor": 8852,
      "Ġrecon": 8853,
      "Ġhence": 8854,
      "|-----|-----": 8855,
      ".d": 8856,
      "Ġthesis": 8857,
      "Ġprol": 8858,
      "Ġinvolvement": 8859,
      "ÏĦ": 8860,
      "Ġcertificate": 8861,
      "ĠRoyal": 8862,
      "enger": 8863,
      "Ġpropag": 8864,
      "fast": 8865,
      "Ġtransformation": 8866,
      "âĸ": 8867,
      "email": 8868,
      "eps": 8869,
      "Ġspin": 8870,
      "Ġtheme": 8871,
      "Ġrear": 8872,
      "alog": 8873,
      "ĠWilliams": 8874,
      "uing": 8875,
      "ĠNeed": 8876,
      "Ġlaid": 8877,
      "Ġinches": 8878,
      "Inter": 8879,
      "Ġarguments": 8880,
      "ascular": 8881,
      "Ġappointment": 8882,
      "ARE": 8883,
      "ĠMonth": 8884,
      "vity": 8885,
      "oul": 8886,
      "ĠPrice": 8887,
      "********": 8888,
      "Ġinsect": 8889,
      "ĠThursday": 8890,
      "Ġpurs": 8891,
      "ĠDar": 8892,
      "ĠSem": 8893,
      "ĠStation": 8894,
      "pass": 8895,
      "rue": 8896,
      "Ġphosph": 8897,
      "Ġcomplexity": 8898,
      "zing": 8899,
      "Ġdeemed": 8900,
      "TIM": 8901,
      "mediate": 8902,
      "Ġarrangements": 8903,
      "Ġproductivity": 8904,
      "Ġrely": 8905,
      "ĠMajor": 8906,
      "Ġtrials": 8907,
      "ĠPlay": 8908,
      "Ġmoves": 8909,
      "Ġempty": 8910,
      "aft": 8911,
      "ĠENG": 8912,
      "Ġinnovative": 8913,
      "Rem": 8914,
      "ĠEastern": 8915,
      "ĠWord": 8916,
      "Ġrecommendation": 8917,
      "Âłm": 8918,
      "ĠSchedule": 8919,
      "Ġsky": 8920,
      "ĠRetrieved": 8921,
      "TP": 8922,
      "Ġconserv": 8923,
      "Ġrepresenting": 8924,
      "ĠCreat": 8925,
      "Ġsmoke": 8926,
      "linary": 8927,
      "Ġroads": 8928,
      "ĠSummary": 8929,
      "Ġwidth": 8930,
      "utory": 8931,
      "Ġdischarge": 8932,
      "ĠFile": 8933,
      "ĠSpirit": 8934,
      "'S": 8935,
      "FER": 8936,
      "Ġdoctors": 8937,
      "Ġbasically": 8938,
      "ori": 8939,
      "ĠPER": 8940,
      "Data": 8941,
      "etal": 8942,
      "ideo": 8943,
      "GO": 8944,
      "icular": 8945,
      "iginal": 8946,
      "Ġveloc": 8947,
      "Just": 8948,
      "Ġthread": 8949,
      "urse": 8950,
      "riv": 8951,
      "race": 8952,
      "Ġobservation": 8953,
      "Ġcompounds": 8954,
      "wa": 8955,
      "ĠCompl": 8956,
      "Ġhall": 8957,
      "Ġassumptions": 8958,
      "inction": 8959,
      "sm": 8960,
      "Ġ________________________": 8961,
      "Disc": 8962,
      "Inc": 8963,
      "ĠEarly": 8964,
      "MENTS": 8965,
      "Ġlaun": 8966,
      "ĠRule": 8967,
      "sen": 8968,
      "orrect": 8969,
      "Ġeggs": 8970,
      "BR": 8971,
      "ĠBa": 8972,
      "Ġordered": 8973,
      "ndrome": 8974,
      "ĠClerk": 8975,
      "erred": 8976,
      "Ġfilms": 8977,
      "awa": 8978,
      "Ġreward": 8979,
      "mph": 8980,
      "Ġartist": 8981,
      "bles": 8982,
      "theless": 8983,
      "iï¬ģ": 8984,
      "Ġrequiring": 8985,
      "Min": 8986,
      "Ġneur": 8987,
      "Ġdecade": 8988,
      "Ġsimult": 8989,
      "ented": 8990,
      "uzz": 8991,
      "ĠIncome": 8992,
      "Ġacquired": 8993,
      "ĠMathemat": 8994,
      "Ġlands": 8995,
      "Ġdimensions": 8996,
      "LS": 8997,
      "Ġinfections": 8998,
      "Ġcraft": 8999,
      "gical": 9000,
      "âĦ": 9001,
      "Ġmaps": 9002,
      "ĠAbout": 9003,
      "___Ċ": 9004,
      "words": 9005,
      "bre": 9006,
      "Ġcurrency": 9007,
      "ÂłThe": 9008,
      "ĠWorking": 9009,
      "ko": 9010,
      "Ġsubstit": 9011,
      "Ġfant": 9012,
      "liminary": 9013,
      "Page": 9014,
      "Ġpra": 9015,
      "Ġeditor": 9016,
      "ĠWalk": 9017,
      "Ġwine": 9018,
      "ilton": 9019,
      "ĠFar": 9020,
      "apped": 9021,
      "Ġsad": 9022,
      "Ġcrop": 9023,
      "ĠBest": 9024,
      "Ġequally": 9025,
      "Ġliteral": 9026,
      "ocy": 9027,
      "ĠCarolina": 9028,
      "VI": 9029,
      "Ġrepresentatives": 9030,
      "Ġrobust": 9031,
      "rategy": 9032,
      "Ġcovering": 9033,
      "Ġgal": 9034,
      "ulator": 9035,
      "Ġbelieves": 9036,
      "Ġera": 9037,
      "%.": 9038,
      "Ġpilot": 9039,
      "-r": 9040,
      "Ġdiscovery": 9041,
      "Ġcomputers": 9042,
      "ATH": 9043,
      "agen": 9044,
      "USE": 9045,
      "apse": 9046,
      "Ġforecast": 9047,
      "lete": 9048,
      "Ġbeat": 9049,
      "aul": 9050,
      "ANN": 9051,
      "Ġamendment": 9052,
      "riz": 9053,
      "TD": 9054,
      "gebra": 9055,
      "Ġderiv": 9056,
      "Ġneighb": 9057,
      "Ġcenters": 9058,
      "ĠJack": 9059,
      "Ms": 9060,
      "uh": 9061,
      "ĠWhich": 9062,
      "Read": 9063,
      "Ġlesson": 9064,
      "ĠAttorney": 9065,
      "ĠHim": 9066,
      "ĠTownship": 9067,
      "Ġinvestigate": 9068,
      "Ġpremium": 9069,
      "ĠTuesday": 9070,
      "XX": 9071,
[...]
