{
  "version": "1.0",
  "truncation": null,
  "padding": null,
  "added_tokens": [
    {
      "id": 0,
      "content": "<|mask|>",
      "single_word": false,
      "lstrip": false,
      "rstrip": false,
      "normalized": false,
      "special": true
    },
    {
      "id": 1,
      "content": "<|endoftext|>",
      "single_word": false,
      "lstrip": false,
      "rstrip": false,
      "normalized": false,
      "special": true
    },
    {
      "id": 2,
      "content": "<|padding|>",
      "single_word": false,
      "lstrip": false,
      "rstrip": false,
      "normalized": false,
      "special": true
    },
    {
      "id": 3,
      "content": "<|im_start|>",
      "single_word": false,
      "lstrip": false,
      "rstrip": false,
      "normalized": false,
      "special": true
    },
    {
      "id": 4,
      "content": "<|im_end|>",
      "single_word": false,
      "lstrip": false,
      "rstrip": false,
      "normalized": false,
      "special": true
    },
    {
      "id": 5,
      "content": "<|system|>",
      "single_word": false,
      "lstrip": false,
      "rstrip": false,
      "normalized": false,
      "special": true
    },
    {
      "id": 6,
      "content": "<|user|>",
      "single_word": false,
      "lstrip": false,
      "rstrip": false,
      "normalized": false,
      "special": true
    },
    {
      "id": 7,
      "content": "<|assistant|>",
      "single_word": false,
      "lstrip": false,
      "rstrip": false,
      "normalized": false,
      "special": true
    },
    {
      "id": 8,
      "content": "<think>",
      "single_word": false,
      "lstrip": false,
      "rstrip": false,
      "normalized": false,
      "special": true
    },
    {
      "id": 9,
      "content": "</think>",
      "single_word": false,
      "lstrip": false,
      "rstrip": false,
      "normalized": false,
      "special": true
    },
    {
      "id": 10,
      "content": "<tool_call>",
      "single_word": false,
      "lstrip": false,
      "rstrip": false,
      "normalized": false,
      "special": true
    },
    {
      "id": 11,
      "content": "</tool_call>",
      "single_word": false,
      "lstrip": false,
      "rstrip": false,
      "normalized": false,
      "special": true
    },
    {
      "id": 12,
      "content": "<tool_response>",
      "single_word": false,
      "lstrip": false,
      "rstrip": false,
      "normalized": false,
      "special": true
    },
    {
      "id": 13,
      "content": "</tool_response>",
      "single_word": false,
      "lstrip": false,
      "rstrip": false,
      "normalized": false,
      "special": true
    }
  ],
  "normalizer": {
    "type": "NFC"
  },
  "pre_tokenizer": {
    "type": "Sequence",
    "pretokenizers": [
      {
        "type": "Split",
        "pattern": {
          "Regex": "(?i:'s|'t|'re|'ve|'m|'ll|'d)|[^\\r\\n\\p{L}\\p{N}]?\\p{L}+|\\p{N}| ?[^\\s\\p{L}\\p{N}]+[\\r\\n]*|\\s*[\\r\\n]+|\\s+(?!\\S)|\\s+"
        },
        "behavior": "Isolated",
        "invert": false
      },
      {
        "type": "ByteLevel",
        "add_prefix_space": false,
        "trim_offsets": true,
        "use_regex": false
      }
    ]
  },
  "post_processor": null,
  "decoder": {
    "type": "ByteLevel",
    "add_prefix_space": true,
    "trim_offsets": true,
    "use_regex": true
  },
  "model": {
    "type": "BPE",
    "dropout": null,
    "unk_token": null,
    "continuing_subword_prefix": null,
    "end_of_word_suffix": null,
    "fuse_unk": false,
    "byte_fallback": false,
    "ignore_merges": false,
    "vocab": {
      "<|mask|>": 0,
      "<|endoftext|>": 1,
      "<|padding|>": 2,
      "<|im_start|>": 3,
      "<|im_end|>": 4,
      "<|system|>": 5,
      "<|user|>": 6,
      "<|assistant|>": 7,
      "<think>": 8,
      "</think>": 9,
      "<tool_call>": 10,
      "</tool_call>": 11,
      "<tool_response>": 12,
      "</tool_response>": 13,
      "!": 14,
      "\"": 15,
      "#": 16,
      "$": 17,
      "%": 18,
      "&": 19,
      "'": 20,
      "(": 21,
      ")": 22,
      "*": 23,
      "+": 24,
      ",": 25,
      "-": 26,
      ".": 27,
      "/": 28,
      "0": 29,
      "1": 30,
      "2": 31,
      "3": 32,
      "4": 33,
      "5": 34,
      "6": 35,
      "7": 36,
      "8": 37,
      "9": 38,
      ":": 39,
      ";": 40,
      "<": 41,
      "=": 42,
      ">": 43,
      "?": 44,
      "@": 45,
      "A": 46,
      "B": 47,
      "C": 48,
      "D": 49,
      "E": 50,
      "F": 51,
      "G": 52,
      "H": 53,
      "I": 54,
      "J": 55,
      "K": 56,
      "L": 57,
      "M": 58,
      "N": 59,
      "O": 60,
      "P": 61,
      "Q": 62,
      "R": 63,
      "S": 64,
      "T": 65,
      "U": 66,
      "V": 67,
      "W": 68,
      "X": 69,
      "Y": 70,
      "Z": 71,
      "[": 72,
      "\\": 73,
      "]": 74,
      "^": 75,
      "_": 76,
      "`": 77,
      "a": 78,
      "b": 79,
      "c": 80,
      "d": 81,
      "e": 82,
      "f": 83,
      "g": 84,
      "h": 85,
      "i": 86,
      "j": 87,
      "k": 88,
      "l": 89,
      "m": 90,
      "n": 91,
      "o": 92,
      "p": 93,
      "q": 94,
      "r": 95,
      "s": 96,
      "t": 97,
      "u": 98,
      "v": 99,
      "w": 100,
      "x": 101,
      "y": 102,
      "z": 103,
      "{": 104,
      "|": 105,
      "}": 106,
      "~": 107,
      "¡": 108,
      "¢": 109,
      "£": 110,
      "¤": 111,
      "¥": 112,
      "¦": 113,
      "§": 114,
      "¨": 115,
      "©": 116,
      "ª": 117,
      "«": 118,
      "¬": 119,
      "®": 120,
      "¯": 121,
      "°": 122,
      "±": 123,
      "²": 124,
      "³": 125,
      "´": 126,
      "µ": 127,
      "¶": 128,
      "·": 129,
      "¸": 130,
      "¹": 131,
      "º": 132,
      "»": 133,
      "¼": 134,
      "½": 135,
      "¾": 136,
      "¿": 137,
      "Â": 138,
      "Ã": 139,
      "Ä": 140,
      "Å": 141,
      "Æ": 142,
      "Ç": 143,
      "È": 144,
      "É": 145,
      "Ê": 146,
      "Ë": 147,
      "Ì": 148,
      "Í": 149,
      "Î": 150,
      "Ï": 151,
      "Ð": 152,
      "Ñ": 153,
      "Ò": 154,
      "Ó": 155,
      "Ô": 156,
      "Õ": 157,
      "Ö": 158,
      "×": 159,
      "Ø": 160,
      "Ù": 161,
      "Ú": 162,
      "Û": 163,
      "Ü": 164,
      "Ý": 165,
      "Þ": 166,
      "ß": 167,
      "à": 168,
      "á": 169,
      "â": 170,
      "ã": 171,
      "ä": 172,
      "å": 173,
      "æ": 174,
      "ç": 175,
      "è": 176,
      "é": 177,
      "ê": 178,
      "ë": 179,
      "ì": 180,
      "í": 181,
      "î": 182,
      "ï": 183,
      "ð": 184,
      "ó": 185,
      "ô": 186,
      "Ā": 187,
      "ā": 188,
      "Ă": 189,
      "ă": 190,
      "ą": 191,
      "ć": 192,
      "Ĉ": 193,
      "ĉ": 194,
      "Ċ": 195,
      "ċ": 196,
      "Č": 197,
      "č": 198,
      "Ď": 199,
      "ď": 200,
      "Đ": 201,
      "đ": 202,
      "Ē": 203,
      "ĕ": 204,
      "ė": 205,
      "Ę": 206,
      "ę": 207,
      "Ě": 208,
      "ě": 209,
      "Ĝ": 210,
      "Ğ": 211,
      "ğ": 212,
      "Ġ": 213,
      "ġ": 214,
      "Ģ": 215,
      "ģ": 216,
      "Ĥ": 217,
      "ĥ": 218,
      "Ħ": 219,
      "ħ": 220,
      "Ĩ": 221,
      "ĩ": 222,
      "Ī": 223,
      "ī": 224,
      "Ĭ": 225,
      "ĭ": 226,
      "Į": 227,
      "į": 228,
      "İ": 229,
      "ı": 230,
      "Ĳ": 231,
      "ĳ": 232,
      "Ĵ": 233,
      "ĵ": 234,
      "Ķ": 235,
      "ķ": 236,
      "ĸ": 237,
      "Ĺ": 238,
      "ĺ": 239,
      "Ļ": 240,
      "ļ": 241,
      "Ľ": 242,
      "ľ": 243,
      "Ŀ": 244,
      "ŀ": 245,
      "Ł": 246,
      "ł": 247,
      "Ń": 248,
      "Ġt": 249,
      "Ġa": 250,
      "in": 251,
      "he": 252,
      "ĠĠ": 253,
      "re": 254,
      "on": 255,
      "er": 256,
      "Ġthe": 257,
      "at": 258,
      "Ġs": 259,
      "Ġo": 260,
      "en": 261,
      "Ġc": 262,
      "es": 263,
      "Ġw": 264,
      "nd": 265,
      "it": 266,
      "or": 267,
      "is": 268,
      "al": 269,
      "Ġp": 270,
      "ing": 271,
      "Ġf": 272,
      "an": 273,
      "ed": 274,
      "Ġb": 275,
      "ou": 276,
      "ar": 277,
      "Ġin": 278,
      "Ġof": 279,
      "Ġm": 280,
      "Ġand": 281,
      "ion": 282,
      "ic": 283,
      "Ġd": 284,
      "Ġto": 285,
      "ĠĠĠĠ": 286,
      "le": 287,
      "ro": 288,
      "as": 289,
      "ent": 290,
      "Ġh": 291,
      "Ġth": 292,
      "ct": 293,
      "Ġe": 294,
      "Ġre": 295,
      "el": 296,
      "om": 297,
      "il": 298,
      "st": 299,
      "Ġl": 300,
      "Ġn": 301,
      "et": 302,
      "im": 303,
      "ve": 304,
      "ol": 305,
      "ation": 306,
      "Ġg": 307,
      "id": 308,
      "ĠT": 309,
      "se": 310,
      "Ġis": 311,
      "ur": 312,
      "ut": 313,
      "ra": 314,
      "ly": 315,
      "ce": 316,
      "ot": 317,
      "âĢ": 318,
      "ch": 319,
      "ow": 320,
      "ig": 321,
      "Ġbe": 322,
      "Ġu": 323,
      "Ġfor": 324,
      "Ġst": 325,
      "Ġy": 326,
      "ĠA": 327,
      "ver": 328,
      "am": 329,
      "ĠĠĠ": 330,
      "ĠS": 331,
      "Ġon": 332,
      "ul": 333,
      "ir": 334,
      "Ġthat": 335,
      "ĠI": 336,
      "ĠC": 337,
      "ay": 338,
      "if": 339,
      "ith": 340,
      "ad": 341,
      "Ġcon": 342,
      "Ġyou": 343,
      "Ġas": 344,
      "Ġpro": 345,
      "her": 346,
      "od": 347,
      "Ġwith": 348,
      "ter": 349,
      "ĠĠĠĠĠĠĠĠ": 350,
      "Ġan": 351,
      "Ġor": 352,
      "Ġwh": 353,
      "Ġit": 354,
      "ment": 355,
      "Ġare": 356,
      "Ġal": 357,
      "ge": 358,
      "ess": 359,
      "ist": 360,
      "Ġex": 361,
      "Ġ(": 362,
      "ers": 363,
      "Ġde": 364,
      "ate": 365,
      "ab": 366,
      "ies": 367,
      "op": 368,
      "ĠM": 369,
      "th": 370,
      "ect": 371,
      "res": 372,
      "us": 373,
      "ĠP": 374,
      "ĠThe": 375,
      "Ġcom": 376,
      "iv": 377,
      "est": 378,
      "um": 379,
      "ity": 380,
      "Ġhe": 381,
      "qu": 382,
      "Ġv": 383,
      "ac": 384,
      "ill": 385,
      "ĠB": 386,
      "ore": 387,
      "em": 388,
      "Ġwe": 389,
      "Ġsu": 390,
      "pp": 391,
      "os": 392,
      "ke": 393,
      "and": 394,
      "rom": 395,
      "nt": 396,
      "ld": 397,
      "ort": 398,
      "ain": 399,
      "ant": 400,
      "ive": 401,
      "igh": 402,
      "oc": 403,
      "ĠH": 404,
      "ĠW": 405,
      "ial": 406,
      "Ġch": 407,
      "Ġby": 408,
      "Ġr": 409,
      "ud": 410,
      "ĠE": 411,
      "ĠĠĠĠĠĠĠ": 412,
      "Ġcan": 413,
      "âĢĻ": 414,
      "Ġat": 415,
      "un": 416,
      "Ġne": 417,
      "Ġha": 418,
      "ĠD": 419,
      "--": 420,
      "ure": 421,
      "Ġle": 422,
      "ĠF": 423,
      "Ġse": 424,
      "ĠR": 425,
      "Ġfrom": 426,
      "Ġen": 427,
      "ri": 428,
      "pe": 429,
      "ical": 430,
      "art": 431,
      "og": 432,
      "Ġwas": 433,
      "pt": 434,
      "ions": 435,
      "pl": 436,
      "rou": 437,
      "Ġnot": 438,
      "ĠN": 439,
      "Ġsh": 440,
      "Ġim": 441,
      "ight": 442,
      "Ġ=": 443,
      "out": 444,
      "ĊĠĠĠĠĠĠĠ": 445,
      "all": 446,
      "ĠL": 447,
      "Ġthis": 448,
      "ĠG": 449,
      "Ġab": 450,
      "ag": 451,
      "red": 452,
      "per": 453,
      "Ġhave": 454,
      "Ġwor": 455,
      "ĠâĢ": 456,
      "gh": 457,
      "our": 458,
      "ine": 459,
      "iz": 460,
      "Ġint": 461,
      "ome": 462,
      "ĊĠĠĠĠĠĠĠĠ": 463,
      "ust": 464,
      "Ġus": 465,
      "Ġyour": 466,
      "ould": 467,
      "act": 468,
      "ĊĠĠĠ": 469,
      "age": 470,
      "ost": 471,
      "Ġpl": 472,
      "Ġ\"": 473,
      "ard": 474,
      "ell": 475,
      "ther": 476,
      "Ġtheir": 477,
      "ult": 478,
      "elf": 479,
      "ated": 480,
      "ff": 481,
      "ich": 482,
      "end": 483,
      "ans": 484,
      "ous": 485,
      "ide": 486,
      "ru": 487,
      "ations": 488,
      "ĠO": 489,
      "Ġad": 490,
      "ak": 491,
      "Ġwhe": 492,
      "du": 493,
      "cl": 494,
      "Ġcont": 495,
      "Ġres": 496,
      "ast": 497,
      "Ġk": 498,
      "Ġthey": 499,
      "Ġcomp": 500,
      "The": 501,
      "ib": 502,
      "'s": 503,
      "orm": 504,
      "ip": 505,
      "cc": 506,
      "Ġdis": 507,
      "Ġall": 508,
      "ap": 509,
      "ame": 510,
      "ĠU": 511,
      "able": 512,
      "ong": 513,
      "ear": 514,
      "ere": 515,
      "ie": 516,
      "ass": 517,
      "Ġimp": 518,
      "are": 519,
      "Ġwill": 520,
      "ance": 521,
      "ĠTh": 522,
      "ind": 523,
      "Ġwhich": 524,
      "ood": 525,
      "ary": 526,
      "ĠJ": 527,
      "ual": 528,
      "vel": 529,
      "ĠIn": 530,
      "ep": 531,
      "ence": 532,
      "Ġdo": 533,
      "one": 534,
      "ks": 535,
      "Ġcl": 536,
      "Ġmore": 537,
      "ry": 538,
      "ia": 539,
      "Ġte": 540,
      "Ġj": 541,
      "ign": 542,
      "ue": 543,
      "ents": 544,
      "reat": 545,
      "Ġme": 546,
      "Ġother": 547,
      "Ġun": 548,
      "ile": 549,
      "Ġhas": 550,
      "ach": 551,
      "Ġman": 552,
      "ime": 553,
      "ction": 554,
      "ild": 555,
      "so": 556,
      "ress": 557,
      "ces": 558,
      "Ġar": 559,
      "Ġabout": 560,
      "Ġbut": 561,
      "av": 562,
      "Ġapp": 563,
      "Ġper": 564,
      "oo": 565,
      "ice": 566,
      "ition": 567,
      "ater": 568,
      "ely": 569,
      "âĢĿ": 570,
      "Ġsp": 571,
      "ake": 572,
      "ase": 573,
      "Ġev": 574,
      "Ġout": 575,
      "ors": 576,
      "ack": 577,
      "ens": 578,
      "Ġone": 579,
      "very": 580,
      "form": 581,
      "Ġif": 582,
      "----": 583,
      "ory": 584,
      "Ġso": 585,
      "ord": 586,
      "ace": 587,
      "int": 588,
      "Ġwere": 589,
      "ber": 590,
      "nder": 591,
      ").": 592,
      "Ġli": 593,
      "Ġalso": 594,
      "ount": 595,
      "Ġpart": 596,
      "Ġcomm": 597,
      "Ġthem": 598,
      "ose": 599,
      "au": 600,
      "ang": 601,
      "ci": 602,
      "Ġstud": 603,
      "con": 604,
      "rit": 605,
      "ire": 606,
      "Ġpe": 607,
      "ub": 608,
      "now": 609,
      "Ġqu": 610,
      "Ġup": 611,
      "Ġsy": 612,
      "ings": 613,
      "Ġwho": 614,
      "Ġinto": 615,
      "ĠâĢľ": 616,
      "ound": 617,
      "ish": 618,
      "Ġpre": 619,
      "Ġthese": 620,
      "Ġits": 621,
      "ĠSt": 622,
      "olog": 623,
      "iff": 624,
      "pec": 625,
      "ĊĠĠĠĠĠĠĠĠĠĠĠ": 626,
      "rough": 627,
      "ric": 628,
      "Ġfe": 629,
      "Ġbec": 630,
      "Ġsome": 631,
      "Ġtra": 632,
      "ail": 633,
      "Ġ'": 634,
      "Ġhow": 635,
      "Ġself": 636,
      "ree": 637,
      "Ġind": 638,
      "ities": 639,
      "),": 640,
      "king": 641,
      "Ġwhen": 642,
      "ays": 643,
      "ph": 644,
      "vers": 645,
      "Ġem": 646,
      "Ġhis": 647,
      "Ġro": 648,
      "ific": 649,
      "Ġour": 650,
      "Ġmay": 651,
      "Ġtime": 652,
      "Ġunder": 653,
      "ĠIt": 654,
      "ments": 655,
      "ĠK": 656,
      "ates": 657,
      "ople": 658,
      "ne": 659,
      "ite": 660,
      "Ġcol": 661,
      "Ġthere": 662,
      "Ġbet": 663,
      "urn": 664,
      "cre": 665,
      "ĠThis": 666,
      "Ġthan": 667,
      "ough": 668,
      "ys": 669,
      "Ġdiff": 670,
      "ating": 671,
      "ob": 672,
      "te": 673,
      "we": 674,
      "ĠCh": 675,
      "ath": 676,
      "ject": 677,
      "Ġtr": 678,
      "ally": 679,
      "low": 680,
      "erv": 681,
      "Ġgo": 682,
      "ms": 683,
      "Ġcons": 684,
      "Ġag": 685,
      "Ġra": 686,
      "Ġover": 687,
      "lect": 688,
      "Ġrec": 689,
      "xt": 690,
      "Ġpr": 691,
      "ple": 692,
      "tern": 693,
      "ian": 694,
      "Ġacc": 695,
      "Ġknow": 696,
      "cess": 697,
      "Ġpeople": 698,
      "Ġlike": 699,
      "ove": 700,
      "Ġhel": 701,
      "Ġact": 702,
      "ata": 703,
      "ons": 704,
      "Ġdes": 705,
      "lic": 706,
      "clud": 707,
      "ious": 708,
      "##": 709,
      "Ġyear": 710,
      "arn": 711,
      "Ġsuch": 712,
      "Ġrel": 713,
      "ĠV": 714,
      "ĠY": 715,
      "Ġbeen": 716,
      "row": 717,
      "ef": 718,
      "Ġuse": 719,
      "ren": 720,
      "Ġhelp": 721,
      "Ġnew": 722,
      "get": 723,
      "):": 724,
      "alth": 725,
      "irst": 726,
      "ert": 727,
      "Ġ-": 728,
      "Ġwhat": 729,
      "ause": 730,
      "eth": 731,
      "les": 732,
      "Ġwould": 733,
      "Ġneed": 734,
      "Ġthrough": 735,
      "ful": 736,
      "stem": 737,
      "uring": 738,
      "round": 739,
      "Ġsa": 740,
      "Ġam": 741,
      "Ġeff": 742,
      "Ġwork": 743,
      "ics": 744,
      "velop": 745,
      "ov": 746,
      "Ġany": 747,
      "ool": 748,
      "Ġimport": 749,
      "Ġdef": 750,
      "Ġbl": 751,
      "ular": 752,
      "ures": 753,
      "Ġass": 754,
      "Ġspec": 755,
      "Ġgen": 756,
      "Ġtw": 757,
      "Ġhad": 758,
      "rib": 759,
      "mer": 760,
      "ll": 761,
      "Ġinclud": 762,
      "ced": 763,
      "Ġoff": 764,
      "Ġmost": 765,
      "ise": 766,
      "hed": 767,
      "self": 768,
      "Ġprov": 769,
      "port": 770,
      "iss": 771,
      "ract": 772,
      "ange": 773,
      "Ġph": 774,
      "ict": 775,
      "Ġreg": 776,
      "ational": 777,
      "als": 778,
      "Ġdiffere": 779,
      "ility": 780,
      "Ġac": 781,
      "pect": 782,
      "oss": 783,
      "Ġno": 784,
      "In": 785,
      "oth": 786,
      "ook": 787,
      "ative": 788,
      "ark": 789,
      "old": 790,
      "Ġob": 791,
      "hen": 792,
      "Ġprodu": 793,
      "Ġinv": 794,
      "Ġmod": 795,
      "Ġdevelop": 796,
      "Ġmany": 797,
      "Ġdi": 798,
      "Ġrem": 799,
      "Ġadd": 800,
      "Ġused": 801,
      "Ġonly": 802,
      "Ġsc": 803,
      "fter": 804,
      "Ġfirst": 805,
      "ween": 806,
      "ĠUn": 807,
      "Ġchild": 808,
      "ible": 809,
      "ten": 810,
      "ram": 811,
      "uc": 812,
      "ĠâĢĵ": 813,
      "Ġsystem": 814,
      "arch": 815,
      "Ġatt": 816,
      "Ġget": 817,
      "ased": 818,
      "Ġinst": 819,
      "ower": 820,
      "com": 821,
      "cept": 822,
      "Ġbetween": 823,
      "Ġtwo": 824,
      "**": 825,
      "Ġret": 826,
      "ife": 827,
      "chn": 828,
      "Ġfl": 829,
      "erm": 830,
      "Ġinf": 831,
      "Ġlearn": 832,
      "ize": 833,
      "Ġwhere": 834,
      "Ġsur": 835,
      "wn": 836,
      "Ġsub": 837,
      "Ġexam": 838,
      "its": 839,
      "Ġinter": 840,
      "Ġpo": 841,
      "own": 842,
      "ew": 843,
      "ond": 844,
      "Ġpers": 845,
      "ts": 846,
      "Ġtrans": 847,
      "ps": 848,
      "hes": 849,
      "Ġpol": 850,
      "ble": 851,
      "Ġexper": 852,
      "Ġcould": 853,
      "Ġco": 854,
      "Ġsupp": 855,
      "ss": 856,
      "ution": 857,
      "Ġnum": 858,
      "ting": 859,
      "ng": 860,
      "Ġhealth": 861,
      "Ġsm": 862,
      "ty": 863,
      "ural": 864,
      "Ġshould": 865,
      "ern": 866,
      "gan": 867,
      "Ġstr": 868,
      "ever": 869,
      "cy": 870,
      "Ġher": 871,
      "ues": 872,
      "Ġwell": 873,
      "Ġbu": 874,
      "ily": 875,
      "stand": 876,
      "ident": 877,
      "erg": 878,
      "oci": 879,
      "Ġty": 880,
      "ines": 881,
      "ied": 882,
      "Ġval": 883,
      "Ġpres": 884,
      "ex": 885,
      "Ġexpl": 886,
      "__": 887,
      "Ġvar": 888,
      "fore": 889,
      "Ġrese": 890,
      "aking": 891,
      "Ġsim": 892,
      "Ġdifferent": 893,
      "Ġevery": 894,
      "ives": 895,
      "ology": 896,
      "ink": 897,
      "ick": 898,
      "Ġke": 899,
      "ade": 900,
      "Ġhigh": 901,
      "Ġworld": 902,
      "ature": 903,
      "Ġ#": 904,
      "Ġeven": 905,
      "ĠHe": 906,
      "Ġform": 907,
      "ists": 908,
      "aw": 909,
      "Ġwater": 910,
      "Ġsign": 911,
      "Ġjust": 912,
      "--------": 913,
      "ants": 914,
      "ism": 915,
      "Ġmake": 916,
      "vent": 917,
      "Ġexp": 918,
      "oy": 919,
      "',": 920,
      "ness": 921,
      "uch": 922,
      "ft": 923,
      "ins": 924,
      "iew": 925,
      "Ġyears": 926,
      "Ġref": 927,
      "ds": 928,
      "Ġset": 929,
      "Ġ[": 930,
      "Ġcommun": 931,
      "Ġcre": 932,
      "ck": 933,
      "Ġdisc": 934,
      "arg": 935,
      "Ġtechn": 936,
      "Ġdata": 937,
      "chool": 938,
      "ĠRe": 939,
      "ices": 940,
      "Ġrequ": 941,
      "ĊĠĠĠĠĠĠĠĠĠĠĠĠĠĠĠĠ": 942,
      "Ġcall": 943,
      "ically": 944,
      "Ġhum": 945,
      "other": 946,
      "..": 947,
      "ax": 948,
      "ential": 949,
      "Ġed": 950,
      "ars": 951,
      "Ġgra": 952,
      "iel": 953,
      "Ġmy": 954,
      "Ġmed": 955,
      "ward": 956,
      "ited": 957,
      "ruct": 958,
      "hat": 959,
      "Ġsee": 960,
      "Ġdet": 961,
      "Ġthen": 962,
      "Ġresult": 963,
      "Ġthose": 964,
      "ually": 965,
      "ages": 966,
      "Ġway": 967,
      "Ġeach": 968,
      "formation": 969,
      "Ġins": 970,
      "hip": 971,
      "Ġbecause": 972,
      "ection": 973,
      "Ġeffect": 974,
      "Ġbel": 975,
      "Ġwhile": 976,
      "Ġprocess": 977,
      "Ġduring": 978,
      "'t": 979,
      "Ġfound": 980,
      "Ġart": 981,
      "Ġcount": 982,
      "Ġlong": 983,
      "Ġpat": 984,
      "Ġdec": 985,
      "Ġfol": 986,
      "Ġafter": 987,
      "Ġgener": 988,
      "ron": 989,
      "Ġext": 990,
      "arm": 991,
      "meric": 992,
      "Ġcent": 993,
      "ety": 994,
      "ands": 995,
      "Ġincre": 996,
      "()": 997,
      "Ġloc": 998,
      "\",": 999,
      "Ġreturn": 1000,
      "ĊĊĠĠĠ": 1001,
      "ized": 1002,
      "Ġdist": 1003,
      "led": 1004,
      "Ġprog": 1005,
      "iron": 1006,
      "ient": 1007,
      "Ġsk": 1008,
      "Ġread": 1009,
      "Ġent": 1010,
      "imes": 1011,
      "Ġusing": 1012,
      "Ġpartic": 1013,
      "Ġpub": 1014,
      "de": 1015,
      "arly": 1016,
      "Ġca": 1017,
      "Ġcur": 1018,
      "Ġlead": 1019,
      "Ġaut": 1020,
      "Ġrep": 1021,
      "els": 1022,
      "Ġhist": 1023,
      "Ġfact": 1024,
      "Ġtest": 1025,
      "Ġlife": 1026,
      "Ġcomple": 1027,
      "Ġfam": 1028,
      "ĠAs": 1029,
      "ivid": 1030,
      "ivers": 1031,
      "Ġvery": 1032,
      "Ġbeing": 1033,
      "Ġfun": 1034,
      "Ġown": 1035,
      "ning": 1036,
      "read": 1037,
      "Ġshe": 1038,
      "Ġfind": 1039,
      "ody": 1040,
      "Ġunderstand": 1041,
      "iqu": 1042,
      "ĠWe": 1043,
      "ĊĠĠĠĠĠĠĠĠĠĠĠĠĠĠĠ": 1044,
      "Ġright": 1045,
      "ases": 1046,
      "cent": 1047,
      "ork": 1048,
      "ĠAmeric": 1049,
      "ĠPro": 1050,
      "Ġresp": 1051,
      "Ġperson": 1052,
      "Ġback": 1053,
      "gg": 1054,
      "Ġstudents": 1055,
      "eng": 1056,
      "Ġdep": 1057,
      "ved": 1058,
      "Ġboth": 1059,
      "ather": 1060,
      "ality": 1061,
      "ĠAl": 1062,
      "Ġfollow": 1063,
      "Ġwrit": 1064,
      "ĠFor": 1065,
      "ĠThey": 1066,
      "Ġimportant": 1067,
      "ĠCon": 1068,
      "Ġdoes": 1069,
      "ĠHow": 1070,
      "Ġgl": 1071,
      "Ġgrow": 1072,
      "Ġcar": 1073,
      "ock": 1074,
      "put": 1075,
      "Ġmin": 1076,
      "tle": 1077,
      "ĠCom": 1078,
      "Th": 1079,
      "Ġmuch": 1080,
      "dition": 1081,
      "Ġmain": 1082,
      "Ġconf": 1083,
      "viron": 1084,
      "ix": 1085,
      "Ġche": 1086,
      "Ġappro": 1087,
      "Ġmon": 1088,
      "Ġbefore": 1089,
      "\"\"": 1090,
      "ĠIf": 1091,
      "par": 1092,
      "Ġinformation": 1093,
      "Ġsom": 1094,
      "Ġgrou": 1095,
      "ves": 1096,
      "Ġsol": 1097,
      "Ġsci": 1098,
      "Ġel": 1099,
      "ving": 1100,
      "inal": 1101,
      "Ġproble": 1102,
      "Ġlevel": 1103,
      "ional": 1104,
      "Ġstudy": 1105,
      "Ġgreat": 1106,
      "up": 1107,
      "any": 1108,
      "Ġend": 1109,
      "Ġav": 1110,
      "Ġfood": 1111,
      "Ġexperi": 1112,
      "ĊĊ": 1113,
      "ĠAn": 1114,
      "nce": 1115,
      "io": 1116,
      "Ġstart": 1117,
      "ale": 1118,
      "Ġchildren": 1119,
      "Ġgood": 1120,
      "Ġmight": 1121,
      "Ġschool": 1122,
      "eg": 1123,
      "Ġwithin": 1124,
      "Ġclass": 1125,
      "Ġoften": 1126,
      "Ġaround": 1127,
      "uss": 1128,
      "ted": 1129,
      "Ġcor": 1130,
      "ave": 1131,
      "Ġmade": 1132,
      "ering": 1133,
      "Ġsaid": 1134,
      "Ġshow": 1135,
      "Ġpop": 1136,
      "vern": 1137,
      "to": 1138,
      "Ġsame": 1139,
      ".,": 1140,
      "Ġpract": 1141,
      "und": 1142,
      "ute": 1143,
      "Ġtoo": 1144,
      "anc": 1145,
      "Ġpower": 1146,
      "Ġlit": 1147,
      "Ġresearch": 1148,
      "Ġvis": 1149,
      "ier": 1150,
      "akes": 1151,
      "rain": 1152,
      "Ġbr": 1153,
      "Ġdesign": 1154,
      "Ġop": 1155,
      "ec": 1156,
      "rent": 1157,
      "Ġprovid": 1158,
      "Ġactiv": 1159,
      "Ġagain": 1160,
      "Ġprot": 1161,
      "Ġsmall": 1162,
      "ĠAr": 1163,
      "Ġallow": 1164,
      "Ġadv": 1165,
      "Ġmem": 1166,
      "ocial": 1167,
      "Ġmat": 1168,
      "ross": 1169,
      "itions": 1170,
      "Ġserv": 1171,
      "ets": 1172,
      "Ġcare": 1173,
      "iving": 1174,
      "Ġposs": 1175,
      "ividual": 1176,
      "pr": 1177,
      "Ġless": 1178,
      "ode": 1179,
      "Ġexample": 1180,
      ".âĢĿ": 1181,
      "air": 1182,
      "ethod": 1183,
      "Ġdown": 1184,
      "Ġtake": 1185,
      "==": 1186,
      "Ġcontin": 1187,
      "ters": 1188,
      "Ġorgan": 1189,
      "rol": 1190,
      "Ġday": 1191,
      "the": 1192,
      "irect": 1193,
      "ield": 1194,
      "ince": 1195,
      "Ġsupport": 1196,
      "vironment": 1197,
      "ital": 1198,
      "Ġcult": 1199,
      "omen": 1200,
      "Ġquest": 1201,
      "Ġhuman": 1202,
      "ĠYou": 1203,
      "app": 1204,
      "Ġtreat": 1205,
      "Ġnow": 1206,
      "ined": 1207,
      "ished": 1208,
      "Ġindividual": 1209,
      "Ġgu": 1210,
      "ared": 1211,
      "Ġstate": 1212,
      "ĠThese": 1213,
      "Ġcalled": 1214,
      "ĠInd": 1215,
      "land": 1216,
      "Ġequ": 1217,
      "val": 1218,
      "day": 1219,
      "der": 1220,
      "arge": 1221,
      "Ġpoint": 1222,
      "ergy": 1223,
      "Ġeng": 1224,
      "pro": 1225,
      "####": 1226,
      "Ġnumber": 1227,
      "tt": 1228,
      "Ġ+": 1229,
      "Ġcle": 1230,
      "Ġredu": 1231,
      "Ġbuild": 1232,
      "Ġser": 1233,
      "ization": 1234,
      "Ġplay": 1235,
      "Ġthough": 1236,
      "ral": 1237,
      "ven": 1238,
      "Ġprof": 1239,
      "Ġaw": 1240,
      "Ġris": 1241,
      "name": 1242,
      "ired": 1243,
      "ulation": 1244,
      "Ġbody": 1245,
      "ĠBut": 1246,
      "Ġdid": 1247,
      "Ġmust": 1248,
      "Ġplan": 1249,
      "ains": 1250,
      "ency": 1251,
      "Ġpos": 1252,
      "Ġbeh": 1253,
      "Ġocc": 1254,
      "raph": 1255,
      "ences": 1256,
      "hers": 1257,
      "Ġconst": 1258,
      "Ġaff": 1259,
      "Ġcour": 1260,
      "Ġest": 1261,
      "âĢĶ": 1262,
      "Ġinc": 1263,
      "Ġpot": 1264,
      "ĠSe": 1265,
      "acter": 1266,
      ".\"": 1267,
      "ources": 1268,
      "Ġhim": 1269,
      "Ġcommon": 1270,
      "ull": 1271,
      "ories": 1272,
      "ately": 1273,
      "Ġwant": 1274,
      "Ġmet": 1275,
      "erest": 1276,
      "Ġpar": 1277,
      "ense": 1278,
      "ify": 1279,
      "ered": 1280,
      "Ġident": 1281,
      "Ġincluding": 1282,
      "aterial": 1283,
      "ah": 1284,
      "rue": 1285,
      "ption": 1286,
      "Ġide": 1287,
      "Ġdise": 1288,
      "))": 1289,
      "ury": 1290,
      "ining": 1291,
      "iversity": 1292,
      "Ġthree": 1293,
      "Ġcell": 1294,
      "iven": 1295,
      "oh": 1296,
      "mon": 1297,
      "Ġpass": 1298,
      "ination": 1299,
      "Ġlet": 1300,
      "Ġtyp": 1301,
      "('": 1302,
      "py": 1303,
      "ability": 1304,
      "Ġeduc": 1305,
      "Ġiss": 1306,
      "ider": 1307,
      "line": 1308,
      "angu": 1309,
      "Ġelect": 1310,
      "ource": 1311,
      "ĠNew": 1312,
      "ĠWh": 1313,
      "ash": 1314,
      "ĠAd": 1315,
      "ids": 1316,
      "ively": 1317,
      "str": 1318,
      "ateg": 1319,
      "ĠEx": 1320,
      "ox": 1321,
      "less": 1322,
      "Ġdon": 1323,
      "ertain": 1324,
      "itive": 1325,
      "Ġsocial": 1326,
      "Ġgovern": 1327,
      "||": 1328,
      "ples": 1329,
      "ries": 1330,
      "Ġimpro": 1331,
      "conom": 1332,
      "Ġchar": 1333,
      "ead": 1334,
      "Ġanal": 1335,
      "Ġcreat": 1336,
      "lish": 1337,
      "Ġmethod": 1338,
      "Ġinvol": 1339,
      "Ġknown": 1340,
      "bers": 1341,
      "Ġreal": 1342,
      "aj": 1343,
      "Ġdel": 1344,
      "This": 1345,
      "Ġconn": 1346,
      "ĠAnd": 1347,
      "Ġess": 1348,
      "iness": 1349,
      "oun": 1350,
      "por": 1351,
      "Ġwithout": 1352,
      "Ġtem": 1353,
      "Ġenvironment": 1354,
      "ccess": 1355,
      "Ġchang": 1356,
      "Ġpublic": 1357,
      "Ġstill": 1358,
      "ner": 1359,
      "Ġchange": 1360,
      "Ġsignific": 1361,
      "Ġbetter": 1362,
      "Ġprom": 1363,
      "Ġeas": 1364,
      "ouse": 1365,
      "Ġhand": 1366,
      "tain": 1367,
      "iod": 1368,
      "Ġanother": 1369,
      "view": 1370,
      "lu": 1371,
      "ially": 1372,
      "Ġmaterial": 1373,
      "ape": 1374,
      "Ġreport": 1375,
      "Ġplace": 1376,
      "Ġlearning": 1377,
      "Ġpur": 1378,
      "ived": 1379,
      "Ġopp": 1380,
      "Ġinterest": 1381,
      "ĠThere": 1382,
      "Ġpresent": 1383,
      "Ġdr": 1384,
      "oms": 1385,
      "pos": 1386,
      "ends": 1387,
      "Ġproject": 1388,
      "uro": 1389,
      "St": 1390,
      "Ġben": 1391,
      "orn": 1392,
      "Ġsit": 1393,
      "arent": 1394,
      "Ġlist": 1395,
      "Ġbre": 1396,
      "over": 1397,
      "Ġspe": 1398,
      "Ġbelie": 1399,
      "Ġphys": 1400,
      "rodu": 1401,
      "ior": 1402,
      "Ġproduct": 1403,
      "Ġfeel": 1404,
      "Ġcap": 1405,
      "ration": 1406,
      "ĊĊĠĠĠĠĠĠĠ": 1407,
      "ills": 1408,
      "oad": 1409,
      "ĠDe": 1410,
      "cing": 1411,
      "ision": 1412,
      "ason": 1413,
      "ental": 1414,
      "li": 1415,
      "bs": 1416,
      "Ġlight": 1417,
      "Ġdevelopment": 1418,
      "Ġsym": 1419,
      "ĠHowever": 1420,
      "Ġmus": 1421,
      "be": 1422,
      "Ġimm": 1423,
      "Ġele": 1424,
      "ĠBy": 1425,
      "cond": 1426,
      "ological": 1427,
      "ĠIs": 1428,
      "ething": 1429,
      "ug": 1430,
      "ently": 1431,
      "ording": 1432,
      "ances": 1433,
      "az": 1434,
      "Ġbecome": 1435,
      "Ġenergy": 1436,
      "Ġopen": 1437,
      "Ġmean": 1438,
      "atic": 1439,
      "Ġfew": 1440,
      "hor": 1441,
      "Ġcaus": 1442,
      "Ġkeep": 1443,
      ",âĢĿ": 1444,
      "ention": 1445,
      "Ġothers": 1446,
      "Ġbest": 1447,
      "Ġfac": 1448,
      "ways": 1449,
      "Ġinclude": 1450,
      "Ġdirect": 1451,
      "from": 1452,
      "Ġ&": 1453,
      "ats": 1454,
      "Ġvari": 1455,
      "ank": 1456,
      "ium": 1457,
      "Ġvarious": 1458,
      "Ġname": 1459,
      "Ġhistory": 1460,
      "Ġcreate": 1461,
      "')": 1462,
      "Ġtop": 1463,
      "ery": 1464,
      "']": 1465,
      "outh": 1466,
      "(\"": 1467,
      "ĠEng": 1468,
      "oint": 1469,
      "Ġhapp": 1470,
      "Ġsever": 1471,
      "Ġleg": 1472,
      "ocus": 1473,
      "Ġperform": 1474,
      "Ġhome": 1475,
      "Ġproper": 1476,
      "agn": 1477,
      "Ġstand": 1478,
      "Ġet": 1479,
      "man": 1480,
      "ray": 1481,
      "Ġmove": 1482,
      "Ġamong": 1483,
      "arc": 1484,
      "Ġsomething": 1485,
      "Ġmark": 1486,
      "ected": 1487,
      "ton": 1488,
      "Ġlook": 1489,
      "Ġsaf": 1490,
      "âĢĵ": 1491,
      "Ġthings": 1492,
      "ique": 1493,
      "Ġchall": 1494,
      "ified": 1495,
      "Ġmeas": 1496,
      "Ġlangu": 1497,
      "Ġfin": 1498,
      "Ġtype": 1499,
      "atch": 1500,
      "ames": 1501,
      "ĠRes": 1502,
      "ians": 1503,
      "Ġlarge": 1504,
      "ator": 1505,
      "Ġsl": 1506,
      "Ġthink": 1507,
      "Ġdesc": 1508,
      "Ġair": 1509,
      "sc": 1510,
      "ogn": 1511,
      "atural": 1512,
      "Ġbas": 1513,
      "Ġfunction": 1514,
      "erc": 1515,
      "ling": 1516,
      "ote": 1517,
      "ĠPh": 1518,
      "oring": 1519,
      "Ġagainst": 1520,
      "imate": 1521,
      "Ġlaw": 1522,
      "ients": 1523,
      "ext": 1524,
      "Ġgroup": 1525,
      "Ġoper": 1526,
      "Ġmeans": 1527,
      "here": 1528,
      "Ġrest": 1529,
      "Ġcontrol": 1530,
      "Ġdev": 1531,
      "Ġhere": 1532,
      "ograph": 1533,
      "path": 1534,
      "Ġprovide": 1535,
      "':": 1536,
      "urther": 1537,
      "ĠSh": 1538,
      "Ġparticular": 1539,
      "Ġanim": 1540,
      "Ġhy": 1541,
      "Ġseveral": 1542,
      "Ġsignificant": 1543,
      "ĠAmerican": 1544,
      "ember": 1545,
      "Ġbus": 1546,
      "ĠWhen": 1547,
      "ĠâĢĺ": 1548,
      "Ġbased": 1549,
      "arth": 1550,
      "Ġwomen": 1551,
      "eral": 1552,
      "Ġpain": 1553,
      "Ġarea": 1554,
      "me": 1555,
      "//": 1556,
      "sy": 1557,
      "rop": 1558,
      "Ġtre": 1559,
      "ards": 1560,
      "Ġfamily": 1561,
      "ots": 1562,
      "Ġpotential": 1563,
      "iver": 1564,
      "Ġdue": 1565,
      "Ġobject": 1566,
      "Ġenc": 1567,
      "err": 1568,
      "resent": 1569,
      "Ġold": 1570,
      "Ġcurrent": 1571,
      "Ġmult": 1572,
      "Ġtry": 1573,
      "Ġ:": 1574,
      "Ġprogram": 1575,
      "ortun": 1576,
      "Ġens": 1577,
      "aper": 1578,
      "Ġeconom": 1579,
      "Ġbeg": 1580,
      "Ġearly": 1581,
      "âĢľ": 1582,
      "Ġfil": 1583,
      "Ġlab": 1584,
      "Ġcal": 1585,
      "It": 1586,
      "Ġve": 1587,
      "Ġtoget": 1588,
      "Ġtogether": 1589,
      "Ġfocus": 1590,
      "Ġaccess": 1591,
      "sh": 1592,
      "Ġlast": 1593,
      "Ġunt": 1594,
      "Ġant": 1595,
      "Ġes": 1596,
      "Ġbenef": 1597,
      "['": 1598,
      "uture": 1599,
      "Ġnon": 1600,
      "def": 1601,
      "lished": 1602,
      "ĠQ": 1603,
      "Ġturn": 1604,
      "ission": 1605,
      "Ġlim": 1606,
      "Ġstruct": 1607,
      "Ġdisease": 1608,
      "br": 1609,
      "amp": 1610,
      "set": 1611,
      "ditions": 1612,
      "Ġorig": 1613,
      "ploy": 1614,
      "ajor": 1615,
      "Ġfre": 1616,
      "Ġ\"\"\"": 1617,
      "Ġrisk": 1618,
      "Ġsoci": 1619,
      "Ġfore": 1620,
      "Ġsuccess": 1621,
      "Ġmaking": 1622,
      "ĠTo": 1623,
      ",\"": 1624,
      "Ġprint": 1625,
      "ication": 1626,
      "Ġopt": 1627,
      "Ġavail": 1628,
      "Ġbi": 1629,
      "oid": 1630,
      "Ġcrit": 1631,
      "orth": 1632,
      "Ġpossible": 1633,
      "work": 1634,
      "ĠUniversity": 1635,
      "gen": 1636,
      "rist": 1637,
      "ression": 1638,
      "Ġlow": 1639,
      "Ġsay": 1640,
      "ĠSo": 1641,
      "Ġimpact": 1642,
      "Ġkey": 1643,
      "Ġcertain": 1644,
      "aut": 1645,
      "ribut": 1646,
      "Ġcr": 1647,
      "sel": 1648,
      "ĠPl": 1649,
      "As": 1650,
      "Ġbo": 1651,
      "Ġmil": 1652,
      "ĉĉ": 1653,
      "Ġperiod": 1654,
      "Ġrun": 1655,
      "min": 1656,
      "Ġscient": 1657,
      "ĠCl": 1658,
      "Ġ{": 1659,
      "Ġmill": 1660,
      "agement": 1661,
      "Ġgr": 1662,
      "Ġland": 1663,
      "idence": 1664,
      "cle": 1665,
      "Ġfri": 1666,
      "Ġblood": 1667,
      "Ġcase": 1668,
      "Ġ*": 1669,
      "Ġ.": 1670,
      "ane": 1671,
      "Ġsince": 1672,
      "hem": 1673,
      "ides": 1674,
      "Ġspecific": 1675,
      "Ġlocal": 1676,
      "Ġhead": 1677,
      "Ġpost": 1678,
      "ann": 1679,
      "Ġalong": 1680,
      "clus": 1681,
      "Ġvalue": 1682,
      "Ġorder": 1683,
      "ems": 1684,
      "----------------": 1685,
      "Ġoccur": 1686,
      "Ġcome": 1687,
      "ĠSp": 1688,
      "Ġdiscuss": 1689,
      "Ġgovernment": 1690,
      "Ġtext": 1691,
      "Ġfollowing": 1692,
      "olution": 1693,
      "ww": 1694,
      "ĠEn": 1695,
      "Ġacross": 1696,
      "Ġconc": 1697,
      "Ġwhy": 1698,
      "pre": 1699,
      "ĠĠĠĠĠĠĠĠĠĠĠĠĠĠĠĠ": 1700,
      "cer": 1701,
      "icle": 1702,
      "Ġaddition": 1703,
      "ledge": 1704,
      "Ġcost": 1705,
      "raw": 1706,
      "for": 1707,
      "Ġtimes": 1708,
      "ĠCol": 1709,
      "mit": 1710,
      "of": 1711,
      "\")": 1712,
      "ilar": 1713,
      "by": 1714,
      "ised": 1715,
      "ending": 1716,
      "Ġcomput": 1717,
      "Ġareas": 1718,
      "Ġprofess": 1719,
      "Ġhig": 1720,
      "hy": 1721,
      "Ġunderstanding": 1722,
      "use": 1723,
      "alk": 1724,
      "Ġcause": 1725,
      "Ġlik": 1726,
      "Ġable": 1727,
      "Ġtoward": 1728,
      "Ġproblem": 1729,
      "Ġter": 1730,
      "Ġsystems": 1731,
      "Ġbro": 1732,
      "Ġassoci": 1733,
      "Ġview": 1734,
      "aster": 1735,
      "Ġmajor": 1736,
      "Ġcourse": 1737,
      "ument": 1738,
      "://": 1739,
      "Ġmodel": 1740,
      "yn": 1741,
      "Ġelse": 1742,
      "Ġprevent": 1743,
      "ole": 1744,
      "Ġinvest": 1745,
      "ĠIm": 1746,
      "],": 1747,
      "ilities": 1748,
      "Ġarg": 1749,
      "ended": 1750,
      "ER": 1751,
      "Ġintern": 1752,
      "ably": 1753,
      "Ġpress": 1754,
      "Ġ==": 1755,
      "Ġhard": 1756,
      "idd": 1757,
      "Ġline": 1758,
      "ights": 1759,
      "Ġtool": 1760,
      "ooks": 1761,
      "Ġrelations": 1762,
      "not": 1763,
      "Ġspecial": 1764,
      "ones": 1765,
      "osed": 1766,
      "Ġavailable": 1767,
      "Ġconsider": 1768,
      "Ġspecies": 1769,
      "Ġcommunity": 1770,
      "Ġfuture": 1771,
      "Ġcomb": 1772,
      "Ġbehav": 1773,
      "ĠZ": 1774,
      "ggest": 1775,
      "Ġapplic": 1776,
      "What": 1777,
      "sw": 1778,
      "Ġnatural": 1779,
      "Ġplant": 1780,
      "Ġcomplex": 1781,
      "ams": 1782,
      "Ġexperience": 1783,
      "ina": 1784,
      "cul": 1785,
      "Ġlanguage": 1786,
      "though": 1787,
      "Ġrole": 1788,
      "Ġx": 1789,
      "Ġuntil": 1790,
      "Ġrele": 1791,
      "Ġrespons": 1792,
      "Ġsecond": 1793,
      "ĠUnited": 1794,
      "Ġcountry": 1795,
      "\":": 1796,
      "Ġmen": 1797,
      "Ġpolit": 1798,
      "iting": 1799,
      "face": 1800,
      "Ġrece": 1801,
      "Ġyoung": 1802,
      "Ġworks": 1803,
      "aring": 1804,
      "rag": 1805,
      "acy": 1806,
      "aps": 1807,
      "Ġalways": 1808,
      "ĠWhat": 1809,
      "aces": 1810,
      "ĠAt": 1811,
      "obal": 1812,
      "ĠOr": 1813,
      "asing": 1814,
      "ask": 1815,
      "ope": 1816,
      "Ġsuggest": 1817,
      "osp": 1818,
      "Ġexist": 1819,
      "urope": 1820,
      "data": 1821,
      "Ġlevels": 1822,
      "Ġindust": 1823,
      "icult": 1824,
      "Ġproblems": 1825,
      "izing": 1826,
      "Ġput": 1827,
      "Ġmar": 1828,
      "ained": 1829,
      "Ġstep": 1830,
      "Ġtoday": 1831,
      "Ġtechnology": 1832,
      "Ġgiven": 1833,
      "Ġstrong": 1834,
      "Ġlittle": 1835,
      "ĠGod": 1836,
      "Ġsw": 1837,
      "ĠâĢĶ": 1838,
      "Ġcir": 1839,
      "Ġcharacter": 1840,
      "Ġresults": 1841,
      "Ġrange": 1842,
      "ek": 1843,
      "istic": 1844,
      "ĠThat": 1845,
      "Ġtreatment": 1846,
      "Ġage": 1847,
      "ored": 1848,
      "reen": 1849,
      "Ġways": 1850,
      "ysis": 1851,
      "cur": 1852,
      "ths": 1853,
      "ators": 1854,
      "Ġnecess": 1855,
      "Ġobs": 1856,
      "Ġvol": 1857,
      "Ġbusiness": 1858,
      "lement": 1859,
      "Ġbook": 1860,
      "omm": 1861,
      "selves": 1862,
      "ont": 1863,
      "Ġnext": 1864,
      "ivity": 1865,
      "Ġfar": 1866,
      "Ġpercent": 1867,
      "Ġlarg": 1868,
      "Ġdeterm": 1869,
      "ik": 1870,
      "Ġflow": 1871,
      "orts": 1872,
      "Ġfour": 1873,
      "Ġdem": 1874,
      "ither": 1875,
      "Ġinflu": 1876,
      "Ġrepresent": 1877,
      "co": 1878,
      "We": 1879,
      "aging": 1880,
      "thing": 1881,
      "Ġ$": 1882,
      "orld": 1883,
      "Ġsimilar": 1884,
      "Ġeducation": 1885,
      "apt": 1886,
      "Ġshort": 1887,
      "Ġworking": 1888,
      "Ġz": 1889,
      "ables": 1890,
      "Ġchalleng": 1891,
      "Ġessential": 1892,
      "Ġpast": 1893,
      "ĠAf": 1894,
      "Ġspace": 1895,
      "Ġill": 1896,
      "Ġsing": 1897,
      "lab": 1898,
      "Ġamount": 1899,
      "Ġ**": 1900,
      "Ġfree": 1901,
      "ym": 1902,
      "etimes": 1903,
      "atures": 1904,
      "side": 1905,
      "Ġconcept": 1906,
      "ĠEurope": 1907,
      "Ġheart": 1908,
      "atory": 1909,
      "Ġwar": 1910,
      "Ġvir": 1911,
      "ured": 1912,
      "Ġlater": 1913,
      "Ġbir": 1914,
      "ĠStates": 1915,
      "Ġauthor": 1916,
      "Ġconditions": 1917,
      "Ġsays": 1918,
      "duct": 1919,
      "Ġneeds": 1920,
      "Ġwords": 1921,
      "Ġnet": 1922,
      "ĠChrist": 1923,
      "ĊĠĠĠĠĠĠĠĠĠĠĠĠĠĠĠĠĠĠĠ": 1924,
      "Ġgive": 1925,
      "ĠWith": 1926,
      "Ġinit": 1927,
      "ĠTe": 1928,
      "eter": 1929,
      "NA": 1930,
      "ĠBe": 1931,
      "une": 1932,
      "icro": 1933,
      "If": 1934,
      "Ġmov": 1935,
      "af": 1936,
      "onse": 1937,
      "Ġpaper": 1938,
      "Ġkind": 1939,
      "ĠNone": 1940,
      "vious": 1941,
      "Ġmind": 1942,
      "ires": 1943,
      "Ġimprove": 1944,
      "Ġpolic": 1945,
      "Ġey": 1946,
      "inc": 1947,
      "ule": 1948,
      "Ġresources": 1949,
      "Ġhaving": 1950,
      "Ġskills": 1951,
      "Ġfield": 1952,
      "Ġbegin": 1953,
      "Ġconsum": 1954,
      "Ġparent": 1955,
      "Ġexpect": 1956,
      "Ġcells": 1957,
      "Ġrad": 1958,
      "Ġquestion": 1959,
      "ĠOne": 1960,
      "Ġteac": 1961,
      "Ġpred": 1962,
      "Ġtradition": 1963,
      "Ġknowledge": 1964,
      "ibility": 1965,
      "``": 1966,
      "ours": 1967,
      "Ġchanges": 1968,
      "Ġappear": 1969,
      "Ġjour": 1970,
      "Ġissues": 1971,
      "Ġestab": 1972,
      "lection": 1973,
      "Ġstory": 1974,
      "ĠCan": 1975,
      "ili": 1976,
      "Ġupon": 1977,
      "Ġmot": 1978,
      "Ġconcern": 1979,
      "pecially": 1980,
      "Ġrequire": 1981,
      "ĠOn": 1982,
      "Ġrelationship": 1983,
      "Ġstrateg": 1984,
      "arget": 1985,
      "etic": 1986,
      "Ġdifficult": 1987,
      "Ġwhether": 1988,
      "ee": 1989,
      "Ġlog": 1990,
      "ening": 1991,
      "Ġtypes": 1992,
      "Ġprim": 1993,
      "Ġsens": 1994,
      "Ġask": 1995,
      "ush": 1996,
      "Ġtemper": 1997,
      "Ġenough": 1998,
      "ales": 1999,
      "Ġlikely": 2000,
      "Ġrecord": 2001,
      "iple": 2002,
      "ĠInst": 2003,
      "Ġusually": 2004,
      "ger": 2005,
      "Ġdays": 2006,
      "nal": 2007,
      "inking": 2008,
      "Ġhistor": 2009,
      "apter": 2010,
      "Ġaddress": 2011,
      "ĠSome": 2012,
      "let": 2013,
      "import": 2014,
      "ĠAll": 2015,
      "aching": 2016,
      "How": 2017,
      "chie": 2018,
      "Ġmakes": 2019,
      "Ġopportun": 2020,
      "ĠCent": 2021,
      "Ġaway": 2022,
      "...": 2023,
      "Ġnorm": 2024,
      "Ġsum": 2025,
      "Ġquestions": 2026,
      "Ġfurther": 2027,
      "====": 2028,
      "iction": 2029,
      "Ġresearc": 2030,
      "son": 2031,
      "ruction": 2032,
      "oney": 2033,
      "Ġprotect": 2034,
      "ĠUS": 2035,
      "ising": 2036,
      "omes": 2037,
      "ried": 2038,
      "Ġever": 2039,
      "cient": 2040,
      "ware": 2041,
      "Ġgoing": 2042,
      "ffic": 2043,
      "Ġdig": 2044,
      "Ġindividuals": 2045,
      "Ġleft": 2046,
      "Ġpath": 2047,
      "Ġaccount": 2048,
      "aken": 2049,
      "oot": 2050,
      "ibr": 2051,
      "ued": 2052,
      "Ġi": 2053,
      "Ġemploy": 2054,
      "type": 2055,
      "ification": 2056,
      "Ġlay": 2057,
      "Ġhigher": 2058,
      "AT": 2059,
      "Ġgrowth": 2060,
      "class": 2061,
      "Ġur": 2062,
      "Ġbig": 2063,
      "Ġ<": 2064,
      "To": 2065,
      "='": 2066,
      "Ġcentury": 2067,
      "ĠNational": 2068,
      "Ġcollect": 2069,
      "Ġfull": 2070,
      "ney": 2071,
      "Ġcountries": 2072,
      "Ġsuper": 2073,
      "._": 2074,
      "amm": 2075,
      "ĠAfric": 2076,
      "aves": 2077,
      "Ġincrease": 2078,
      "Ġsitu": 2079,
      "Ch": 2080,
      "Ġconnect": 2081,
      "rans": 2082,
      "plic": 2083,
      "Ġfund": 2084,
      "ooking": 2085,
      "An": 2086,
      "Ġsure": 2087,
      "Ġstat": 2088,
      "Ġscience": 2089,
      "Ġnever": 2090,
      "Ġrecogn": 2091,
      "erence": 2092,
      "Ġdescrib": 2093,
      "ES": 2094,
      "Ġexc": 2095,
      "Ġphysical": 2096,
      "Ġcy": 2097,
      "ĠMed": 2098,
      "ohn": 2099,
      "Ġside": 2100,
      "add": 2101,
      "reg": 2102,
      "Ġbrain": 2103,
      "Ġhowever": 2104,
      "arl": 2105,
      "Ġplants": 2106,
      "arr": 2107,
      "verse": 2108,
      "Ġdeath": 2109,
      "IN": 2110,
      "ĠBl": 2111,
      "Ġterm": 2112,
      "Ġunique": 2113,
      "Ġespecially": 2114,
      "Ġground": 2115,
      "Ġgroups": 2116,
      "Ġabove": 2117,
      "Ġevent": 2118,
      "There": 2119,
      "Ġactivities": 2120,
      "Ġleast": 2121,
      "Ġmaintain": 2122,
      "Ġthroughout": 2123,
      "Ġcontain": 2124,
      "########": 2125,
      "test": 2126,
      "most": 2127,
      "ault": 2128,
      "elling": 2129,
      "ĠFr": 2130,
      "Ġparticip": 2131,
      "agine": 2132,
      "Ġemb": 2133,
      "ilt": 2134,
      "Ġsubject": 2135,
      "Ġsound": 2136,
      "alse": 2137,
      "Ġnear": 2138,
      "Ġachie": 2139,
      "Ġpersonal": 2140,
      "edi": 2141,
      "sych": 2142,
      "utions": 2143,
      "ĠSc": 2144,
      "Ġmodern": 2145,
      "ready": 2146,
      "lying": 2147,
      "Ġaffect": 2148,
      "sequ": 2149,
      "file": 2150,
      "ON": 2151,
      "Ġpopulation": 2152,
      "Ġdam": 2153,
      "Ġstudies": 2154,
      "Ġneg": 2155,
      "Ġreally": 2156,
      "fact": 2157,
      "Ġrather": 2158,
      "ptoms": 2159,
      "Ġbecame": 2160,
      "ison": 2161,
      "Ġeffects": 2162,
      "Ġreason": 2163,
      "rug": 2164,
      "rect": 2165,
      "ils": 2166,
      "aim": 2167,
      "ites": 2168,
      "mod": 2169,
      "Ġcancer": 2170,
      "Ġquality": 2171,
      "Ġrelig": 2172,
      "Ġliter": 2173,
      "Ġnature": 2174,
      "asc": 2175,
      "Ġ`": 2176,
      "Ġpractice": 2177,
      "rel": 2178,
      "illed": 2179,
      "Ġchem": 2180,
      "Ġloss": 2181,
      "atives": 2182,
      "nces": 2183,
      "ĠBrit": 2184,
      "Ġassociated": 2185,
      "unt": 2186,
      "ises": 2187,
      "Ġpattern": 2188,
      "att": 2189,
      "For": 2190,
      "Ġbuilding": 2191,
      "issue": 2192,
      "Ġansw": 2193,
      "roll": 2194,
      "Ġstre": 2195,
      "Ġcases": 2196,
      "Ġpatients": 2197,
      "ample": 2198,
      "Ġdetail": 2199,
      "Ġsize": 2200,
      "Ġcho": 2201,
      "Ġhold": 2202,
      "Ġsomeone": 2203,
      "Ġvers": 2204,
      "Ġlower": 2205,
      "alf": 2206,
      "Ġgeneral": 2207,
      "AS": 2208,
      "Ġfactors": 2209,
      "overed": 2210,
      "enn": 2211,
      "Ġmillion": 2212,
      "Ġcomes": 2213,
      "Ġexplore": 2214,
      "opy": 2215,
      "Al": 2216,
      "Ġmeet": 2217,
      "Ġalready": 2218,
      "Ġstudent": 2219,
      "eds": 2220,
      "Ġglobal": 2221,
      "rams": 2222,
      "Ġdoc": 2223,
      "\".": 2224,
      "oman": 2225,
      "Ġword": 2226,
      "ene": 2227,
      "ok": 2228,
      "Ġsimple": 2229,
      "inary": 2230,
      "Ġregard": 2231,
      "ript": 2232,
      "Ġnut": 2233,
      "mb": 2234,
      "ID": 2235,
      "Ġintrodu": 2236,
      "Ġcity": 2237,
      "new": 2238,
      "Ġliving": 2239,
      "augh": 2240,
      "Ġsingle": 2241,
      "Ġprob": 2242,
      "iques": 2243,
      "Ġindic": 2244,
      "Ġabs": 2245,
      "Ġmembers": 2246,
      "ĠLe": 2247,
      "Ġwind": 2248,
      "verage": 2249,
      "Ġthemselves": 2250,
      "Ġmaterials": 2251,
      "])": 2252,
      "time": 2253,
      "Ġsource": 2254,
      "Ġtowards": 2255,
      "ips": 2256,
      "ĠWorld": 2257,
      "Ġphot": 2258,
      "Ġproduction": 2259,
      "Ġobserv": 2260,
      "ival": 2261,
      "Ġrespect": 2262,
      "Ġdom": 2263,
      "Ġeither": 2264,
      "Ġonce": 2265,
      "Ġseen": 2266,
      "rad": 2267,
      "Ġdeg": 2268,
      "Ġ/": 2269,
      "ĠX": 2270,
      "anced": 2271,
      "Ġthought": 2272,
      "Ġdeep": 2273,
      "ring": 2274,
      "ĠGerm": 2275,
      "ott": 2276,
      "ung": 2277,
      "leep": 2278,
      "Ġut": 2279,
      "col": 2280,
      "inter": 2281,
      "AR": 2282,
      "iol": 2283,
      "ĠWar": 2284,
      "Ġjob": 2285,
      "Ġaccording": 2286,
      "Ġpay": 2287,
      "Ġhouse": 2288,
      "ley": 2289,
      "Ġresearchers": 2290,
      "Ġdone": 2291,
      "org": 2292,
      "ae": 2293,
      "Ġemot": 2294,
      "Ġinteract": 2295,
      "Ġteam": 2296,
      "hern": 2297,
      "Ġfile": 2298,
      "ened": 2299,
      "Ġver": 2300,
      "Ġcut": 2301,
      "rict": 2302,
      "ĠShe": 2303,
      "ird": 2304,
      "enc": 2305,
      "Ġrequired": 2306,
      "ules": 2307,
      "Ġhelps": 2308,
      "Ġcreated": 2309,
      "Ġactivity": 2310,
      "adem": 2311,
      "earch": 2312,
      "'re": 2313,
      "ipp": 2314,
      "Ġanalysis": 2315,
      "Ġfail": 2316,
      "Ġproducts": 2317,
      "ĠEnglish": 2318,
      "ĠJohn": 2319,
      "epend": 2320,
      "ĠComm": 2321,
      "Ġaspect": 2322,
      "hold": 2323,
      "Ġengine": 2324,
      "Ġinteg": 2325,
      "Ġonline": 2326,
      "Ġlive": 2327,
      "itud": 2328,
      "Ġfall": 2329,
      "Ġnp": 2330,
      "my": 2331,
      "Ġfig": 2332,
      "Ġsymptoms": 2333,
      "Ġmethods": 2334,
      "fully": 2335,
      "Ġfrequ": 2336,
      "Ġmedical": 2337,
      "Ġlot": 2338,
      "Ġmarket": 2339,
      "Ġmanagement": 2340,
      "fer": 2341,
      "go": 2342,
      "otes": 2343,
      "ler": 2344,
      "Ġtot": 2345,
      "Ġeffic": 2346,
      "Ġneeded": 2347,
      "ĠGo": 2348,
      "oose": 2349,
      "Ġaction": 2350,
      "fl": 2351,
      "Ġanimals": 2352,
      "Ġpolitical": 2353,
      "Ġpie": 2354,
      "Ġcirc": 2355,
      "Ġidea": 2356,
      "ivil": 2357,
      "place": 2358,
      "Ġsent": 2359,
      "rand": 2360,
      "Ġevidence": 2361,
      "Ġquick": 2362,
      "Ġflu": 2363,
      "ĊĠĠĠĠ": 2364,
      "ĠStud": 2365,
      "Ġreduce": 2366,
      "Ġtarget": 2367,
      "Ġnecessary": 2368,
      "aries": 2369,
      "Ġbreak": 2370,
      "Ġsociety": 2371,
      "Ġsoft": 2372,
      "Ġsurface": 2373,
      "Ġrecomm": 2374,
      "Ġpopular": 2375,
      "ĠHealth": 2376,
      "Ġcolor": 2377,
      "Ġensure": 2378,
      "Ġred": 2379,
      "ĠPr": 2380,
      "way": 2381,
      "Ġwriting": 2382,
      "load": 2383,
      "Ġrights": 2384,
      "Ġsun": 2385,
      "Ġmass": 2386,
      "Ġactually": 2387,
      "Ġparts": 2388,
      "lt": 2389,
      "key": 2390,
      "Ġmess": 2391,
      "Ġseem": 2392,
      "Ġvalues": 2393,
      "Ġlives": 2394,
      "clusion": 2395,
      "Ġport": 2396,
      "oph": 2397,
      "sp": 2398,
      "list": 2399,
      "bon": 2400,
      "ze": 2401,
      "ĠMay": 2402,
      "Ġsometimes": 2403,
      "yle": 2404,
      "Ġyet": 2405,
      "Ġoffic": 2406,
      "chan": 2407,
      "reng": 2408,
      "Ġclimate": 2409,
      "ulations": 2410,
      "cial": 2411,
      "Ġentire": 2412,
      "aling": 2413,
      "Ġge": 2414,
      "Ġarr": 2415,
      "Ġshare": 2416,
      "Ġincreased": 2417,
      "Ġrate": 2418,
      "Ġcame": 2419,
      "ystem": 2420,
      "Ġapproach": 2421,
      "oration": 2422,
      "Ġresponse": 2423,
      "When": 2424,
      "Ġfriends": 2425,
      "Ġcommunities": 2426,
      "Ġeffective": 2427,
      "Ġsal": 2428,
      "ma": 2429,
      "Ġprovides": 2430,
      "Ġdest": 2431,
      "Ġstress": 2432,
      "Ġencou": 2433,
      "Ġclear": 2434,
      "ĠAm": 2435,
      "ĠAss": 2436,
      "ustom": 2437,
      "Ġbelow": 2438,
      "erous": 2439,
      "Ġimage": 2440,
      "Ġwhole": 2441,
      "ĠWhile": 2442,
      "Ġdoct": 2443,
      "ĠGen": 2444,
      "Ġnational": 2445,
      "Ġsubst": 2446,
      "aged": 2447,
      "ublic": 2448,
      "Ġdeveloped": 2449,
      "ply": 2450,
      "olic": 2451,
      "Ġmeaning": 2452,
      "Ġpressure": 2453,
      "Ġarch": 2454,
      "Ġhealthy": 2455,
      "erve": 2456,
      "OR": 2457,
      "ender": 2458,
      "Ġexerc": 2459,
      "idered": 2460,
      "II": 2461,
      "Ġservices": 2462,
      "Ġevents": 2463,
      "urch": 2464,
      "Ġcontext": 2465,
      "osis": 2466,
      "Ġability": 2467,
      "Ġ%": 2468,
      "acks": 2469,
      "Ġtaken": 2470,
      "Ġincreasing": 2471,
      "Ġcontinue": 2472,
      "ches": 2473,
      "Ġmusic": 2474,
      "Ġmoney": 2475,
      "ores": 2476,
      "lex": 2477,
      "Ġ)": 2478,
      "Ġavoid": 2479,
      "Ġ_": 2480,
      "Ġrelated": 2481,
      "ĠAb": 2482,
      "ttp": 2483,
      "acc": 2484,
      "Ġcompon": 2485,
      "Ġinstead": 2486,
      "Ġadult": 2487,
      "nov": 2488,
      "Ġemerg": 2489,
      "ĠAmerica": 2490,
      "atter": 2491,
      "istance": 2492,
      "Ġstates": 2493,
      "eration": 2494,
      "Ġtaking": 2495,
      "wh": 2496,
      "Ġconsidered": 2497,
      "light": 2498,
      "ctions": 2499,
      "ĠDr": 2500,
      "Ġ|": 2501,
      "Ġtell": 2502,
      "ĠMan": 2503,
      "ĠInt": 2504,
      "ront": 2505,
      "oon": 2506,
      "ĠIntern": 2507,
      "itation": 2508,
      "ength": 2509,
      "ĠGe": 2510,
      "Ġmicro": 2511,
      "imately": 2512,
      "Ex": 2513,
      "Ġculture": 2514,
      "Ġallows": 2515,
      "ges": 2516,
      "amed": 2517,
      "Ġann": 2518,
      "ume": 2519,
      "Ġreview": 2520,
      "Ġarticle": 2521,
      "Ġmach": 2522,
      "Ġcannot": 2523,
      "Ġthera": 2524,
      "ĠSci": 2525,
      "Ġchallenges": 2526,
      "Ġsite": 2527,
      "Ġfive": 2528,
      "Ġpriv": 2529,
      "play": 2530,
      "Ġtraining": 2531,
      "hing": 2532,
      "Ġeconomic": 2533,
      "Ġwhite": 2534,
      "ump": 2535,
      "Ġreading": 2536,
      "ĠCal": 2537,
      "part": 2538,
      "based": 2539,
      "Ġbal": 2540,
      "Ġtechniques": 2541,
      "Ġcheck": 2542,
      "Ġenvironmental": 2543,
      "Ġdrug": 2544,
      "Ġposition": 2545,
      "Ġtools": 2546,
      "ĠAfter": 2547,
      "irm": 2548,
      "Ġmor": 2549,
      "ĠEm": 2550,
      "ai": 2551,
      "Ġbehavior": 2552,
      "Ġtraditional": 2553,
      "Con": 2554,
      "ĠCont": 2555,
      "order": 2556,
      "Ġexcept": 2557,
      "Ġharm": 2558,
      "utes": 2559,
      "init": 2560,
      "ribute": 2561,
      "Ġclos": 2562,
      "ari": 2563,
      "Ġdoing": 2564,
      "aced": 2565,
      "hib": 2566,
      "Ġassess": 2567,
      "het": 2568,
      "iment": 2569,
      "Ġeveryone": 2570,
      "Ġskin": 2571,
      "iddle": 2572,
      "amin": 2573,
      "Ġclean": 2574,
      "come": 2575,
      "like": 2576,
      "Ġcompet": 2577,
      "Ġitself": 2578,
      "ĠSouth": 2579,
      "Ġcomputer": 2580,
      "aving": 2581,
      "Ġbegan": 2582,
      "oes": 2583,
      "Ġpublished": 2584,
      "Ġsense": 2585,
      "eed": 2586,
      "ĠApp": 2587,
      "ĠEarth": 2588,
      "Ġstreng": 2589,
      "uck": 2590,
      "pose": 2591,
      "Ġreact": 2592,
      "But": 2593,
      "aches": 2594,
      "ey": 2595,
      "esc": 2596,
      "ops": 2597,
      "ĠNorth": 2598,
      "pri": 2599,
      "pid": 2600,
      "mber": 2601,
      "Ġweek": 2602,
      "Ġlove": 2603,
      "astic": 2604,
      "itor": 2605,
      "Ġcritical": 2606,
      "iet": 2607,
      "ype": 2608,
      "Ġremain": 2609,
      "Ġweight": 2610,
      "Ġdemon": 2611,
      "fig": 2612,
      "ground": 2613,
      "know": 2614,
      "Ġla": 2615,
      "Ġcondition": 2616,
      "dom": 2617,
      "Ġmeasure": 2618,
      "ĠHist": 2619,
      "empt": 2620,
      "Ġbenefits": 2621,
      "ele": 2622,
      "Ġoffer": 2623,
      "Ġcontent": 2624,
      "aily": 2625,
      "Ġtrue": 2626,
      "Ġaccept": 2627,
      "Ġmatter": 2628,
      "Ġblack": 2629,
      "Ġsepar": 2630,
      "Ġdraw": 2631,
      "Ġbring": 2632,
      "Ġrev": 2633,
      "Ġtook": 2634,
      "Ġmedic": 2635,
      "isc": 2636,
      "Ġprote": 2637,
      "joy": 2638,
      "Ġcultural": 2639,
      "Ġsat": 2640,
      "Ġcat": 2641,
      "Ġfeed": 2642,
      "ĠAct": 2643,
      "Ġexperiences": 2644,
      "Ġinstance": 2645,
      "Ġregular": 2646,
      "ĠAust": 2647,
      "cont": 2648,
      "Ġparents": 2649,
      "Ġcru": 2650,
      "Ġgreen": 2651,
      "Ġhab": 2652,
      "Ġterms": 2653,
      "itary": 2654,
      "bl": 2655,
      "istics": 2656,
      "pite": 2657,
      "args": 2658,
      "Ġconduct": 2659,
      "raft": 2660,
      "Ġoil": 2661,
      "Ġsust": 2662,
      "Ġimplement": 2663,
      "Ġexpress": 2664,
      "yl": 2665,
      "Ġidentify": 2666,
      "Ġcapt": 2667,
      "=\"": 2668,
      "Ġprevious": 2669,
      "ields": 2670,
      "Ġattention": 2671,
      "avor": 2672,
      "back": 2673,
      ".)": 2674,
      "Ġstructure": 2675,
      "vere": 2676,
      "EN": 2677,
      "icles": 2678,
      "equ": 2679,
      "You": 2680,
      "Ġstories": 2681,
      "oll": 2682,
      "Ġetc": 2683,
      "itution": 2684,
      "Ġdat": 2685,
      "orks": 2686,
      "Ġproduce": 2687,
      "inf": 2688,
      "text": 2689,
      "ĠGu": 2690,
      "hood": 2691,
      "Ġregion": 2692,
      "Now": 2693,
      "rown": 2694,
      "Ġfish": 2695,
      "head": 2696,
      "Ġdemonstr": 2697,
      "Ġmultiple": 2698,
      "Ġselect": 2699,
      "Wh": 2700,
      "Ġmonths": 2701,
      "One": 2702,
      "ift": 2703,
      "ging": 2704,
      "artment": 2705,
      "ername": 2706,
      "Ġsex": 2707,
      "Ġprovided": 2708,
      "ister": 2709,
      "eb": 2710,
      "Ġdiet": 2711,
      "Ġface": 2712,
      "alu": 2713,
      "Ġforms": 2714,
      "Ġpractices": 2715,
      "Ġtotal": 2716,
      "ĠRep": 2717,
      "IS": 2718,
      "Ġminim": 2719,
      "Ġunit": 2720,
      "Ġdesigned": 2721,
      "Ġsuff": 2722,
      "uel": 2723,
      "Ġcompany": 2724,
      "Ġelements": 2725,
      "Ġindustry": 2726,
      "isions": 2727,
      "Ġpositive": 2728,
      "ror": 2729,
      "Ġcreating": 2730,
      "Ġconsist": 2731,
      "ided": 2732,
      "ĠHis": 2733,
      "Ġhours": 2734,
      "čĊ": 2735,
      "Ġvide": 2736,
      "bo": 2737,
      "Ġreflect": 2738,
      "error": 2739,
      "Ġalmost": 2740,
      "Ġshows": 2741,
      "Ġhalf": 2742,
      "ĠSu": 2743,
      "Ġyourself": 2744,
      "Ġaim": 2745,
      "Ġpsych": 2746,
      "ows": 2747,
      "Ġheav": 2748,
      "ober": 2749,
      "Ġbar": 2750,
      "Ġservice": 2751,
      "Ġparticularly": 2752,
      "Ã©": 2753,
      "ensive": 2754,
      "Ġ__": 2755,
      "date": 2756,
      "Ġfat": 2757,
      "Ġdoesn": 2758,
      "Ġanaly": 2759,
      "Ġsoil": 2760,
      "Ġschools": 2761,
      "Ġrecent": 2762,
      "Ġclaim": 2763,
      "Ġdog": 2764,
      "umn": 2765,
      "Ġfarm": 2766,
      "Ġcontact": 2767,
      "right": 2768,
      "Ġeth": 2769,
      "Ġinvolved": 2770,
      "Ġprograms": 2771,
      "Ġthing": 2772,
      "ners": 2773,
      "Im": 2774,
      "Ġcontribut": 2775,
      "Ġtemperature": 2776,
      "ike": 2777,
      "elt": 2778,
      "Ġmechan": 2779,
      "ĠMore": 2780,
      "irit": 2781,
      "Ġsources": 2782,
      "urs": 2783,
      "True": 2784,
      "Ġsimply": 2785,
      "ĠYour": 2786,
      "[\"": 2787,
      "itle": 2788,
      "thon": 2789,
      "Ġcommit": 2790,
      "rast": 2791,
      "Ġlink": 2792,
      "ese": 2793,
      "hel": 2794,
      "Ġoriginal": 2795,
      "arily": 2796,
      "Ġclose": 2797,
      "Ġsleep": 2798,
      "Ġdeb": 2799,
      "ming": 2800,
      "aff": 2801,
      "ccording": 2802,
      "rim": 2803,
      "Ġeasy": 2804,
      "fil": 2805,
      "iation": 2806,
      "AN": 2807,
      "Ġgas": 2808,
      "Ġer": 2809,
      "ster": 2810,
      "Ġextra": 2811,
      "Ġenjoy": 2812,
      "ties": 2813,
      "Ġheat": 2814,
      "Ġste": 2815,
      "Ġchemical": 2816,
      "ĠPe": 2817,
      "Ġideas": 2818,
      "Ġmax": 2819,
      "ched": 2820,
      "Ġspread": 2821,
      "rage": 2822,
      "Ġenh": 2823,
      "Ġtravel": 2824,
      "ĠMar": 2825,
      "âĢ¦": 2826,
      "čĊĠĠĠĠĠĠĠ": 2827,
      "ription": 2828,
      "rem": 2829,
      "rs": 2830,
      "Ġsurv": 2831,
      "rior": 2832,
      "oin": 2833,
      "Ġbuilt": 2834,
      "ĠNo": 2835,
      "Ġaware": 2836,
      "orpor": 2837,
      "Ġstarted": 2838,
      "Ġled": 2839,
      "Ġissue": 2840,
      "Ġhistorical": 2841,
      "vey": 2842,
      "Ġpict": 2843,
      "ĠDep": 2844,
      "Ġlonger": 2845,
      "Ġfem": 2846,
      "ĠAg": 2847,
      "Ġperformance": 2848,
      "Ġgreater": 2849,
      "Ġstop": 2850,
      "ĠJew": 2851,
      "Ġwritten": 2852,
      "Ġoutside": 2853,
      "Ġinj": 2854,
      "Ġsurround": 2855,
      "Ġmodels": 2856,
      "ĠPar": 2857,
      "porary": 2858,
      "su": 2859,
      "ĠYork": 2860,
      "ounter": 2861,
      "ribution": 2862,
      "enced": 2863,
      "ĠMe": 2864,
      "ension": 2865,
      "Ġaud": 2866,
      "estern": 2867,
      "num": 2868,
      "Ġwild": 2869,
      "Ġcompan": 2870,
      "Ġlands": 2871,
      "Ġbelieve": 2872,
      "Ġpoints": 2873,
      "fect": 2874,
      "rig": 2875,
      "vant": 2876,
      "].": 2877,
      "itute": 2878,
      "ography": 2879,
      "Ġdiagn": 2880,
      "Ġfinanc": 2881,
      "Ġdecl": 2882,
      "Ġbeaut": 2883,
      "Ġcorrect": 2884,
      "ĠState": 2885,
      "ait": 2886,
      "Ġslow": 2887,
      "Ġmovement": 2888,
      "Ġfire": 2889,
      "Ġbehind": 2890,
      "Ġprogress": 2891,
      "curity": 2892,
      "Ġthreat": 2893,
      "Ġassert": 2894,
      "Ġmental": 2895,
      "Ġleading": 2896,
      "yond": 2897,
      "IT": 2898,
      "Ġmedia": 2899,
      "ervation": 2900,
      "ĠResearch": 2901,
      "Ġbooks": 2902,
      "oved": 2903,
      "Ġscientists": 2904,
      "Ġcommunication": 2905,
      "Ġcode": 2906,
      "Ġmom": 2907,
      "Ġones": 2908,
      "opt": 2909,
      "ĠCons": 2910,
      "Ġuser": 2911,
      "Ġremember": 2912,
      "che": 2913,
      "Ġfram": 2914,
      "izations": 2915,
      "ronic": 2916,
      "Ġstandard": 2917,
      "Ġviol": 2918,
      "eters": 2919,
      "ĠCo": 2920,
      "minist": 2921,
      "Ġuses": 2922,
      "Ġevalu": 2923,
      "ĠCanad": 2924,
      "ilies": 2925,
      "Ġcustom": 2926,
      "Ġadapt": 2927,
      "So": 2928,
      "Ġbroad": 2929,
      "Ġtakes": 2930,
      "inating": 2931,
      "apan": 2932,
      "Ġaltern": 2933,
      "Ġfru": 2934,
      "ĠBritish": 2935,
      "issions": 2936,
      "Ġcolle": 2937,
      "Ġdeveloping": 2938,
      "where": 2939,
      "ricult": 2940,
      "rate": 2941,
      "rew": 2942,
      "standing": 2943,
      "ban": 2944,
      "Ġec": 2945,
      "username": 2946,
      "Ġsafety": 2947,
      "Ġstay": 2948,
      "Ġcaused": 2949,
      "ĊĠĠĠĠĠĠĠĠĠĠĠĠĠĠĠĠĠĠĠĠĠĠĠĠ": 2950,
      "Pro": 2951,
      "Ġnormal": 2952,
      "Ġdaily": 2953,
      "inally": 2954,
      "ached": 2955,
      "ĠLet": 2956,
      "oor": 2957,
      "size": 2958,
      "ologies": 2959,
      "Ġappropri": 2960,
      "Ġwond": 2961,
      "Ġwrite": 2962,
      "Ġnumbers": 2963,
      "Ġgetting": 2964,
      "ades": 2965,
      "Ġgrowing": 2966,
      "reci": 2967,
      "ls": 2968,
      "Ġinside": 2969,
      "Ġhumans": 2970,
      "ĠCar": 2971,
      "rought": 2972,
      "Ġsix": 2973,
      "dd": 2974,
      "Ġincludes": 2975,
      "Ġimportance": 2976,
      "amb": 2977,
      "Ġcauses": 2978,
      "ufact": 2979,
      "Ġpolicy": 2980,
      "ged": 2981,
      "Ġsmo": 2982,
      "Ġ>": 2983,
      "Ġbasic": 2984,
      "Ġanswer": 2985,
      "ĠUs": 2986,
      "Ġleaders": 2987,
      "Ġsafe": 2988,
      "Ġinnov": 2989,
      "ĠNe": 2990,
      "Ġcomplete": 2991,
      "ĠUnder": 2992,
      "chol": 2993,
      "Ġaccur": 2994,
      "Ġreve": 2995,
      "Ġinsp": 2996,
      "ĠPre": 2997,
      "Ġsustain": 2998,
      "word": 2999,
      "Ġprimary": 3000,
      "Ġfeatures": 3001,
      "Ġprep": 3002,
      "bol": 3003,
      "Ġinput": 3004,
      "Ġlate": 3005,
      "Ġ--": 3006,
      "ED": 3007,
      "amples": 3008,
      "Ġlooking": 3009,
      "Ġpage": 3010,
      "Ġwebs": 3011,
      "Ġtalk": 3012,
      "Ġefforts": 3013,
      "ĠPer": 3014,
      "Ġexact": 3015,
      "umb": 3016,
      "IC": 3017,
      "ken": 3018,
      "uth": 3019,
      "ttps": 3020,
      "Ġtax": 3021,
      "Ġachieve": 3022,
      "ament": 3023,
      "ĠMany": 3024,
      "ials": 3025,
      "duc": 3026,
      "pes": 3027,
      "Ġsqu": 3028,
      "fort": 3029,
      "resh": 3030,
      "Ġshap": 3031,
      "Ġguid": 3032,
      "Ġopportunities": 3033,
      "Ġscre": 3034,
      "Up": 3035,
      "Ġthinking": 3036,
      "Ġshape": 3037,
      "tings": 3038,
      "cles": 3039,
      "Ġoverall": 3040,
      "Ġdiv": 3041,
      "Ġinvestig": 3042,
      "Ġindepend": 3043,
      "atively": 3044,
      "Ġvisit": 3045,
      "Ġaverage": 3046,
      "Ġcross": 3047,
      "Ġstru": 3048,
      "ĠFl": 3049,
      "Ġcompared": 3050,
      "Ġvalu": 3051,
      "Ġdamage": 3052,
      "ĠSchool": 3053,
      "Ġshown": 3054,
      "Ġcamp": 3055,
      "Ġearl": 3056,
      "'ll": 3057,
      "Ġappl": 3058,
      "Ġdecision": 3059,
      "haps": 3060,
      "Ġcit": 3061,
      "www": 3062,
      "room": 3063,
      "erson": 3064,
      "Ġstrategies": 3065,
      "ĠQu": 3066,
      "Ġbeyond": 3067,
      "rench": 3068,
      "ounds": 3069,
      "Ġrequires": 3070,
      "itude": 3071,
      "Ġforce": 3072,
      "Ġbacter": 3073,
      "Ġpatterns": 3074,
      "Ġprocesses": 3075,
      "Ġrout": 3076,
      "Ġwid": 3077,
      "Ġkids": 3078,
      "Ġnetwork": 3079,
      "Ġpoll": 3080,
      "Ġful": 3081,
      "ĠJapan": 3082,
      "Ġseries": 3083,
      "By": 3084,
      "gar": 3085,
      "ĠIndia": 3086,
      "term": 3087,
      "Ġwarm": 3088,
      "Ġlo": 3089,
      "Ġbill": 3090,
      "ederal": 3091,
      "ously": 3092,
      "Ġlack": 3093,
      "Ġscientific": 3094,
      "resp": 3095,
      "Ġelectric": 3096,
      "Ġquite": 3097,
      "uments": 3098,
      "Ġtown": 3099,
      "Ġearth": 3100,
      "Ġmagn": 3101,
      "Ġprobably": 3102,
      "ĠSim": 3103,
      "log": 3104,
      "Ġtheory": 3105,
      "ciples": 3106,
      "Ġattempt": 3107,
      "Ġfoods": 3108,
      "Ġquickly": 3109,
      "Ġinternational": 3110,
      "Ġcover": 3111,
      "pper": 3112,
      "Ġrequest": 3113,
      "Ġeverything": 3114,
      "Ġcarbon": 3115,
      "rated": 3116,
      "Ġcollab": 3117,
      "ĠThrough": 3118,
      "Ġcool": 3119,
      "Ġpack": 3120,
      "Ġoutput": 3121,
      "Ġinform": 3122,
      "inct": 3123,
      "ST": 3124,
      "ĠDes": 3125,
      "ream": 3126,
      "asons": 3127,
      "aly": 3128,
      "Ġcolon": 3129,
      "Ġgame": 3130,
      "Ġeat": 3131,
      "met": 3132,
      "čĊĠĠĠ": 3133,
      "append": 3134,
      "cret": 3135,
      "hens": 3136,
      "Ġdocument": 3137,
      "abet": 3138,
      "Ġpredict": 3139,
      "more": 3140,
      "AC": 3141,
      "Ġvisual": 3142,
      "Ġprec": 3143,
      "oday": 3144,
      "Ġappreci": 3145,
      "Ġtri": 3146,
      "Ġforest": 3147,
      "isms": 3148,
      "Ġeasily": 3149,
      "rie": 3150,
      "point": 3151,
      "ĠRet": 3152,
      "Ġago": 3153,
      "vention": 3154,
      "Ġpatient": 3155,
      "Ġbase": 3156,
      "iency": 3157,
      "Ġanimal": 3158,
      "lease": 3159,
      "Ġnight": 3160,
      "ellow": 3161,
      "Ġlif": 3162,
      "iring": 3163,
      "Ġhost": 3164,
      "Ġfamilies": 3165,
      "Ġperspect": 3166,
      "Ġir": 3167,
      "Ġadditional": 3168,
      "Ġvaluable": 3169,
      "illi": 3170,
      "Ġsect": 3171,
      "Ġvariety": 3172,
      "Ġteachers": 3173,
      "idge": 3174,
      "Ġgenerally": 3175,
      "Ġsearch": 3176,
      "Ġwood": 3177,
      "Ġcivil": 3178,
      "Ġdigital": 3179,
      "Ġpoor": 3180,
      "Ġgain": 3181,
      "Ġcou": 3182,
      "Ġveget": 3183,
      "Ġtree": 3184,
      "ilos": 3185,
      "just": 3186,
      "oles": 3187,
      "ĠScience": 3188,
      "ĠReg": 3189,
      "Ġdifference": 3190,
      "erate": 3191,
      "Ġacadem": 3192,
      "ceed": 3193,
      "Ġsoftware": 3194,
      "alking": 3195,
      "Ġserious": 3196,
      "Ġinfluence": 3197,
      "Ġancient": 3198,
      "Ġcrucial": 3199,
      "ĠAustral": 3200,
      "Ġlines": 3201,
      "uge": 3202,
      "AL": 3203,
      "Ġbecomes": 3204,
      "Ġdou": 3205,
      "ession": 3206,
      "vert": 3207,
      "mission": 3208,
      "Ġactive": 3209,
      "Ġreported": 3210,
      "ĠCO": 3211,
      "izes": 3212,
      "Ġfinancial": 3213,
      "Ġmanufact": 3214,
      "igen": 3215,
      "lim": 3216,
      "inks": 3217,
      "value": 3218,
      "\"]": 3219,
      "Ġsituation": 3220,
      "itch": 3221,
      "uild": 3222,
      "osing": 3223,
      "Ġlarger": 3224,
      "ĠMin": 3225,
      "Ġteaching": 3226,
      "Ġfit": 3227,
      "ana": 3228,
      "oud": 3229,
      "encies": 3230,
      "ief": 3231,
      "Ġadded": 3232,
      "ĠArt": 3233,
      "odes": 3234,
      "ĠPres": 3235,
      "ynam": 3236,
      "Ġoptim": 3237,
      "Ġbit": 3238,
      "Ġprin": 3239,
      "Ġcompanies": 3240,
      "Ġhyd": 3241,
      "roup": 3242,
      "Ġsection": 3243,
      "Ġisn": 3244,
      "odies": 3245,
      "Ġincluded": 3246,
      "ha": 3247,
      "Ġestablished": 3248,
      "Ġtable": 3249,
      "Ġapplications": 3250,
      "Ġcalcul": 3251,
      "alls": 3252,
      "RE": 3253,
      "itable": 3254,
      "Ġproviding": 3255,
      "bor": 3256,
      "Ġaspects": 3257,
      "ĠKing": 3258,
      "uries": 3259,
      "Ġox": 3260,
      "Ġtend": 3261,
      "Ġimages": 3262,
      "rial": 3263,
      "Ġremains": 3264,
      "Ġsil": 3265,
      "Ġpowerful": 3266,
      "ancy": 3267,
      "wise": 3268,
      "print": 3269,
      "ucle": 3270,
      "ret": 3271,
      "ĠChina": 3272,
      "Ġprior": 3273,
      "IV": 3274,
      "ĠPart": 3275,
      "Ġapplication": 3276,
      "On": 3277,
      "Ġproduced": 3278,
      "Ġfeet": 3279,
      "ulate": 3280,
      "ĠEuropean": 3281,
      "ille": 3282,
      "Ġbur": 3283,
      "Ġspeak": 3284,
      "Ġhands": 3285,
      "Ġfriend": 3286,
      "Ġfost": 3287,
      "ĠComp": 3288,
      "Ġsecurity": 3289,
      "Ġconflic": 3290,
      "ibrary": 3291,
      "ĠTra": 3292,
      "ception": 3293,
      "Ġ,": 3294,
      "mar": 3295,
      "ĊĠĠĠĠĠĠĠĠĠĠĠĠĠĠĠĠĠĠĠĠĠĠĠĠĠĠĠĠĠĠĠĠ": 3296,
      "ĠFrom": 3297,
      "Ġsteps": 3298,
      "Ġhor": 3299,
      "Ġgard": 3300,
      "emporary": 3301,
      "ĠJust": 3302,
      "Ġconcent": 3303,
      "anks": 3304,
      "lands": 3305,
      "Ġbad": 3306,
      "Ġthus": 3307,
      "Ġmention": 3308,
      "phas": 3309,
      "Ġult": 3310,
      "ĠCount": 3311,
      "ĠDo": 3312,
      "Ġep": 3313,
      "Ġtransport": 3314,
      "Ġsoon": 3315,
      "Ġdirectly": 3316,
      "Ġreligious": 3317,
      "cks": 3318,
      "Ġthous": 3319,
      "Ġeye": 3320,
      "Ġquant": 3321,
      "care": 3322,
      "enge": 3323,
      "\"\"\"": 3324,
      "med": 3325,
      "Ġvirus": 3326,
      "Ġspirit": 3327,
      "ĠRuss": 3328,
      "rror": 3329,
      "bit": 3330,
      "Ġsn": 3331,
      "ino": 3332,
      "Ġimmedi": 3333,
      "ĊĠĠĠĠĠĠĠĠĠĠĠĠĠĠĠĠĠĠĠĠĠĠĠ": 3334,
      "itect": 3335,
      "Ġang": 3336,
      "Ġdang": 3337,
      "Ġvideo": 3338,
      "arv": 3339,
      "uff": 3340,
      "requ": 3341,
      "ev": 3342,
      "Ġdetermine": 3343,
      "ran": 3344,
      "Ġestablish": 3345,
      "ĠNot": 3346,
      "Ġappropriate": 3347,
      "ĠÂ": 3348,
      "mat": 3349,
      "ying": 3350,
      "Ċĉ": 3351,
      "Ġrelationships": 3352,
      "Ġast": 3353,
      "Ġbelief": 3354,
      "Ġresponsible": 3355,
      "Ġprojects": 3356,
      "ĠPol": 3357,
      "ĠMy": 3358,
      "Ġoffers": 3359,
      "Ġgot": 3360,
      "ience": 3361,
      "Ġnamed": 3362,
      "Ġfasc": 3363,
      "Ġestim": 3364,
      "Ġwaste": 3365,
      "Ġdiseases": 3366,
      "Ġgradu": 3367,
      "Ġconvers": 3368,
      "Ġrules": 3369,
      "Ġplaces": 3370,
      "Ġfoot": 3371,
      "Ġcele": 3372,
      "ifically": 3373,
      "Ġexpos": 3374,
      "Ġos": 3375,
      "Ġmother": 3376,
      "Ġhot": 3377,
      "Ġdevices": 3378,
      "Ġpropos": 3379,
      "Ġbab": 3380,
      "Ġdiverse": 3381,
      "Ġmilitary": 3382,
      "Ġrefer": 3383,
      "Ġagree": 3384,
      "Ġexercise": 3385,
      "ĠDis": 3386,
      "Ġproced": 3387,
      "assert": 3388,
      "Ġincorpor": 3389,
      "Ġexpected": 3390,
      "Ġ@": 3391,
      "ĠEd": 3392,
      "Ġtrying": 3393,
      "Ġinstall": 3394,
      "Ġroad": 3395,
      "Ġsus": 3396,
      "Ġrates": 3397,
      "Ġobjects": 3398,
      "Ġcomplet": 3399,
      "Ġfinal": 3400,
      "hors": 3401,
      "orders": 3402,
      "Ġcred": 3403,
      "Ġdecre": 3404,
      "Ġheld": 3405,
      "inated": 3406,
      "Ġnav": 3407,
      "dict": 3408,
      "Ġmix": 3409,
      "Ġasked": 3410,
      "Ġattack": 3411,
      "Ġexploring": 3412,
      "Ġoptions": 3413,
      "Ġtrees": 3414,
      "Ġinterpre": 3415,
      "Ġseems": 3416,
      "ecause": 3417,
      "Ġcard": 3418,
      "illing": 3419,
      "Ġund": 3420,
      "Ġsuccessful": 3421,
      "Ġlegal": 3422,
      "Ġsea": 3423,
      "Ġstrugg": 3424,
      "Ġrich": 3425,
      "ĠEduc": 3426,
      "off": 3427,
      "Ġtypically": 3428,
      "ĠFrench": 3429,
      "Ġfront": 3430,
      "Ġmis": 3431,
      "Ġlimited": 3432,
      "hemat": 3433,
      "comp": 3434,
      "ET": 3435,
      "Ġcomponents": 3436,
      "iful": 3437,
      "ĠGl": 3438,
      "Ġnation": 3439,
      "ding": 3440,
      "Ġjourney": 3441,
      "Ġinvolves": 3442,
      "Ġpurpose": 3443,
      "used": 3444,
      "writ": 3445,
      "Ġwhose": 3446,
      "ĠCour": 3447,
      "Ġvacc": 3448,
      "Ġhighly": 3449,
      "Ġrob": 3450,
      "ellig": 3451,
      "Ġbreat": 3452,
      "Ġfavor": 3453,
      "Ġjud": 3454,
      "rong": 3455,
      "Ġsold": 3456,
      "life": 3457,
      "Res": 3458,
      "inst": 3459,
      "inate": 3460,
      "Ġthird": 3461,
      "Ġuseful": 3462,
      "Ġcentral": 3463,
      "Ġraise": 3464,
      "Ġperfect": 3465,
      "dir": 3466,
      "Ġreach": 3467,
      "istry": 3468,
      "Ġtherefore": 3469,
      "At": 3470,
      "Ġstri": 3471,
      "Ġclin": 3472,
      "Ġdevice": 3473,
      "format": 3474,
      "Ġobtain": 3475,
      "ĠJu": 3476,
      "Ġexamples": 3477,
      "iles": 3478,
      "None": 3479,
      "ĠAlthough": 3480,
      "oming": 3481,
      "Ġlearned": 3482,
      "ĠAfrican": 3483,
      "Ġminutes": 3484,
      "ĠHer": 3485,
      "oat": 3486,
      "uman": 3487,
      "Ġgoal": 3488,
      "df": 3489,
      "ipment": 3490,
      "param": 3491,
      "atform": 3492,
      "Ġlabor": 3493,
      "Ġeyes": 3494,
      "Ġdry": 3495,
      "Ġcosts": 3496,
      "Ġmemory": 3497,
      "Ġproperty": 3498,
      "Ġcontinu": 3499,
      "ĠMod": 3500,
      "eks": 3501,
      "Error": 3502,
      "Ġfair": 3503,
      "Ġvit": 3504,
      "ĠFirst": 3505,
      "Ġload": 3506,
      "water": 3507,
      "ĠSm": 3508,
      "Step": 3509,
      "ĠOf": 3510,
      "Ġwent": 3511,
      "Ġtransform": 3512,
      "Ġdemand": 3513,
      "========": 3514,
      "ĠAfrica": 3515,
      "Ġlength": 3516,
      "change": 3517,
      "overy": 3518,
      "Section": 3519,
      "Ġsevere": 3520,
      "Ġnegative": 3521,
      "Ġchoose": 3522,
      "rap": 3523,
      "Ġcommunic": 3524,
      "And": 3525,
      "ĠMost": 3526,
      "ĠIndian": 3527,
      "Ġmonth": 3528,
      "Ġchapter": 3529,
      "asks": 3530,
      "Ġanything": 3531,
      "Ġrespond": 3532,
      "ĠAc": 3533,
      "attle": 3534,
      "Ġfast": 3535,
      "Ġrapid": 3536,
      "ashing": 3537,
      "cape": 3538,
      "Ġprotection": 3539,
      "'ve": 3540,
      "Ġprofessional": 3541,
      "iot": 3542,
      "na": 3543,
      "Ġspeed": 3544,
      "Ġsequ": 3545,
      "useum": 3546,
      "ĠOther": 3547,
      "Ġalthough": 3548,
      "urg": 3549,
      "Ġparam": 3550,
      "ĠChristian": 3551,
      "Ġcateg": 3552,
      "Ġexplain": 3553,
      "Ġpan": 3554,
      "Ċĉĉ": 3555,
      "Ġstatus": 3556,
      "Ġvia": 3557,
      "Ġfa": 3558,
      "Ġnovel": 3559,
      "lation": 3560,
      "Ġsolution": 3561,
      "cean": 3562,
      "ml": 3563,
      "ĠJan": 3564,
      "Ġfight": 3565,
      "ĠNow": 3566,
      "Ġmount": 3567,
      "Ġsignificantly": 3568,
      "ocks": 3569,
      "Ġsymbol": 3570,
      "fficient": 3571,
      "Ġcapital": 3572,
      "ech": 3573,
      "Ġsupply": 3574,
      "Ġcontribute": 3575,
      "ĠRem": 3576,
      "Ġcam": 3577,
      "Ġdifferences": 3578,
      "Ġcapac": 3579,
      "Ġbehavi": 3580,
      "Ġregarding": 3581,
      "undred": 3582,
      "Ġversion": 3583,
      "ager": 3584,
      "Ġcommand": 3585,
      "Ġroom": 3586,
      "Ġlost": 3587,
      "comment": 3588,
      "oe": 3589,
      "Ġcontains": 3590,
      "ĠTechn": 3591,
      "state": 3592,
      "ĠVal": 3593,
      "Ġhabit": 3594,
      "Ġadults": 3595,
      "Ġwide": 3596,
      "Ġshared": 3597,
      "Ġautom": 3598,
      "Ġadvant": 3599,
      "Cl": 3600,
      "iny": 3601,
      "Ġdark": 3602,
      "ĠMus": 3603,
      "Ġbound": 3604,
      "Ġblock": 3605,
      "ius": 3606,
      "year": 3607,
      "Ġconsequ": 3608,
      "Ġcitiz": 3609,
      "rition": 3610,
      "roduction": 3611,
      "omet": 3612,
      "Ġbeginning": 3613,
      "uk": 3614,
      "Ġprinciples": 3615,
      "uary": 3616,
      "Ġworkers": 3617,
      "Ġbrought": 3618,
      "Ġhttp": 3619,
      "Ġing": 3620,
      "Ġemphas": 3621,
      "Ġencourag": 3622,
      "Ġstructures": 3623,
      "ĠAug": 3624,
      "ĠJes": 3625,
      "Ġusers": 3626,
      "Ġbalance": 3627,
      "Ġcarry": 3628,
      "Ġstage": 3629,
      "Ġdim": 3630,
      "Ġtrust": 3631,
      "ĠTrue": 3632,
      "ĠOver": 3633,
      "cious": 3634,
      "iter": 3635,
      "Ġveh": 3636,
      "____": 3637,
      "wide": 3638,
      "Ġtests": 3639,
      "Ġactions": 3640,
      "ĠCenter": 3641,
      "Ġseason": 3642,
      "Ġprivate": 3643,
      "Ġexec": 3644,
      "Ġdoctor": 3645,
      "erences": 3646,
      "ĠGree": 3647,
      "Ġsec": 3648,
      "sect": 3649,
      "iers": 3650,
      "Ġforces": 3651,
      "Ġappe": 3652,
      "Ġreceived": 3653,
      "Ġliterature": 3654,
      "Ġdiscovered": 3655,
      "with": 3656,
      "iforn": 3657,
      "Ġnews": 3658,
      "gn": 3659,
      "acters": 3660,
      "Ġagricult": 3661,
      "Ġaccom": 3662,
      "Ġmag": 3663,
      "osition": 3664,
      "Ġtim": 3665,
      "Ġneigh": 3666,
      "Ġgraph": 3667,
      "oting": 3668,
      "Ġacid": 3669,
      "Ġlimit": 3670,
      "Ġdefin": 3671,
      "Ġcontinued": 3672,
      "idents": 3673,
      "Ġprotein": 3674,
      "Ġhon": 3675,
      "Ġadminist": 3676,
      "Ġsaw": 3677,
      "He": 3678,
      "unction": 3679,
      "Ġdidn": 3680,
      "Ġinteresting": 3681,
      "Ġearlier": 3682,
      "ios": 3683,
      "Ġbirth": 3684,
      "Ġdate": 3685,
      "ĠWest": 3686,
      "Ġder": 3687,
      "Ġfunctions": 3688,
      "ĠMon": 3689,
      "Ġsolar": 3690,
      "Ġdiscover": 3691,
      "Ġlocation": 3692,
      "Ġfear": 3693,
      "ĠGerman": 3694,
      "ĠOur": 3695,
      "ocol": 3696,
      "EC": 3697,
      "ĠTw": 3698,
      "Ġvirt": 3699,
      "Ġforward": 3700,
      "unch": 3701,
      "Ġfields": 3702,
      "Un": 3703,
      "Ġlaws": 3704,
      "udd": 3705,
      "EM": 3706,
      "Ġreasons": 3707,
      "Ġleaves": 3708,
      "Ġcenter": 3709,
      "ĠII": 3710,
      "Ġmessage": 3711,
      "abetes": 3712,
      "Ġinfection": 3713,
      "ĠĊ": 3714,
      "zz": 3715,
      "efore": 3716,
      "Ġorganizations": 3717,
      "estic": 3718,
      "Ġcra": 3719,
      "Ġitems": 3720,
      "Ġbenefit": 3721,
      "```": 3722,
      "ĠHere": 3723,
      "Ġteach": 3724,
      "Ġtesting": 3725,
      "ternal": 3726,
      "Ġrecommend": 3727,
      "aught": 3728,
      "Ġmole": 3729,
      "Re": 3730,
      "():": 3731,
      "Ġtrade": 3732,
      "Ġmeasures": 3733,
      "Ġweeks": 3734,
      "start": 3735,
      "omy": 3736,
      "ky": 3737,
      "Ġemp": 3738,
      "ĠEven": 3739,
      "Ġteacher": 3740,
      "ifornia": 3741,
      "Ġbra": 3742,
      "Ġmachine": 3743,
      "Ġcompre": 3744,
      "Ġvo": 3745,
      "Ġdepend": 3746,
      "Com": 3747,
      "Ġtherapy": 3748,
      "Ġroot": 3749,
      "Ġresource": 3750,
      "Ġconstruct": 3751,
      "aid": 3752,
      "ĠGreat": 3753,
      "###": 3754,
      "Ġefficient": 3755,
      "abilities": 3756,
      "ĠHistory": 3757,
      "ser": 3758,
      "__(": 3759,
      "Ġwon": 3760,
      "Ġsmaller": 3761,
      "ĠDevelop": 3762,
      "Ġprop": 3763,
      "book": 3764,
      "ĠEach": 3765,
      "arian": 3766,
      "Ġcontroll": 3767,
      "votes": 3768,
      "Ġten": 3769,
      "ula": 3770,
      "ĠInstitute": 3771,
      "Ġchallenge": 3772,
      "ĠChild": 3773,
      "Ġapply": 3774,
      "ĠAnt": 3775,
      "ought": 3776,
      "Ar": 3777,
      "plit": 3778,
      "pril": 3779,
      "Ġtold": 3780,
      "Ġcopy": 3781,
      "Ġegg": 3782,
      "Ġshall": 3783,
      "Ġopportunity": 3784,
      "Ġillust": 3785,
      "ditionally": 3786,
      "ĠTrans": 3787,
      "Ġinitial": 3788,
      "ira": 3789,
      "ony": 3790,
      "Ġessay": 3791,
      "Ġdeal": 3792,
      "Ġreceive": 3793,
      "config": 3794,
      "Ġdynam": 3795,
      "ancing": 3796,
      "Ġpiece": 3797,
      "Ġeating": 3798,
      "rote": 3799,
      "Ġauthors": 3800,
      "bre": 3801,
      "ĊĠ": 3802,
      "que": 3803,
      "Ġlocated": 3804,
      "Ġvict": 3805,
      "Ġserve": 3806,
      "Ġphilos": 3807,
      "Ġthr": 3808,
      "Ġassign": 3809,
      "Ġequipment": 3810,
      "Ġ\\": 3811,
      "Ġdegree": 3812,
      "''": 3813,
      "Ġwebsite": 3814,
      "ĠInternational": 3815,
      "Upvotes": 3816,
      "ĠDepartment": 3817,
      "atur": 3818,
      "Ġhundred": 3819,
      "apers": 3820,
      "Ġnumerous": 3821,
      "With": 3822,
      "Ġhope": 3823,
      "Ġutil": 3824,
      "ĠCommun": 3825,
      "ĠSystem": 3826,
      "ournal": 3827,
      "max": 3828,
      "Ġexisting": 3829,
      "Ġdisplay": 3830,
      "Ġnames": 3831,
      "coh": 3832,
      "Ġconstant": 3833,
      "ĠSw": 3834,
      "irection": 3835,
      "âĢ¢": 3836,
      "Ġax": 3837,
      "Ġdetails": 3838,
      "Ġrepl": 3839,
      "outhern": 3840,
      "Ġjournal": 3841,
      "ingu": 3842,
      "################": 3843,
      "Ġmoment": 3844,
      "airs": 3845,
      "Ġproperties": 3846,
      "Ġconcepts": 3847,
      "Ġiniti": 3848,
      "gram": 3849,
      "ulated": 3850,
      "Ġcollection": 3851,
      "ĠTheir": 3852,
      "Ġtask": 3853,
      "ĠOct": 3854,
      "Ġlen": 3855,
      "inese": 3856,
      "Ġsolutions": 3857,
      "Ġrare": 3858,
      "ĠLear": 3859,
      "Ġconcerns": 3860,
      "known": 3861,
      "Ġfeature": 3862,
      "Ġarchitect": 3863,
      "Ġeffort": 3864,
      "ĠServ": 3865,
      "Ġexactly": 3866,
      "Ġcharacters": 3867,
      "Ġalg": 3868,
      "AP": 3869,
      "Ġdescribed": 3870,
      "urt": 3871,
      "ĠThen": 3872,
      "Ġexpand": 3873,
      "Ġweb": 3874,
      "Ġnothing": 3875,
      "Ġsites": 3876,
      "eper": 3877,
      "rogen": 3878,
      "ocr": 3879,
      "ensity": 3880,
      "Ġdecisions": 3881,
      "Ġexposure": 3882,
      "ĠJesus": 3883,
      "Ġscen": 3884,
      "index": 3885,
      "ĠCalifornia": 3886,
      "Ġconnection": 3887,
      "Ġmiddle": 3888,
      "Ġburn": 3889,
      "Ġbott": 3890,
      "Ġgives": 3891,
      "Ġdead": 3892,
      "Ġnarr": 3893,
      "ĠDuring": 3894,
      "Ġsave": 3895,
      "igenous": 3896,
      "Ġaffected": 3897,
      "Ġconstruction": 3898,
      "These": 3899,
      "ĠMarch": 3900,
      "Ġorganization": 3901,
      "Ġidentity": 3902,
      "ĠEl": 3903,
      "AD": 3904,
      "Ġice": 3905,
      "Ġinstru": 3906,
      "Ġallowing": 3907,
      "RO": 3908,
      "Ġcontemporary": 3909,
      "ĠAmericans": 3910,
      "ĊĠĠĠĠĠ": 3911,
      "Ġnucle": 3912,
      "ests": 3913,
      "Ġallowed": 3914,
      "elines": 3915,
      "usion": 3916,
      "Ġnearly": 3917,
      "Ġmid": 3918,
      "Ġfollowed": 3919,
      "ibly": 3920,
      "ned": 3921,
      "Ġplanet": 3922,
      "Ġacqu": 3923,
      "uration": 3924,
      "Ġrecently": 3925,
      "ĠWell": 3926,
      "Ġhimself": 3927,
      "Ġmut": 3928,
      "Ġhous": 3929,
      "Ġmaxim": 3930,
      "Ġleave": 3931,
      "Ġgoes": 3932,
      "works": 3933,
      "urb": 3934,
      "Ġrule": 3935,
      "Ġbacteria": 3936,
      "Ġmig": 3937,
      "Ġplatform": 3938,
      "Ġswe": 3939,
      "Ġolder": 3940,
      "orthern": 3941,
      "ME": 3942,
      "Ġplanning": 3943,
      "Ġweather": 3944,
      "Ġguide": 3945,
      "Ġgoals": 3946,
      "ĠRed": 3947,
      "xi": 3948,
      "comes": 3949,
      "Ġbeautiful": 3950,
      "Ġreduced": 3951,
      "ero": 3952,
      "Ġmiss": 3953,
      "Ġded": 3954,
      "orage": 3955,
      "ĠAccording": 3956,
      "pan": 3957,
      "Ġfresh": 3958,
      "Ġconnections": 3959,
      "Ġtechnologies": 3960,
      "Ġscale": 3961,
      "While": 3962,
      "vis": 3963,
      ":**": 3964,
      "itis": 3965,
      "Ġbackground": 3966,
      "ĠHol": 3967,
      "Ġinfect": 3968,
      "Ġhol": 3969,
      "och": 3970,
      "Ġstandards": 3971,
      "Ġpow": 3972,
      "mosp": 3973,
      "Ġfuel": 3974,
      "rees": 3975,
      "ogle": 3976,
      "model": 3977,
      "loc": 3978,
      "Ġsugar": 3979,
      "gy": 3980,
      "Ġheard": 3981,
      "Ġbox": 3982,
      "tes": 3983,
      "Ġfib": 3984,
      "Ġborn": 3985,
      "ilit": 3986,
      "Ġsurrounding": 3987,
      "aled": 3988,
      "ĠRiver": 3989,
      "Ġvalid": 3990,
      "Ġbul": 3991,
      "Ġlargest": 3992,
      "ĠEngland": 3993,
      "Ġstyle": 3994,
      "ulum": 3995,
      "Ġnavig": 3996,
      "ogen": 3997,
      "Ġqual": 3998,
      "plications": 3999,
      "Ġdivers": 4000,
      "ĠCanada": 4001,
      "cons": 4002,
      "Ġrelevant": 4003,
      "Ġcore": 4004,
      "ags": 4005,
      "see": 4006,
      "Ġcelebr": 4007,
      "Ġcold": 4008,
      "Ġperhaps": 4009,
      "Ġfascinating": 4010,
      "rael": 4011,
      "Ġhyp": 4012,
      "Ġalone": 4013,
      "Ġden": 4014,
      "Ġsummer": 4015,
      "ĠJune": 4016,
      "ĠFurther": 4017,
      "force": 4018,
      "Ġrock": 4019,
      "ĠInter": 4020,
      "reme": 4021,
      "Ġeffectively": 4022,
      "iliar": 4023,
      "ĠOnce": 4024,
      "Ġmember": 4025,
      "Ġ}": 4026,
      "Ġbasis": 4027,
      "Ġapprox": 4028,
      "Ġconfig": 4029,
      "Ġpeace": 4030,
      "Ġgender": 4031,
      "Ġapplied": 4032,
      "Ġcompletely": 4033,
      "Ġequal": 4034,
      "Int": 4035,
      "rupt": 4036,
      "Ġstra": 4037,
      "Ġdecided": 4038,
      "ĠIS": 4039,
      "ĠSept": 4040,
      "ffect": 4041,
      "edom": 4042,
      "mitted": 4043,
      "Ġelement": 4044,
      "Ġworth": 4045,
      "Ġtou": 4046,
      "aste": 4047,
      "Ġcoast": 4048,
      "Ġdistance": 4049,
      "ĠAugust": 4050,
      "Ġsetting": 4051,
      "can": 4052,
      "ĠKe": 4053,
      "Ġpolicies": 4054,
      "Ġpromote": 4055,
      "ĠAssoci": 4056,
      "Ġdefault": 4057,
      "Ġwrong": 4058,
      "mp": 4059,
      "ĠPress": 4060,
      "Ġcoll": 4061,
      "men": 4062,
      "ros": 4063,
      "Ġpurch": 4064,
      "ounc": 4065,
      "Ġinvolve": 4066,
      "Ġlayer": 4067,
      "atus": 4068,
      "Ġacademic": 4069,
      "Ġdistinct": 4070,
      "Ġprinc": 4071,
      "ara": 4072,
      "ĠUse": 4073,
      "Ġteeth": 4074,
      "Ġcop": 4075,
      "Ġfindings": 4076,
      "Ġpy": 4077,
      "Ġnorth": 4078,
      "ht": 4079,
      "Ġfather": 4080,
      "Ġtru": 4081,
      "--------------------------------": 4082,
      "cipl": 4083,
      "Ġdetect": 4084,
      "iding": 4085,
      "Ġhosp": 4086,
      "Ġfully": 4087,
      "edia": 4088,
      "info": 4089,
      "user": 4090,
      "ĠDav": 4091,
      "Ġrise": 4092,
      "Ġeducational": 4093,
      "ĠChinese": 4094,
      "Ġanti": 4095,
      "ico": 4096,
      "Ġsurg": 4097,
      "era": 4098,
      "Ġcand": 4099,
      "sub": 4100,
      "ĠToday": 4101,
      "CO": 4102,
      "Ġemail": 4103,
      "Ġfix": 4104,
      "Ġrunning": 4105,
      "Ġnote": 4106,
      "Ġfigure": 4107,
      "ĠEducation": 4108,
      "Ġcurrently": 4109,
      "rical": 4110,
      "âĢĿ.": 4111,
      "ĠDay": 4112,
      "conn": 4113,
      "Ġmathemat": 4114,
      "Ġeconomy": 4115,
      "Ġmath": 4116,
      "Ġsigns": 4117,
      "ĠWilli": 4118,
      "Ġemotional": 4119,
      "ees": 4120,
      "ĠApril": 4121,
      "cohol": 4122,
      "Ġwatch": 4123,
      "ica": 4124,
      "Ġrepe": 4125,
      "izer": 4126,
      "lam": 4127,
      "itutions": 4128,
      "Ġson": 4129,
      "Ġinstruct": 4130,
      "hest": 4131,
      "Ġbodies": 4132,
      "Ġimag": 4133,
      "Ġenter": 4134,
      "Ġmoving": 4135,
      "ĠMc": 4136,
      "Ġprofession": 4137,
      "Ġmap": 4138,
      "Ġmob": 4139,
      "Ġrisks": 4140,
      "Ġpet": 4141,
      "Ġgiving": 4142,
      "Ġwanted": 4143,
      "Ġworked": 4144,
      "Ġschol": 4145,
      "Ġoccurs": 4146,
      "Ġwrote": 4147,
      "([": 4148,
      "len": 4149,
      "AM": 4150,
      "aul": 4151,
      "ĠConst": 4152,
      "Ġjoint": 4153,
      "ford": 4154,
      "Ġmiles": 4155,
      "Ġinsights": 4156,
      "Ġcomfort": 4157,
      "Ġlived": 4158,
      "Ġevolution": 4159,
      "Ġmaster": 4160,
      "ĠRead": 4161,
      "ta": 4162,
      "Ġwoman": 4163,
      "Ġcoming": 4164,
      "Ġalternative": 4165,
      "Ġcry": 4166,
      "Ġspecifically": 4167,
      "ION": 4168,
      "Ġassum": 4169,
      "ĠPark": 4170,
      "Ġreality": 4171,
      "Ġord": 4172,
      "hab": 4173,
      "Ġpicture": 4174,
      "ĠFalse": 4175,
      "Ġextrem": 4176,
      "Ġpassed": 4177,
      "idden": 4178,
      "Is": 4179,
      "rab": 4180,
      "ĠAre": 4181,
      "ĠJuly": 4182,
      "Ġfactor": 4183,
      "Ġchoice": 4184,
      "ĠSoci": 4185,
      "Ġlat": 4186,
      "Ġcapacity": 4187,
      "ĠGovern": 4188,
      "IL": 4189,
      "ashington": 4190,
      "pped": 4191,
      "Ġoccup": 4192,
      "rief": 4193,
      "Ġking": 4194,
      "yd": 4195,
      "Ġcities": 4196,
      "ping": 4197,
      "Ġgir": 4198,
      "ĠCur": 4199,
      "Ġsouth": 4200,
      "Ġintellig": 4201,
      "net": 4202,
      "ĠCity": 4203,
      "Ġcompar": 4204,
      "trans": 4205,
      "ĠPat": 4206,
      "EL": 4207,
      "Ġadjust": 4208,
      "Ġfinding": 4209,
      "Ġtrend": 4210,
      "Ġcontract": 4211,
      "run": 4212,
      "Ġphen": 4213,
      "Ġgenetic": 4214,
      "Ġindex": 4215,
      "Ġimagine": 4216,
      "Ġsurpr": 4217,
      "ondon": 4218,
      "ĠChurch": 4219,
      "icip": 4220,
      "craft": 4221,
      "Ġdistribution": 4222,
      "lin": 4223,
      "aur": 4224,
      "ĠPeople": 4225,
      "ĠUnderstanding": 4226,
      "Ġrand": 4227,
      "Ġgold": 4228,
      "ama": 4229,
      "Ġfaith": 4230,
      "Ġtopic": 4231,
      "related": 4232,
      "ename": 4233,
      "Ġassist": 4234,
      "Ġweak": 4235,
      "Let": 4236,
      "Ġcitizens": 4237,
      "bal": 4238,
      "Ġdied": 4239,
      "oses": 4240,
      "Ġsociet": 4241,
      "False": 4242,
      "ĠTest": 4243,
      "Ġchanged": 4244,
      "Ġfamous": 4245,
      "Ġstore": 4246,
      "ĠDon": 4247,
      "Ġfederal": 4248,
      "Ġgames": 4249,
      "**:": 4250,
      "norm": 4251,
      "Ġbirds": 4252,
      "ham": 4253,
      "anging": 4254,
      ");": 4255,
      "wards": 4256,
      "mark": 4257,
      "Ġoperations": 4258,
      "Ġillness": 4259,
      "Ġfemale": 4260,
      "ĠHigh": 4261,
      "board": 4262,
      "ses": 4263,
      "ĠPresident": 4264,
      "elcome": 4265,
      "tical": 4266,
      "ching": 4267,
      "Ġrefers": 4268,
      "ias": 4269,
      "ĠIsrael": 4270,
      "Ġnutri": 4271,
      "ares": 4272,
      "Ġresistance": 4273,
      "Ġactual": 4274,
      "Ġcommonly": 4275,
      "ĠCong": 4276,
      "ĠJournal": 4277,
      "ĠChapter": 4278,
      "array": 4279,
      "Ġhappens": 4280,
      "Ġcommerc": 4281,
      "Ġeasier": 4282,
      "Ġregions": 4283,
      "Ġsexual": 4284,
      "cast": 4285,
      "'.": 4286,
      "ĠBlack": 4287,
      "ĠChar": 4288,
      "Ġrequirements": 4289,
      "enty": 4290,
      "Ġplaced": 4291,
      "Ġbecoming": 4292,
      "Ġdeeper": 4293,
      "orith": 4294,
      "rid": 4295,
      "Ġstrength": 4296,
      "à¤": 4297,
      "Ġatmosp": 4298,
      "Ġformer": 4299,
      "rix": 4300,
      "going": 4301,
      "cember": 4302,
      "Ġexhib": 4303,
      "Ġhelping": 4304,
      "Ġexperiment": 4305,
      "Ġrat": 4306,
      "comm": 4307,
      "ĠSince": 4308,
      "xiety": 4309,
      "Ġpresence": 4310,
      "anish": 4311,
      "Ġsample": 4312,
      "ructure": 4313,
      "Ġhappen": 4314,
      "ifying": 4315,
      "Ġprice": 4316,
      "Ġtrack": 4317,
      "zing": 4318,
      "Ġpregn": 4319,
      "Ġpopulations": 4320,
      "Ġevol": 4321,
      "Ġanyone": 4322,
      "do": 4323,
      "Ġthousands": 4324,
      "Ġexcess": 4325,
      "Ġidentified": 4326,
      "Ġfeeling": 4327,
      "Ġformed": 4328,
      "ĠChe": 4329,
      "Ġmonit": 4330,
      "Ġvital": 4331,
      "Ġstarting": 4332,
      "Ġdrugs": 4333,
      "Ġsem": 4334,
      "Ġunivers": 4335,
      "Ġwinter": 4336,
      "Ġchanging": 4337,
      "Ġvary": 4338,
      "Ġshowed": 4339,
      "Ġurban": 4340,
      "aign": 4341,
      "Ġreducing": 4342,
      "Ġrot": 4343,
      "Ġsharing": 4344,
      "Ġdiabetes": 4345,
      "Ġprepar": 4346,
      "call": 4347,
      "Ġremove": 4348,
      "Ġexpression": 4349,
      "ĠUnion": 4350,
      "Ġfruit": 4351,
      "Ġdefined": 4352,
      "ĠMex": 4353,
      "omb": 4354,
      "ĠLab": 4355,
      "Ġforeign": 4356,
      "Ġcounter": 4357,
      "aters": 4358,
      "Ġopin": 4359,
      "ĠSpec": 4360,
      "Ġgets": 4361,
      "ĠEast": 4362,
      "Ġtopics": 4363,
      "Ġsolid": 4364,
      "Ġlabel": 4365,
      "Ġrandom": 4366,
      "Sh": 4367,
      "dis": 4368,
      "ĠTr": 4369,
      "Ġattract": 4370,
      "eline": 4371,
      "ĠLaw": 4372,
      "Ġdirection": 4373,
      "Ġunf": 4374,
      "Ġadvanced": 4375,
      "Ġhealthcare": 4376,
      "Ġeventually": 4377,
      "Ġtasks": 4378,
      "Ġmal": 4379,
      "ĠVir": 4380,
      "ĠDNA": 4381,
      "field": 4382,
      "Ġletter": 4383,
      "gs": 4384,
      "Ġmouth": 4385,
      "Ġ[]": 4386,
      "ache": 4387,
      "iveness": 4388,
      "ĠCounty": 4389,
      "Se": 4390,
      "etime": 4391,
      "Ġconnected": 4392,
      "Ġcomprehens": 4393,
      "Ġtox": 4394,
      "Ġwa": 4395,
      "gl": 4396,
      "ouncil": 4397,
      "Ġfeelings": 4398,
      "roy": 4399,
      "Ġsituations": 4400,
      "house": 4401,
      "Ġball": 4402,
      "Ġplans": 4403,
      "Ġvill": 4404,
      "Ġadvance": 4405,
      "semb": 4406,
      "ovember": 4407,
      "Ġboard": 4408,
      "Ġfilled": 4409,
      "np": 4410,
      "ĠJewish": 4411,
      "Ġmentioned": 4412,
      "Ġhair": 4413,
      "Ġimmune": 4414,
      "Ġstim": 4415,
      "Ġreaders": 4416,
      "ĠAlso": 4417,
      "Ġready": 4418,
      "Ġresulting": 4419,
      "Ġpen": 4420,
      "Ġunc": 4421,
      "Ġawareness": 4422,
      "Ġconsumption": 4423,
      "iable": 4424,
      "train": 4425,
      "ĠPy": 4426,
      "Ġpartners": 4427,
      "Ġlessons": 4428,
      "Ġhop": 4429,
      "Ġglass": 4430,
      "orb": 4431,
      "Ġdespite": 4432,
      "Ġbond": 4433,
      "lay": 4434,
      "ĠWashington": 4435,
      "Ġcausing": 4436,
      "Ġsort": 4437,
      "ightly": 4438,
      "PA": 4439,
      "Ġpieces": 4440,
      "ĠĠĠĠĠ": 4441,
      "Ġtrain": 4442,
      "Ġconclusion": 4443,
      "Ġseparate": 4444,
      "ĠSeptember": 4445,
      "Some": 4446,
      "ĠJanuary": 4447,
      "ĠOctober": 4448,
      "hips": 4449,
      "Ġign": 4450,
      "ĠAdditionally": 4451,
      "Ġsac": 4452,
      "Ġlib": 4453,
      "cking": 4454,
      "ĠConf": 4455,
      "ĠBi": 4456,
      "However": 4457,
      "Ġblue": 4458,
      "Ġtele": 4459,
      "Ġbed": 4460,
      "Ġplaying": 4461,
      "amental": 4462,
      "encing": 4463,
      "Ġthoughts": 4464,
      "Ġchance": 4465,
      "ĠRoman": 4466,
      "ether": 4467,
      "Ġspect": 4468,
      "Ġexperim": 4469,
      "Ġdial": 4470,
      "atin": 4471,
      "Ġeight": 4472,
      "Ġtechnique": 4473,
      "iest": 4474,
      "Ġpref": 4475,
      "ped": 4476,
      "Ġgarden": 4477,
      "Ġinterpret": 4478,
      "rops": 4479,
      "pected": 4480,
      "Ġbelieved": 4481,
      "Ġapproaches": 4482,
      "Ġexperienced": 4483,
      "ube": 4484,
      "down": 4485,
      "Ġinfl": 4486,
      "ĠAut": 4487,
      "Ġpick": 4488,
      "Ġid": 4489,
      "HE": 4490,
      "Ġvision": 4491,
      "Ġincreases": 4492,
      "ĠDef": 4493,
      "ĠArch": 4494,
      "dat": 4495,
      "ĠBo": 4496,
      "Ġhom": 4497,
      "US": 4498,
      "Ġgave": 4499,
      "Ad": 4500,
      "Ġstaff": 4501,
      "Ġrow": 4502,
      "rant": 4503,
      "Ġexpert": 4504,
      "rick": 4505,
      "Ġdepending": 4506,
      "Ġsustainable": 4507,
      "Ġmanage": 4508,
      "ophy": 4509,
      "Ġmedicine": 4510,
      "Ġerror": 4511,
      "OT": 4512,
      "Ġbaby": 4513,
      "Ġencourage": 4514,
      "All": 4515,
      "Ġ+=": 4516,
      "Ġcultures": 4517,
      "ĠGermany": 4518,
      "rome": 4519,
      "Ġbelong": 4520,
      "Ġcompl": 4521,
      "input": 4522,
      "Ġdivid": 4523,
      "Ġmission": 4524,
      "ĠLondon": 4525,
      "Ġpresented": 4526,
      "Ġoutcomes": 4527,
      "OS": 4528,
      "ĠFeb": 4529,
      "Ġbillion": 4530,
      "Ġnative": 4531,
      "Ġprofessor": 4532,
      "iance": 4533,
      "Ġobserved": 4534,
      "Ġchurch": 4535,
      "Ġcontrast": 4536,
      "Ġfrequently": 4537,
      "Ġappears": 4538,
      "Ġcogn": 4539,
      "Ġrelatively": 4540,
      "ĠRel": 4541,
      "PS": 4542,
      "Ġincome": 4543,
      "Ġclasses": 4544,
      "Ġ{}": 4545,
      "Ġwalk": 4546,
      "raction": 4547,
      "ographic": 4548,
      "arser": 4549,
      "lor": 4550,
      "Ġbusinesses": 4551,
      "Ġengage": 4552,
      "Ġcolumn": 4553,
      "respond": 4554,
      "Ġwonder": 4555,
      "Ġmajority": 4556,
      "orch": 4557,
      "Ġconv": 4558,
      "Ġemissions": 4559,
      "Ġ...": 4560,
      "hand": 4561,
      "fe": 4562,
      "Ġplays": 4563,
      "Ġsuggests": 4564,
      "resents": 4565,
      "Ġtruth": 4566,
      "gra": 4567,
      "Ġbuy": 4568,
      "Ġdiscussion": 4569,
      "Ġhelped": 4570,
      "asion": 4571,
      "Ġlanguages": 4572,
      "ĠProf": 4573,
      "Ġfiles": 4574,
      "alt": 4575,
      "url": 4576,
      "rieved": 4577,
      "Ġonto": 4578,
      "After": 4579,
      "alle": 4580,
      "Ġcircum": 4581,
      "Ġrecords": 4582,
      "Ph": 4583,
      "tered": 4584,
      "Ġadvent": 4585,
      "urance": 4586,
      "Here": 4587,
      "Ġheavy": 4588,
      "Ġfelt": 4589,
      "ris": 4590,
      "Ġreference": 4591,
      "Ġtissue": 4592,
      "ĠThus": 4593,
      "Ġcoord": 4594,
      "Ġsounds": 4595,
      "Ġcreation": 4596,
      "cap": 4597,
      "ressive": 4598,
      "čĊĠĠĠĠĠĠĠĠĠĠĠ": 4599,
      "ĠBar": 4600,
      "Ġprocessing": 4601,
      "antic": 4602,
      "Ġap": 4603,
      "no": 4604,
      "Ġoffice": 4605,
      "orge": 4606,
      "Ġtransfer": 4607,
      "Ġinternal": 4608,
      "hetic": 4609,
      "Ġplastic": 4610,
      "Ġheight": 4611,
      "gypt": 4612,
      "Ġcharacteristics": 4613,
      "ĠAustralia": 4614,
      "ĠCor": 4615,
      "ygen": 4616,
      "flow": 4617,
      "abase": 4618,
      "Ġoption": 4619,
      "ĠSom": 4620,
      "Ġformat": 4621,
      "Ġfert": 4622,
      "Ġriver": 4623,
      "ĠEnvironment": 4624,
      "UT": 4625,
      "Ġimproved": 4626,
      "ĠSur": 4627,
      "Ġreports": 4628,
      "qual": 4629,
      "cular": 4630,
      "Ġincreasingly": 4631,
      "code": 4632,
      "Ġâ": 4633,
      "uit": 4634,
      "level": 4635,
      "count": 4636,
      "Ġprefer": 4637,
      "ĠWestern": 4638,
      "Ġturned": 4639,
      "ĠWater": 4640,
      "annel": 4641,
      "ĠDecember": 4642,
      "arning": 4643,
      "Ġmotiv": 4644,
      "othes": 4645,
      "ĠFrance": 4646,
      "Ġdisorder": 4647,
      "ĠBecause": 4648,
      "Ġliqu": 4649,
      "ĠSan": 4650,
      "Ġimmediately": 4651,
      "Ġsav": 4652,
      "icon": 4653,
      "Ġalcohol": 4654,
      "Ġnotes": 4655,
      "Ġensuring": 4656,
      "ĠGeneral": 4657,
      "Ġdisorders": 4658,
      "Ġmist": 4659,
      "ributed": 4660,
      "ĠUK": 4661,
      "Ġengineering": 4662,
      "Ġmuscle": 4663,
      "action": 4664,
      "Ġclinical": 4665,
      "Ġrepresents": 4666,
      "Ġclassroom": 4667,
      "vision": 4668,
      "Ġmale": 4669,
      "iced": 4670,
      "Ġindustrial": 4671,
      "Ġgene": 4672,
      "rame": 4673,
      "Ġrace": 4674,
      "Ġconflict": 4675,
      "Ġinstitutions": 4676,
      "ded": 4677,
      "ĠSol": 4678,
      "rest": 4679,
      "Ġcolors": 4680,
      "pat": 4681,
      "ĠMedic": 4682,
      "Ġgeneration": 4683,
      "https": 4684,
      "Ġiron": 4685,
      "Ġvul": 4686,
      "Ġalgorith": 4687,
      "des": 4688,
      "Ġdiversity": 4689,
      "Ġanxiety": 4690,
      "Ġinterests": 4691,
      "Ġenhance": 4692,
      "Ġdive": 4693,
      "Ġparticipants": 4694,
      "Ġelif": 4695,
      "ĠHouse": 4696,
      "ĠExpl": 4697,
      "icense": 4698,
      "ĠSociety": 4699,
      "Ġjo": 4700,
      "road": 4701,
      "ilarly": 4702,
      "Ġrelease": 4703,
      "ruary": 4704,
      "Ġcollege": 4705,
      "being": 4706,
      "Ġtransl": 4707,
      "Ġhomes": 4708,
      "ĠData": 4709,
      "Ġcommercial": 4710,
      "Ġtrig": 4711,
      "plot": 4712,
      "ref": 4713,
      "ensions": 4714,
      "Ġmetal": 4715,
      "Ġmaintaining": 4716,
      "Ġantib": 4717,
      "ĠDi": 4718,
      "Ġ->": 4719,
      "Ġapproximately": 4720,
      "osystem": 4721,
      "ologists": 4722,
      "Ġwin": 4723,
      "Ġintroduced": 4724,
      "ING": 4725,
      "rations": 4726,
      "ĠUnit": 4727,
      "ĠAng": 4728,
      "Ġparty": 4729,
      "Ġleads": 4730,
      "Ġelim": 4731,
      "ails": 4732,
      "ĠInstead": 4733,
      "Ġviolence": 4734,
      "Ġreligion": 4735,
      "Ġchallenging": 4736,
      "Ġfacilit": 4737,
      "Ġremov": 4738,
      "Â°": 4739,
      "object": 4740,
      "Ġingred": 4741,
      "ĠNovember": 4742,
      "ixt": 4743,
      "aset": 4744,
      "Ġconsequences": 4745,
      "Ġvast": 4746,
      "azing": 4747,
      "Ġmeeting": 4748,
      "Ġmo": 4749,
      "ishing": 4750,
      "ĠEgypt": 4751,
      "oding": 4752,
      "Ġdecades": 4753,
      "Ġbreast": 4754,
      "ĠSocial": 4755,
      "Ġstorage": 4756,
      "Ġadvoc": 4757,
      "acing": 4758,
      "empl": 4759,
      "Ġclearly": 4760,
      "Ġtemperatures": 4761,
      "Ġjustice": 4762,
      "Ġfreedom": 4763,
      "ĊĊĠĠĠĠĠĠĠĠĠĠĠ": 4764,
      "ords": 4765,
      "icated": 4766,
      "Ġtour": 4767,
      "Ġfilm": 4768,
      "Ġcourt": 4769,
      "uses": 4770,
      "Ġpp": 4771,
      "Ġaren": 4772,
      "Ġhuge": 4773,
      "Ġnutrition": 4774,
      "Ġspeech": 4775,
      "Ġterrit": 4776,
      "eding": 4777,
      "ĠIts": 4778,
      "Ġfocused": 4779,
      "Ġinsect": 4780,
      "Ġunits": 4781,
      "Ġmulti": 4782,
      "Ġpractical": 4783,
      "ĠSee": 4784,
      "Ġmilk": 4785,
      "Ġbuildings": 4786,
      "ĠMoreover": 4787,
      "Ġindependent": 4788,
      "Imagine": 4789,
      "leg": 4790,
      "const": 4791,
      "Ġcareer": 4792,
      "LE": 4793,
      "akers": 4794,
      "Ġengaging": 4795,
      "Ġstrategy": 4796,
      "icial": 4797,
      "Ġemotions": 4798,
      "tee": 4799,
      "Ġpric": 4800,
      "Ġassessment": 4801,
      "UR": 4802,
      "sol": 4803,
      "enth": 4804,
      "ux": 4805,
      "Another": 4806,
      "box": 4807,
      "Ġseek": 4808,
      "Ġbatter": 4809,
      "ortunately": 4810,
      "Ġstatement": 4811,
      "omas": 4812,
      "ĠMat": 4813,
      "?\"": 4814,
      "cript": 4815,
      "Ġreplace": 4816,
      "Type": 4817,
      "gin": 4818,
      "ĠFurthermore": 4819,
      "ĠSch": 4820,
      "Ġexcell": 4821,
      "Ġkeeping": 4822,
      "oma": 4823,
      "ĠRev": 4824,
      "Mod": 4825,
      "zer": 4826,
      "vironments": 4827,
      "Ġdri": 4828,
      "ibilities": 4829,
      "Ġcreative": 4830,
      "Ġcycle": 4831,
      "Ġminor": 4832,
      "Ġstudying": 4833,
      "ĠPublic": 4834,
      "Ġtreated": 4835,
      "erved": 4836,
      "Ġsettings": 4837,
      "ĠOb": 4838,
      "itage": 4839,
      "Ġextremely": 4840,
      "Ġphenomen": 4841,
      "Ġexperts": 4842,
      "ĠAssociation": 4843,
      "shape": 4844,
      "ĠAv": 4845,
      "join": 4846,
      "atically": 4847,
      "Ġcontinues": 4848,
      "aint": 4849,
      "spec": 4850,
      "Ġinterested": 4851,
      "Ġcorrespond": 4852,
      "Ġprimarily": 4853,
      "Ġcook": 4854,
      "Ġconducted": 4855,
      "Ġdepression": 4856,
      "Ġcollabor": 4857,
      "tra": 4858,
      "ctor": 4859,
      "Ġpret": 4860,
      "ĠPal": 4861,
      "mary": 4862,
      "Ġelectricity": 4863,
      "Ġsurvey": 4864,
      "db": 4865,
      "Ġbottom": 4866,
      "Ġstar": 4867,
      "Ġju": 4868,
      "Ġtrou": 4869,
      "ĠPlan": 4870,
      "Ġisol": 4871,
      "Ġhear": 4872,
      "Ġtrib": 4873,
      "ii": 4874,
      "Ġcampaign": 4875,
      "Ġwis": 4876,
      "Ġorganic": 4877,
      "Ġpul": 4878,
      "ĠTherefore": 4879,
      "enses": 4880,
      "Ġflex": 4881,
      "][": 4882,
      "ĠHar": 4883,
      "Ġnotice": 4884,
      "then": 4885,
      "Ġwidely": 4886,
      "Ġefficiency": 4887,
      "Ġcarried": 4888,
      "iverse": 4889,
      "Ġdram": 4890,
      "Ġprepared": 4891,
      "DA": 4892,
      "ĠWhy": 4893,
      "Ġspot": 4894,
      "Why": 4895,
      "gment": 4896,
      "inn": 4897,
      "Ġlegis": 4898,
      "Ġgenerations": 4899,
      "Ġsand": 4900,
      "Ġframew": 4901,
      "Ġgrant": 4902,
      "poses": 4903,
      "Ġbud": 4904,
      "ressed": 4905,
      "ĠDevelopment": 4906,
      "ĠGreen": 4907,
      "Ġsecret": 4908,
      "ĠBra": 4909,
      "ĠWrit": 4910,
      "Ġbone": 4911,
      "rum": 4912,
      "pen": 4913,
      "result": 4914,
      "rep": 4915,
      "Ġhighest": 4916,
      "eria": 4917,
      "Ġspring": 4918,
      "Ġsynt": 4919,
      "Ġwall": 4920,
      "ĠGra": 4921,
      "Ġcombination": 4922,
      "Ġdrive": 4923,
      "Ġpros": 4924,
      "Ġstring": 4925,
      "Ġhousehold": 4926,
      "Ġextract": 4927,
      "ĠJapanese": 4928,
      "Ġfavorite": 4929,
      "da": 4930,
      "ĠAN": 4931,
      "Ġmoved": 4932,
      "Ġartists": 4933,
      "Ġmovements": 4934,
      "Ġinvent": 4935,
      "Ġperspective": 4936,
      "Ġperformed": 4937,
      "inger": 4938,
      "Ġfamiliar": 4939,
      "Ġthick": 4940,
      "Ġplayed": 4941,
      "ĠMor": 4942,
      "lege": 4943,
      "Ġrecommended": 4944,
      "They": 4945,
      "Ġconservation": 4946,
      "ĠFound": 4947,
      "Ġchronic": 4948,
      "output": 4949,
      "Ġoperation": 4950,
      "ĠUN": 4951,
      "Ġspiritual": 4952,
      "Ġsong": 4953,
      "Ġspent": 4954,
      "orial": 4955,
      "Ġfundamental": 4956,
      "Ġgather": 4957,
      "top": 4958,
      "Ġseven": 4959,
      "ĠGreek": 4960,
      "ste": 4961,
      "ologist": 4962,
      "iling": 4963,
      "ĠWilliam": 4964,
      "emic": 4965,
      "Ġworldwide": 4966,
      "oyal": 4967,
      "Ġlibrary": 4968,
      "Ġmeant": 4969,
      "Ġsignal": 4970,
      "Ġresponsibility": 4971,
      "Ġchoices": 4972,
      "Ġsaying": 4973,
      "Ġbeliefs": 4974,
      "Ġenvironments": 4975,
      "Ġfine": 4976,
      "Ġcultiv": 4977,
      "Ġvolume": 4978,
      "ĠRetrieved": 4979,
      "Ġoxygen": 4980,
      "Ġconver": 4981,
      "reed": 4982,
      "Ġvulner": 4983,
      "Ġsuppl": 4984,
      "SA": 4985,
      "Ġple": 4986,
      "Ġadding": 4987,
      "Ġprofessionals": 4988,
      "Ġconsult": 4989,
      "Ġcovered": 4990,
      "ĠMr": 4991,
      "Ġdoub": 4992,
      "ĠHuman": 4993,
      "Ġfailure": 4994,
      "Ġkid": 4995,
      "ĠProgram": 4996,
      "Ġproperly": 4997,
      "osen": 4998,
      "Ġmel": 4999,
      "Ġpoly": 5000,
      "Ġexternal": 5001,
      "process": 5002,
      "Ġuniversity": 5003,
      "Ġremind": 5004,
      "Ġpal": 5005,
      "Ġincred": 5006,
      "Ġdra": 5007,
      "Ġsyn": 5008,
      "igure": 5009,
      "ĠĠĠĠĠĠ": 5010,
      "isation": 5011,
      "Ġlandscape": 5012,
      "sec": 5013,
      "Ġsignificance": 5014,
      "imal": 5015,
      "Ġserved": 5016,
      "cal": 5017,
      "Ġembra": 5018,
      "ĠST": 5019,
      "âĢĿ,": 5020,
      "Ġhappened": 5021,
      "ĠOrgan": 5022,
      "Ġarm": 5023,
      "Ġdegrees": 5024,
      "image": 5025,
      "Ġimpacts": 5026,
      "ocal": 5027,
      "http": 5028,
      "Ġarticles": 5029,
      "Ġitem": 5030,
      "Ġcenturies": 5031,
      "Ġseeds": 5032,
      "oted": 5033,
      "ĠJames": 5034,
      "Ġtitle": 5035,
      "dim": 5036,
      "Ġlesson": 5037,
      "roph": 5038,
      "Ġadvice": 5039,
      "rence": 5040,
      "Ġcast": 5041,
      "Ġexamine": 5042,
      "Ġdogs": 5043,
      "Ġseed": 5044,
      "ĠIslam": 5045,
      "Ġplot": 5046,
      "oke": 5047,
      "Ġgenerate": 5048,
      "oper": 5049,
      "rating": 5050,
      "Ġcarefully": 5051,
      "ingly": 5052,
      "En": 5053,
      "Ġpapers": 5054,
      "dent": 5055,
      "Ġsamples": 5056,
      "Ġupper": 5057,
      "ĠCongress": 5058,
      "Ġorigin": 5059,
      "rics": 5060,
      "ĠUsing": 5061,
      "Ġocean": 5062,
      "Ġagg": 5063,
      "Ġhighlight": 5064,
      "ĠMark": 5065,
      "Ġsmart": 5066,
      "Ġmere": 5067,
      "ĠSpanish": 5068,
      "label": 5069,
      "Ġletters": 5070,
      "icians": 5071,
      "Ġround": 5072,
      "Ġclosely": 5073,
      "Ġcomponent": 5074,
      "Ġscreen": 5075,
      "Ġarray": 5076,
      "Ind": 5077,
      "ĠEvery": 5078,
      "apping": 5079,
      "Ġmer": 5080,
      "Ġsatis": 5081,
      "Ġcontaining": 5082,
      "otal": 5083,
      "Ġfinally": 5084,
      "Ġvolunt": 5085,
      "Ġroll": 5086,
      "Ġfigures": 5087,
      "Ġsend": 5088,
      "Ġwealth": 5089,
      "ĠInternet": 5090,
      "Ġpreviously": 5091,
      "ulf": 5092,
      "ĠFebruary": 5093,
      "ĠAir": 5094,
      "ĠFood": 5095,
      "ĠMary": 5096,
      "za": 5097,
      "Ġpotentially": 5098,
      "Ġimpl": 5099,
      "Ġrul": 5100,
      "othing": 5101,
      "anch": 5102,
      "Ġecosystem": 5103,
      "())": 5104,
      "Ġadop": 5105,
      "Ġamounts": 5106,
      "lines": 5107,
      "'),": 5108,
      "ĠOff": 5109,
      "last": 5110,
      "().": 5111,
      "Ġnetworks": 5112,
      "Ġinflamm": 5113,
      "Ġlooks": 5114,
      "Ġreleased": 5115,
      "ĠSub": 5116,
      "anges": 5117,
      "Cont": 5118,
      "Ġerr": 5119,
      "map": 5120,
      "Ġreferred": 5121,
      "Ġdescribe": 5122,
      "essage": 5123,
      "Data": 5124,
      "Ġinjury": 5125,
      "Ġflood": 5126,
      "rich": 5127,
      "unk": 5128,
      "Ġpurposes": 5129,
      "Col": 5130,
      "((": 5131,
      "RI": 5132,
      "Ġvegetables": 5133,
      "CC": 5134,
      "active": 5135,
      "Ġowners": 5136,
      "ball": 5137,
      "Ġhttps": 5138,
      "Ġdestroy": 5139,
      "Ġconfirm": 5140,
      "pathy": 5141,
      "ĠLa": 5142,
      "Ġaid": 5143,
      "Ġnuclear": 5144,
      "ĠBoth": 5145,
      "ĠMal": 5146,
      "Ġlinked": 5147,
      "ĠLord": 5148,
      "Ġjobs": 5149,
      "ĠVol": 5150,
      "Ġpu": 5151,
      "Ġseeking": 5152,
      "eli": 5153,
      "ollow": 5154,
      "Ġpages": 5155,
      "ĠMich": 5156,
      "estion": 5157,
      "Ġaccurate": 5158,
      "write": 5159,
      "Ġadvantage": 5160,
      "wargs": 5161,
      "Ġpresident": 5162,
      "Ġourselves": 5163,
      "rm": 5164,
      "Ġgod": 5165,
      "Ġtum": 5166,
      "Ġleaving": 5167,
      "Ġradio": 5168,
      "stream": 5169,
      "Ġstraight": 5170,
      "Ġtraditions": 5171,
      "Ġconvent": 5172,
      "Ġmeat": 5173,
      "Ġdangerous": 5174,
      "Ġremoved": 5175,
      "Ġsurgery": 5176,
      "nic": 5177,
      "Ġcapable": 5178,
      "Ġbattle": 5179,
      "Ġestimated": 5180,
      "Ġformation": 5181,
      "Ġongoing": 5182,
      "Ġcredit": 5183,
      "ida": 5184,
      "Ġpromoting": 5185,
      "Ġcomment": 5186,
      "Ġroots": 5187,
      "Ġroles": 5188,
      "Ġexplained": 5189,
      "Ġtail": 5190,
      "ĠChildren": 5191,
      "That": 5192,
      "Ġmaybe": 5193,
      "itness": 5194,
      "bi": 5195,
      "Ġmostly": 5196,
      "Ġradiation": 5197,
      "Ġreb": 5198,
      "Ġenable": 5199,
      "inations": 5200,
      "Ġpossess": 5201,
      "ĠStudents": 5202,
      "Ġpollution": 5203,
      "Ġsou": 5204,
      "Ġsets": 5205,
      ".__": 5206,
      "which": 5207,
      "inent": 5208,
      "From": 5209,
      "Ġrelative": 5210,
      "Ġotherwise": 5211,
      "Ġapart": 5212,
      "ificial": 5213,
      "Ġhorm": 5214,
      "Ġgrade": 5215,
      "Ġsubjects": 5216,
      "Ġpush": 5217,
      "Ġrecognize": 5218,
      "Ġsquare": 5219,
      "rapy": 5220,
      "ĠSy": 5221,
      "Ġvess": 5222,
      "body": 5223,
      "ipped": 5224,
      "Ġguidelines": 5225,
      "CH": 5226,
      "No": 5227,
      "anguage": 5228,
      "Ġvictim": 5229,
      "Ġneuro": 5230,
      "Ġcharg": 5231,
      "ĠEv": 5232,
      "ĠAD": 5233,
      "ĠSupp": 5234,
      "asure": 5235,
      "Ġphase": 5236,
      "[:": 5237,
      "Ġupd": 5238,
      "ĠCollege": 5239,
      "ogue": 5240,
      "ellect": 5241,
      "Ġrevolution": 5242,
      "Ġeggs": 5243,
      "MS": 5244,
      "'m": 5245,
      "Ġrain": 5246,
      "Ġdetermined": 5247,
      "aker": 5248,
      "Ġtal": 5249,
      "Ġsecure": 5250,
      "Ġargument": 5251,
      "ĠAsia": 5252,
      "aughter": 5253,
      "](": 5254,
      "ĠRemember": 5255,
      "ĠDavid": 5256,
      "ĠPhys": 5257,
      "ĠRepublic": 5258,
      "otic": 5259,
      "Ġfaced": 5260,
      "Ġatmosphere": 5261,
      "ĠProject": 5262,
      "ĠFore": 5263,
      "Ġmotor": 5264,
      "roc": 5265,
      "Ġvitamin": 5266,
      "Ġpun": 5267,
      "ij": 5268,
      "ĠWeb": 5269,
      "ypes": 5270,
      "Ġvoice": 5271,
      "ensor": 5272,
      "Ġcombined": 5273,
      "Ġnor": 5274,
      "Ġdefinition": 5275,
      "Ġtreatments": 5276,
      "ĠRef": 5277,
      "arrow": 5278,
      ".;": 5279,
      "Ġfarmers": 5280,
      "Ġgenes": 5281,
      "Ġinfections": 5282,
      "ĠImagine": 5283,
      "uted": 5284,
      "Ġsports": 5285,
      "Ġtechnical": 5286,
      "Ġintelligence": 5287,
      "Ġargs": 5288,
      "Equal": 5289,
      "Ġmonitoring": 5290,
      "ĠMake": 5291,
      "Ġgrand": 5292,
      "cs": 5293,
      "ĠProt": 5294,
      "Ġcircumst": 5295,
      "ĠCouncil": 5296,
      "Ġappreciate": 5297,
      "Ġearn": 5298,
      "Ġsupported": 5299,
      "Ġreaction": 5300,
      "ĠMet": 5301,
      "faces": 5302,
      "hist": 5303,
      "Ġfacts": 5304,
      "Pl": 5305,
      "Ġtaught": 5306,
      "ĠHave": 5307,
      "ĠBel": 5308,
      "ĠTur": 5309,
      "Ġfrequency": 5310,
      "Ġdict": 5311,
      "Many": 5312,
      "Ġannual": 5313,
      "Ġmanufacture": 5314,
      "reet": 5315,
      "riage": 5316,
      "lig": 5317,
      "Ġworry": 5318,
      "Ġinvolving": 5319,
      "iled": 5320,
      "Ġperiods": 5321,
      "ĠAlex": 5322,
      "Ġofficial": 5323,
      "rastructure": 5324,
      "Ġlooked": 5325,
      "riculum": 5326,
      "ĠLife": 5327,
      "Ġfaster": 5328,
      "Ġnoted": 5329,
      "well": 5330,
      "Ġkn": 5331,
      "CT": 5332,
      "Ġbarri": 5333,
      "Ġwhom": 5334,
      "ĠDem": 5335,
      "Ġcollaboration": 5336,
      "Ġoffered": 5337,
      "Ġknew": 5338,
      "ĠCre": 5339,
      "ald": 5340,
      "Ġspend": 5341,
      "First": 5342,
      "zy": 5343,
      "Ġcognitive": 5344,
      "Ġtalking": 5345,
      "hent": 5346,
      "pping": 5347,
      "Ġauthority": 5348,
      "asp": 5349,
      "Ġhour": 5350,
      "Ġultimately": 5351,
      "Ġnations": 5352,
      "Ġhelpful": 5353,
      "Ġrenew": 5354,
      "ndrome": 5355,
      "Ġslightly": 5356,
      "Ġanswers": 5357,
      "Ġplease": 5358,
      "ĠHel": 5359,
      "Ġcharge": 5360,
      "Ġhearing": 5361,
      "lo": 5362,
      "Ġdiscrim": 5363,
      "python": 5364,
      "Ġalign": 5365,
      "Ġshowing": 5366,
      "ĠGeorge": 5367,
      "Ġcompleted": 5368,
      "Ġgrass": 5369,
      "ĠBas": 5370,
      "essor": 5371,
      "Ġkilled": 5372,
      "Ġscholars": 5373,
      "Ġlung": 5374,
      "ĠIsland": 5375,
      "Ġmit": 5376,
      "Ġhit": 5377,
      "icks": 5378,
      "Ġideal": 5379,
      "Ġtiny": 5380,
      "isher": 5381,
      "uilding": 5382,
      "Ġconsid": 5383,
      "Ġexistence": 5384,
      "Ġreached": 5385,
      "ĠMuseum": 5386,
      "Ġstream": 5387,
      "Ġcere": 5388,
      "arp": 5389,
      "ĠHistor": 5390,
      "yles": 5391,
      "ĠOpt": 5392,
      "cell": 5393,
      "ĠClass": 5394,
      "****": 5395,
      "ĠGet": 5396,
      "ns": 5397,
      "ario": 5398,
      "iration": 5399,
      "ĠPort": 5400,
      "uster": 5401,
      "Ġsubstant": 5402,
      "return": 5403,
      "ĠFam": 5404,
      "astern": 5405,
      "OD": 5406,
      "Ġdescription": 5407,
      "Ġvent": 5408,
      "Ġexcellent": 5409,
      "Ġcris": 5410,
      "ycl": 5411,
      "Ã¡": 5412,
      "Ġtruly": 5413,
      "Ġperspectives": 5414,
      "Ġimproving": 5415,
      "ĠAdd": 5416,
      "Ġsalt": 5417,
      "Ġreduction": 5418,
      "sum": 5419,
      "Ġsmooth": 5420,
      "ossible": 5421,
      "Our": 5422,
      "pred": 5423,
      "ĠSet": 5424,
      "Ġmaximum": 5425,
      "Ġtooth": 5426,
      "ĠSun": 5427,
      "AB": 5428,
      "Ġisland": 5429,
      "Ġproposed": 5430,
      "alysis": 5431,
      "lete": 5432,
      "inant": 5433,
      "Ġdie": 5434,
      "making": 5435,
      "iant": 5436,
      "ander": 5437,
      "umber": 5438,
      "Ġtraffic": 5439,
      "Ġknows": 5440,
      "Ġenab": 5441,
      "ĠUp": 5442,
      "ĠPhD": 5443,
      "ĠBudd": 5444,
      "crete": 5445,
      "According": 5446,
      "Ġyield": 5447,
      "Ġexposed": 5448,
      "Ġobvious": 5449,
      "Ġbrief": 5450,
      "Ġkept": 5451,
      "ĠPaul": 5452,
      "Ġglob": 5453,
      "ĠSam": 5454,
      "ĠRober": 5455,
      "ĠHIV": 5456,
      "Ġphone": 5457,
      "Ġbank": 5458,
      "Ġcandid": 5459,
      "wood": 5460,
      "Ġelectrical": 5461,
      "ĠBen": 5462,
      "Ġlayers": 5463,
      "pass": 5464,
      "Field": 5465,
      "Ġparticles": 5466,
      "ĠÐ": 5467,
      "ĠSk": 5468,
      "normal": 5469,
      "Ġinterview": 5470,
      "lib": 5471,
      "ĠSuch": 5472,
      "but": 5473,
      "ĠTex": 5474,
      "Ġchemicals": 5475,
      "Ġkinds": 5476,
      "long": 5477,
      "ested": 5478,
      "Ġsolve": 5479,
      "Ġacknow": 5480,
      "ria": 5481,
      "Ġamazing": 5482,
      "Ġdeliver": 5483,
      "Ġexchange": 5484,
      "ya": 5485,
      "Ġraised": 5486,
      "icit": 5487,
      "Ġparties": 5488,
      "Ġintended": 5489,
      "ĠCath": 5490,
      "fit": 5491,
      "ĠOut": 5492,
      "Ġoperating": 5493,
      "TS": 5494,
      "ĠCult": 5495,
      "Ġsufficient": 5496,
      "Ġdiscipl": 5497,
      "Ġmuscles": 5498,
      "Ġremained": 5499,
      "Ġgoods": 5500,
      "Ġflowers": 5501,
      "ague": 5502,
      "Ġoffering": 5503,
      "More": 5504,
      "Ġcertainly": 5505,
      "ĠMount": 5506,
      "Ġdrawing": 5507,
      "Ġcoal": 5508,
      "Ġfirm": 5509,
      "Ġsche": 5510,
      "ĠArab": 5511,
      "ago": 5512,
      "ĠList": 5513,
      "Ġban": 5514,
      "json": 5515,
      "Have": 5516,
      "ĠGovernment": 5517,
      "Ġindicate": 5518,
      "Ġmotion": 5519,
      "oughly": 5520,
      "coming": 5521,
      "Ġimmig": 5522,
      "gi": 5523,
      "Ġsubsequ": 5524,
      "step": 5525,
      "New": 5526,
      "Ġcomputers": 5527,
      "nes": 5528,
      "Ġextreme": 5529,
      "Ġregional": 5530,
      "Ġselected": 5531,
      "Ġthemes": 5532,
      "Ġgovernments": 5533,
      "Ġmarg": 5534,
      "ĠService": 5535,
      "stract": 5536,
      "Ġraw": 5537,
      "ras": 5538,
      "Ġviews": 5539,
      "Ġregul": 5540,
      "win": 5541,
      "ĠKeep": 5542,
      "tenance": 5543,
      "Ġaffects": 5544,
      "ĠâĢ¦": 5545,
      "ĠÃ": 5546,
      "ĠMiddle": 5547,
      "eer": 5548,
      "Ġdepends": 5549,
      "Ġliquid": 5550,
      "Ġsett": 5551,
      "arsh": 5552,
      "ĠSer": 5553,
      "Ġhyper": 5554,
      "Ġfollows": 5555,
      "ville": 5556,
      "clusive": 5557,
      "Ġdouble": 5558,
      "Ġflat": 5559,
      "ĠJews": 5560,
      "icious": 5561,
      "ĠRich": 5562,
      "inding": 5563,
      "Ġcloser": 5564,
      "ny": 5565,
      "Ġyouth": 5566,
      "'],": 5567,
      "Ġresist": 5568,
      "ado": 5569,
      "ĠCentral": 5570,
      "Ġfruits": 5571,
      "Ġship": 5572,
      "DF": 5573,
      "cers": 5574,
      "Ġregularly": 5575,
      "Key": 5576,
      "Ġfunding": 5577,
      "aturally": 5578,
      "Ġdro": 5579,
      "---": 5580,
      "Ġnutrients": 5581,
      "itors": 5582,
      "(),": 5583,
      "Ġhappy": 5584,
      "what": 5585,
      "Ġappoint": 5586,
      "Ġconclud": 5587,
      "ictionary": 5588,
      "....": 5589,
      "Ġcreates": 5590,
      "Ġinternet": 5591,
      "Ġedge": 5592,
      "Ġfrag": 5593,
      "cest": 5594,
      "Ġreturned": 5595,
      "params": 5596,
      "Ġspaces": 5597,
      "Ġfort": 5598,
      "conomic": 5599,
      "Ġwasn": 5600,
      "Ġtexts": 5601,
      "Ġhandle": 5602,
      "group": 5603,
      "Ġthin": 5604,
      "Ġtips": 5605,
      "ĠPract": 5606,
      "Ġdiscovery": 5607,
      "Ġmort": 5608,
      "rows": 5609,
      "Ġsuggested": 5610,
      "Ġfab": 5611,
      "Ġbird": 5612,
      "Ġrein": 5613,
      "Ġasking": 5614,
      "Ġcert": 5615,
      "Ġkill": 5616,
      "ĠCourt": 5617,
      "roid": 5618,
      "ĠIN": 5619,
      "stood": 5620,
      "acific": 5621,
      "Ġhospital": 5622,
      "Ġnerv": 5623,
      "while": 5624,
      "CE": 5625,
      "den": 5626,
      "Ġmainly": 5627,
      "Ġhidden": 5628,
      "Ġinformed": 5629,
      "UN": 5630,
      "Ġbegins": 5631,
      "Ġinnovative": 5632,
      "Ġdedicated": 5633,
      "eless": 5634,
      "ifies": 5635,
      "ĠDirect": 5636,
      "band": 5637,
      "Ġmedium": 5638,
      "Ġinvestment": 5639,
      "Ġprocedure": 5640,
      "orking": 5641,
      "Ġrapidly": 5642,
      "ĠAI": 5643,
      "ĠMexico": 5644,
      "Ġabuse": 5645,
      "Ġcareful": 5646,
      "Gen": 5647,
      "ĠCivil": 5648,
      "ogether": 5649,
      "nam": 5650,
      "Ġproteins": 5651,
      "Ġtried": 5652,
      "Ġwaters": 5653,
      "Ġforced": 5654,
      "uls": 5655,
      "Ġabsol": 5656,
      "Ġdocuments": 5657,
      "Ġdoll": 5658,
      "onic": 5659,
      "ĠLearning": 5660,
      "ĠÎ": 5661,
      "ĠSecond": 5662,
      "ounced": 5663,
      "parent": 5664,
      "Ġdisapp": 5665,
      "othe": 5666,
      "Ġstorm": 5667,
      "ĠLatin": 5668,
      "plicated": 5669,
      "wid": 5670,
      "ears": 5671,
      "Ġclim": 5672,
      "Ġdiagnosis": 5673,
      "Ġsouthern": 5674,
      "Ġtoxic": 5675,
      "ĠBritain": 5676,
      "valid": 5677,
      "Ġbright": 5678,
      "Ġsupporting": 5679,
      "ĠWhite": 5680,
      "ĠHen": 5681,
      "ĠAtt": 5682,
      "Ġmoist": 5683,
      "Ġcircumstances": 5684,
      "Ġclient": 5685,
      "Ġfluid": 5686,
      "weight": 5687,
      "Ġoccurred": 5688,
      "Ġstone": 5689,
      "Ġbehaviors": 5690,
      "Ġleadership": 5691,
      "Ġprocedures": 5692,
      "post": 5693,
      "Ġprepare": 5694,
      "Äģ": 5695,
      "html": 5696,
      "Ġwindow": 5697,
      "aks": 5698,
      "Ġleader": 5699,
      "Ġstars": 5700,
      "istan": 5701,
      "ifications": 5702,
      "Ġfoundation": 5703,
      "Ġconsistent": 5704,
      "ĠDist": 5705,
      "anged": 5706,
      "Ġmanner": 5707,
      "Ġmillions": 5708,
      "Ġsuitable": 5709,
      "ĠTwo": 5710,
      "rust": 5711,
      "Ġintellect": 5712,
      "Ġsector": 5713,
      "Ġbrother": 5714,
      "ilience": 5715,
      "Ġselection": 5716,
      "Ġpoet": 5717,
      "Ġlies": 5718,
      "ĠNav": 5719,
      "Ġmode": 5720,
      "Ġyellow": 5721,
      "free": 5722,
      "Ġemployees": 5723,
      "Ġpictures": 5724,
      "Ġ!": 5725,
      "Ġstation": 5726,
      "Ġinfrastructure": 5727,
      "ĠMuslim": 5728,
      "Ġloved": 5729,
      "ĠMac": 5730,
      "instance": 5731,
      "doc": 5732,
      "Ġaccompl": 5733,
      "api": 5734,
      "Ġmorning": 5735,
      "ĠNet": 5736,
      "Ġpretty": 5737,
      "Ġera": 5738,
      "herent": 5739,
      "ĠNAS": 5740,
      "ĠSpace": 5741,
      "dden": 5742,
      "sk": 5743,
      "Ġdomestic": 5744,
      "Ġbiological": 5745,
      "Ġingredients": 5746,
      "Ġunderlying": 5747,
      "rec": 5748,
      "Ġexplan": 5749,
      "Ġskill": 5750,
      "Ġdecide": 5751,
      "atever": 5752,
      "Ġvehicle": 5753,
      "Ġjoin": 5754,
      "Ġmatch": 5755,
      "Ġinteractions": 5756,
      "Ġbow": 5757,
      "Ġnorthern": 5758,
      "yp": 5759,
      "ĠOld": 5760,
      "Ġformal": 5761,
      "method": 5762,
      "Ġdu": 5763,
      "Ġsettle": 5764,
      "Ġdrop": 5765,
      "Ġinstrument": 5766,
      "Ġprices": 5767,
      "Ġcollected": 5768,
      "Ġthor": 5769,
      "urity": 5770,
      "Ġpray": 5771,
      "HO": 5772,
      "bed": 5773,
      "Ġwear": 5774,
      "ĠTexas": 5775,
      "lick": 5776,
      "Ġwalls": 5777,
      "ools": 5778,
      "Ġobst": 5779,
      "Ġguidance": 5780,
      "ĠCam": 5781,
      "Ġinstruction": 5782,
      "ĠPost": 5783,
      "osite": 5784,
      "Although": 5785,
      "Ġelev": 5786,
      "Ġdelve": 5787,
      "Ġneighb": 5788,
      "ician": 5789,
      "Ġwet": 5790,
      "Ġharmful": 5791,
      "Ġpersist": 5792,
      "Ġappearance": 5793,
      "Ġrecorded": 5794,
      "Ġvirtual": 5795,
      "berg": 5796,
      "Ġoral": 5797,
      "verty": 5798,
      "gal": 5799,
      "Ġclick": 5800,
      "ĠTechnology": 5801,
      "filename": 5802,
      "Ġsnow": 5803,
      "Ġhaz": 5804,
      "Ġcorpor": 5805,
      "Ġpoverty": 5806,
      "IR": 5807,
      "Ġvariable": 5808,
      "exp": 5809,
      "rolog": 5810,
      "Ġsudden": 5811,
      "Ġextent": 5812,
      "ĠJe": 5813,
      "Ġdatabase": 5814,
      "rian": 5815,
      "IG": 5816,
      "Name": 5817,
      "Us": 5818,
      "Ġremark": 5819,
      "Ġlinks": 5820,
      "nel": 5821,
      "la": 5822,
      "CS": 5823,
      "ĠManagement": 5824,
      "Ġdriving": 5825,
      "ĠInc": 5826,
      "wer": 5827,
      "mas": 5828,
      "Ġfostering": 5829,
      "ĠQue": 5830,
      "Ġfacilities": 5831,
      "ups": 5832,
      "Ġcourses": 5833,
      "ĠGoogle": 5834,
      "Ġresol": 5835,
      "ĠAnother": 5836,
      "Ġfoss": 5837,
      "Ġ('": 5838,
      "Ġmoral": 5839,
      "ĠDesign": 5840,
      "ancer": 5841,
      "Ġdrinking": 5842,
      "Ġwest": 5843,
      "Ġwait": 5844,
      "assertEqual": 5845,
      "Ġdiscussed": 5846,
      "Ġfeedback": 5847,
      "Ġemergency": 5848,
      "uing": 5849,
      "rates": 5850,
      "omic": 5851,
      "Ġtro": 5852,
      "Ġdepth": 5853,
      "Ġsensitive": 5854,
      "Ġstrengthen": 5855,
      "Ġamb": 5856,
      "Ġserves": 5857,
      "Ġdetailed": 5858,
      "Ġblog": 5859,
      "ĠMart": 5860,
      "Ġentirely": 5861,
      "Ġcommunicate": 5862,
      "Ġfilter": 5863,
      "iform": 5864,
      "De": 5865,
      "Ġminimum": 5866,
      "ĠMiss": 5867,
      "Ġcutting": 5868,
      "Ġlisten": 5869,
      "Ġpresc": 5870,
      "ĠThomas": 5871,
      "check": 5872,
      "Ġfill": 5873,
      "ĠStand": 5874,
      "ĠLike": 5875,
      "Ġdefine": 5876,
      "Ġstruggle": 5877,
      "Des": 5878,
      "Ġsides": 5879,
      "ĠInf": 5880,
      "Not": 5881,
      "ĠTime": 5882,
      "Ġinstitution": 5883,
      "Ġintroduction": 5884,
      "Ġrecovery": 5885,
      "osa": 5886,
      "Ġlots": 5887,
      "Ġchain": 5888,
      "ĠSal": 5889,
      "Ġexamining": 5890,
      "Ġmessages": 5891,
      "Ġtouch": 5892,
      "Ġsen": 5893,
      "ĠBible": 5894,
      "Ġagricultural": 5895,
      "ĠBr": 5896,
      "Ġshel": 5897,
      "Ġgirls": 5898,
      "Ġperman": 5899,
      "version": 5900,
      "scale": 5901,
      "ĠPython": 5902,
      "cel": 5903,
      "that": 5904,
      "kes": 5905,
      "Ġstarts": 5906,
      "arant": 5907,
      "Ġshif": 5908,
      "Ġclaims": 5909,
      "Ġhero": 5910,
      "Ġspeaking": 5911,
      "ĠJer": 5912,
      "split": 5913,
      "ĠWork": 5914,
      "Ġcontrolled": 5915,
      "ĠEnergy": 5916,
      "Ġcomprehensive": 5917,
      "Ab": 5918,
      "Ġinnovation": 5919,
      "Ġtypical": 5920,
      "west": 5921,
      "ĠLeg": 5922,
      "Ġattacks": 5923,
      "agon": 5924,
      "Ġresponses": 5925,
      "Ġshaping": 5926,
      "Ġregulations": 5927,
      "string": 5928,
      "Ġlargely": 5929,
      "Ġstages": 5930,
      "Ġenem": 5931,
      "roke": 5932,
      "Ġaudience": 5933,
      "Ġaddressing": 5934,
      "ĠSometimes": 5935,
      "Ġmatters": 5936,
      "Ġpaid": 5937,
      "under": 5938,
      "utive": 5939,
      "ĠBay": 5940,
      "Ġvaccine": 5941,
      "position": 5942,
      "Ġlose": 5943,
      "Ġrural": 5944,
      "Ġsell": 5945,
      "Ġpark": 5946,
      "ĠPsych": 5947,
      "Ġgrown": 5948,
      "ĊĠĠĠĠĠĠĠĠĠĠĠĠĠĠĠĠĠĠĠĠĠĠĠĠĠĠĠ": 5949,
      "ĠKore": 5950,
      "Ġrecognized": 5951,
      "ceived": 5952,
      "Ġconsists": 5953,
      "create": 5954,
      "Ġchosen": 5955,
      "ditional": 5956,
      "ĠCare": 5957,
      "Ġexists": 5958,
      "ĠMedicine": 5959,
      "LA": 5960,
      "lean": 5961,
      "My": 5962,
      "Ġtraum": 5963,
      "ĠPower": 5964,
      "Ġdrink": 5965,
      "Ġliver": 5966,
      "ĠStep": 5967,
      "Ġmechanisms": 5968,
      "Ġsequence": 5969,
      "Ġcm": 5970,
      "IM": 5971,
      "Ġband": 5972,
      "Ġahead": 5973,
      "ensus": 5974,
      "Ġrestrict": 5975,
      "ĠWhe": 5976,
      "icing": 5977,
      "Ġhabitat": 5978,
      "ĠMedical": 5979,
      "ĠEmp": 5980,
      "Ġtorch": 5981,
      "Ġaccepted": 5982,
      "Ġmetab": 5983,
      "Ġintervention": 5984,
      "Ġwants": 5985,
      "Ġcars": 5986,
      "umin": 5987,
      "ĠLou": 5988,
      "Ġtrial": 5989,
      "Ġpolitics": 5990,
      "Ġnode": 5991,
      "Ġagriculture": 5992,
      "Ġancest": 5993,
      "Ġpolice": 5994,
      "ĠRec": 5995,
      "Ġfro": 5996,
      "Ġreprodu": 5997,
      "Ġweap": 5998,
      "Ġ(\"": 5999,
      "arter": 6000,
      "hi": 6001,
      "Ġadequ": 6002,
      "Ġaimed": 6003,
      "Ġassistance": 6004,
      "Ġlatest": 6005,
      "ĠMem": 6006,
      "Ġdiam": 6007,
      "Ġprompt": 6008,
      "ĠDise": 6009,
      "agers": 6010,
      "ĠSen": 6011,
      "ĠSaf": 6012,
      "ĠOF": 6013,
      "Ġcooking": 6014,
      "Ġment": 6015,
      "Ġinteraction": 6016,
      "Ġcrops": 6017,
      "Ġopening": 6018,
      "Ġopinion": 6019,
      "ĠJud": 6020,
      "Ġabsorb": 6021,
      "Ġneut": 6022,
      "Ġsuccessfully": 6023,
      "anes": 6024,
      "Ġsin": 6025,
      "Ġphr": 6026,
      "Ġstudied": 6027,
      "Ġvariables": 6028,
      "Ġfiction": 6029,
      "Ġstret": 6030,
      "Ġdut": 6031,
      "Ġnarratives": 6032,
      "ican": 6033,
      "Ġharv": 6034,
      "ĠWomen": 6035,
      "ĠMil": 6036,
      "Ġknowing": 6037,
      "Ġproport": 6038,
      "ĠFranc": 6039,
      "Ġnit": 6040,
      "Go": 6041,
      "ĠTreat": 6042,
      "Ġstem": 6043,
      "ĠCommon": 6044,
      "Ġscript": 6045,
      "ĠAny": 6046,
      "Ġbudget": 6047,
      "Ġcrisis": 6048,
      "estyle": 6049,
      "Ġwave": 6050,
      "ĠRussia": 6051,
      "oxide": 6052,
      "ava": 6053,
      "ĠVirgin": 6054,
      "gu": 6055,
      "ĠEngine": 6056,
      "expected": 6057,
      "Ġhundreds": 6058,
      "ester": 6059,
      "Ġcatch": 6060,
      "Ġserver": 6061,
      "uous": 6062,
      "Ġdivided": 6063,
      "ĠMicro": 6064,
      "erving": 6065,
      "ĠDec": 6066,
      "raint": 6067,
      "Ġindigenous": 6068,
      "ĠElect": 6069,
      "Ġreform": 6070,
      "Ġadopt": 6071,
      "Ġcouple": 6072,
      "Americ": 6073,
      "Be": 6074,
      "sis": 6075,
      "ĠBer": 6076,
      "Ġtransition": 6077,
      "Ġrelax": 6078,
      "Ġentry": 6079,
      "Ġafford": 6080,
      "ĠIr": 6081,
      "Ġdiscussions": 6082,
      "Ġprotected": 6083,
      "conds": 6084,
      "ĠNASA": 6085,
      "Ġresidents": 6086,
      "Ġmeasured": 6087,
      "rot": 6088,
      "Ġsurvival": 6089,
      "Ġdoctors": 6090,
      "Ġsession": 6091,
      "rat": 6092,
      "Ġapparent": 6093,
      "Ġdownload": 6094,
      "Ġaccounts": 6095,
      "Ġnaturally": 6096,
      "Ġcalls": 6097,
      "Most": 6098,
      "Ġallerg": 6099,
      "ĠRussian": 6100,
      "Ġacts": 6101,
      "node": 6102,
      "List": 6103,
      "Ġneighbor": 6104,
      "itudes": 6105,
      "icate": 6106,
      "Ġvehicles": 6107,
      "host": 6108,
      "Ġcritic": 6109,
      "Ġprinciple": 6110,
      "orous": 6111,
      "Ġpositions": 6112,
      "Ġparameters": 6113,
      "ĠInformation": 6114,
      "Ġsuffering": 6115,
      "perty": 6116,
      "Ġmachines": 6117,
      "Before": 6118,
      "Ġbeauty": 6119,
      "Ġgar": 6120,
      "ĠStudies": 6121,
      "ĠPacific": 6122,
      "ĠAtl": 6123,
      "Ġalt": 6124,
      "Ġuniverse": 6125,
      "racy": 6126,
      "lers": 6127,
      "Ġimplications": 6128,
      "Ġstock": 6129,
      "Ġrepresentation": 6130,
      "chers": 6131,
      "Ġhunt": 6132,
      "Ġaf": 6133,
      "Ġbrand": 6134,
      "Ġmedications": 6135,
      "Ġwalking": 6136,
      "ocratic": 6137,
      "Ġexploration": 6138,
      "Ġtherm": 6139,
      "Ġattend": 6140,
      "Ġreject": 6141,
      "Ġresilience": 6142,
      "Ġshapes": 6143,
      "Ġwaves": 6144,
      "organ": 6145,
      "iate": 6146,
      "{}": 6147,
      "Ġdepartment": 6148,
      "erals": 6149,
      "Ġtun": 6150,
      "Ġnearby": 6151,
      "aud": 6152,
      "agues": 6153,
      "main": 6154,
      "Ġethical": 6155,
      "Ġdistingu": 6156,
      "ÃŃ": 6157,
      "Ġcoff": 6158,
      "Ġconscious": 6159,
      "Ġsimpl": 6160,
      "ĠForm": 6161,
      "Ġtrends": 6162,
      "Ġastron": 6163,
      "NAME": 6164,
      "Ġcreativity": 6165,
      "rants": 6166,
      "Ġmaintenance": 6167,
      "Ġgenerated": 6168,
      "ael": 6169,
      "ĠFe": 6170,
      "Ġintric": 6171,
      "pers": 6172,
      "using": 6173,
      "Ġboundaries": 6174,
      "Ġvisible": 6175,
      "ĠAcadem": 6176,
      "ĠRights": 6177,
      "ĠSimilarly": 6178,
      "Ġunderstood": 6179,
      "Ġsan": 6180,
      "Ġstronger": 6181,
      "Ġshift": 6182,
      "Ġce": 6183,
      "van": 6184,
      "IP": 6185,
      "orrow": 6186,
      "BC": 6187,
      "Ġcardi": 6188,
      "Ġwire": 6189,
      "Ġconcerned": 6190,
      "Ġcurriculum": 6191,
      "Ġbroader": 6192,
      "Ġprevention": 6193,
      "Get": 6194,
      "Ġframe": 6195,
      "Ġwildlife": 6196,
      "Ġtells": 6197,
      "Ġimmun": 6198,
      "erent": 6199,
      "Ġconcentration": 6200,
      "Ġconfidence": 6201,
      "float": 6202,
      "Ġportion": 6203,
      "Ġmassive": 6204,
      "ĠFoundation": 6205,
      "cience": 6206,
      "Ġinner": 6207,
      "Ġframework": 6208,
      "olf": 6209,
      "ENT": 6210,
      "Ġboost": 6211,
      "ascular": 6212,
      "Ġproducing": 6213,
      "Ġsick": 6214,
      "ĠKnow": 6215,
      "Ġremaining": 6216,
      "Ġmobile": 6217,
      "Ġwife": 6218,
      "Ġkil": 6219,
      "Ġhabits": 6220,
      "inet": 6221,
      "ĠBet": 6222,
      "ĠBook": 6223,
      "Ġrig": 6224,
      "Of": 6225,
      "Ġofficials": 6226,
      "Ġimplementation": 6227,
      "ĠNews": 6228,
      "Ġassemb": 6229,
      "Ġgained": 6230,
      "ĠWind": 6231,
      "Ġsubstance": 6232,
      "Ġabilities": 6233,
      "Ġarmy": 6234,
      "Ġobtained": 6235,
      "Ġengagement": 6236,
      "Ġmanaged": 6237,
      "alian": 6238,
      "Ġmanaging": 6239,
      "Ġsweet": 6240,
      "ĠWho": 6241,
      "ums": 6242,
      "ca": 6243,
      "Ġsignals": 6244,
      "Do": 6245,
      "Ġcloud": 6246,
      "Ġgreatest": 6247,
      "Ġeast": 6248,
      "section": 6249,
      "Ġdesired": 6250,
      "Ġappeared": 6251,
      "eal": 6252,
      "Ġprogramming": 6253,
      "mic": 6254,
      "ĠExper": 6255,
      "elled": 6256,
      "Ġnarrow": 6257,
      "Ġswitch": 6258,
      "range": 6259,
      "ĠMass": 6260,
      "Ġnoise": 6261,
      "olicy": 6262,
      "img": 6263,
      "Ġwitness": 6264,
      "Ġseeing": 6265,
      "Ġsed": 6266,
      "annels": 6267,
      "Ġadvis": 6268,
      "ĠPers": 6269,
      "Ġnurs": 6270,
      "Ġfif": 6271,
      "pol": 6272,
      "Ġath": 6273,
      "Ġarchitecture": 6274,
      "ampl": 6275,
      "DE": 6276,
      "Ġexpensive": 6277,
      "Ġimprovement": 6278,
      "Ġoverl": 6279,
      "Ġconventional": 6280,
      "ĠSov": 6281,
      "Ġexplains": 6282,
      "Ġdemonstrate": 6283,
      "ads": 6284,
      "ĠControl": 6285,
      "Ġfloor": 6286,
      "ĠArmy": 6287,
      "Ġreader": 6288,
      "oto": 6289,
      "VID": 6290,
      "Ġcrim": 6291,
      "ansion": 6292,
      "request": 6293,
      "ĠCommission": 6294,
      "Ġdesigns": 6295,
      "bar": 6296,
      "Ġnan": 6297,
      "dev": 6298,
      "Ġdecrease": 6299,
      "Ġrecognition": 6300,
      "Ġpregnancy": 6301,
      "Ġexperiments": 6302,
      "ishes": 6303,
      "During": 6304,
      "Ġfold": 6305,
      "Ġtaste": 6306,
      "Test": 6307,
      "status": 6308,
      "iday": 6309,
      "Ġmanip": 6310,
      "Ġstored": 6311,
      "Ġsuc": 6312,
      "Ġimpossible": 6313,
      "Qu": 6314,
      "Ġelectronic": 6315,
      "Ġmarked": 6316,
      "Ġimper": 6317,
      "aming": 6318,
      "pet": 6319,
      "acts": 6320,
      "Ġpure": 6321,
      "ship": 6322,
      "Ġtested": 6323,
      "pha": 6324,
      "asive": 6325,
      "Ġ]": 6326,
      "Ġsentence": 6327,
      "ĠDisc": 6328,
      "Ġlocations": 6329,
      "Ġsoldiers": 6330,
      "ĠNor": 6331,
      "ka": 6332,
      "Ġsatell": 6333,
      "ipe": 6334,
      "bert": 6335,
      "cium": 6336,
      "Read": 6337,
      "Ġgun": 6338,
      "Ġpig": 6339,
      "Ġinflammation": 6340,
      "Ġfailed": 6341,
      "Ġinjuries": 6342,
      "Ġparalle": 6343,
      "values": 6344,
      "Ġcustomers": 6345,
      "Ġpersons": 6346,
      "Ġmanufacturing": 6347,
      "Ġslowly": 6348,
      "Ġprev": 6349,
      "Bl": 6350,
      "Ġbrown": 6351,
      "cules": 6352,
      "ĠRobert": 6353,
      "ultane": 6354,
      "Ġrail": 6355,
      "ashion": 6356,
      "Ġphilosophy": 6357,
      "Ġconsidering": 6358,
      "ĠTim": 6359,
      "ĉĉĉĉ": 6360,
      "oom": 6361,
      "Ġunless": 6362,
      "Ġfoster": 6363,
      "Ġtransportation": 6364,
      "iosity": 6365,
      "Ġtoler": 6366,
      "Ġclosed": 6367,
      "Ġfacing": 6368,
      "ĠDespite": 6369,
      "cher": 6370,
      "ĠDel": 6371,
      "Ġvs": 6372,
      "Ġsky": 6373,
      "rey": 6374,
      "Ġwestern": 6375,
      "Ġexercises": 6376,
      "ĠConn": 6377,
      "Ġkm": 6378,
      "Ġcapture": 6379,
      "ĠEnvironmental": 6380,
      "ota": 6381,
      "Ġrecip": 6382,
      "ĠProv": 6383,
      "Ġhoriz": 6384,
      "Ġinstructions": 6385,
      "Ġeveryday": 6386,
      "Ġparticipate": 6387,
      "Ġhorse": 6388,
      "Ġindeed": 6389,
      "Ġplayers": 6390,
      "Ġfle": 6391,
      "Ġdefic": 6392,
      "Ġenables": 6393,
      "ĠScient": 6394,
      "ĠVis": 6395,
      "Ġages": 6396,
      "ĠKey": 6397,
      "ato": 6398,
      "Ġpand": 6399,
      "Once": 6400,
      "ĠGroup": 6401,
      "Ġrevealed": 6402,
      "Ġkit": 6403,
      "Me": 6404,
      "Ġplatforms": 6405,
      "BN": 6406,
      "Ġprem": 6407,
      "Ġprison": 6408,
      "Ġexciting": 6409,
      "table": 6410,
      "================": 6411,
      "Ġagreement": 6412,
      "Ġartificial": 6413,
      "Ġtherap": 6414,
      "ĠCourse": 6415,
      "ocab": 6416,
      "Ġstick": 6417,
      "Ġcos": 6418,
      "ĠGood": 6419,
      "ĠSmith": 6420,
      "Ġmac": 6421,
      "ixture": 6422,
      "LO": 6423,
      "ĠSea": 6424,
      "Ġrhy": 6425,
      "Ġcrop": 6426,
      "otion": 6427,
      "Ġremote": 6428,
      "urd": 6429,
      "ifier": 6430,
      "Ġshop": 6431,
      "Ġderived": 6432,
      "ĠDiv": 6433,
      "Ġdental": 6434,
      "lements": 6435,
      "Ġinches": 6436,
      "ĠDet": 6437,
      "pack": 6438,
      "Ġsecondary": 6439,
      "Ġstands": 6440,
      "ML": 6441,
      "Ġcompetition": 6442,
      "ango": 6443,
      "ĠNature": 6444,
      "Ġtit": 6445,
      "dule": 6446,
      "Ġfixed": 6447,
      "Ġpil": 6448,
      "ĠIdent": 6449,
      "kwargs": 6450,
      "Ġagreed": 6451,
      "Ġpair": 6452,
      "Ġmonitor": 6453,
      "Ġincorporating": 6454,
      "Ġfloat": 6455,
      "Ġcomposition": 6456,
      "Ġrub": 6457,
      "Ġconsumers": 6458,
      "ĠTHE": 6459,
      "vity": 6460,
      "names": 6461,
      "open": 6462,
      "wo": 6463,
      "appy": 6464,
      "Ġmixed": 6465,
      "Ġphotos": 6466,
      "Ġextended": 6467,
      "Ġheritage": 6468,
      "inity": 6469,
      "Ġchart": 6470,
      "umes": 6471,
      "lected": 6472,
      "ĠLake": 6473,
      "App": 6474,
      "Ġpsychological": 6475,
      "Ġstanding": 6476,
      "ĠPhil": 6477,
      "ĠSte": 6478,
      "Ġpossibly": 6479,
      "ĠMont": 6480,
      "ĠInv": 6481,
      "Ð¾": 6482,
      "Ġusage": 6483,
      "ipping": 6484,
      "ĠFlor": 6485,
      "Ġsyndrome": 6486,
      "Ġvibr": 6487,
      "?âĢĿ": 6488,
      "Ġarrange": 6489,
      "SE": 6490,
      "Ġuns": 6491,
      "Ġforests": 6492,
      "Ġplate": 6493,
      "Ġturns": 6494,
      "Ġensures": 6495,
      "Ġdynamics": 6496,
      "Ġdepict": 6497,
      "Ġpip": 6498,
      "Dr": 6499,
      "ada": 6500,
      "Ġinspired": 6501,
      "operation": 6502,
      "rc": 6503,
      "ĠSec": 6504,
      "Ġmuseum": 6505,
      "esh": 6506,
      "Ġdirector": 6507,
      "Ð°": 6508,
      "Ġincredible": 6509,
      "Ġsole": 6510,
      "Ġrepeated": 6511,
      "Ġauthent": 6512,
      "ourse": 6513,
      "Ġdeaths": 6514,
      "default": 6515,
      "keys": 6516,
      "Val": 6517,
      "Ġpassion": 6518,
      "ien": 6519,
      "Ġevaluation": 6520,
      "Ġanalyze": 6521,
      "pace": 6522,
      "Sc": 6523,
      "ĠFin": 6524,
      "Ġshell": 6525,
      "Ġprotocol": 6526,
      "Ġmathematics": 6527,
      "ĠStudy": 6528,
      "Ġsusp": 6529,
      "ĠCatholic": 6530,
      "Ġbeneficial": 6531,
      "Ġwriter": 6532,
      "Ġpull": 6533,
      "client": 6534,
      "ini": 6535,
      "Ġexamination": 6536,
      "fortunately": 6537,
      "Ġ!=": 6538,
      "Ġbones": 6539,
      "Ġbot": 6540,
      "Ġintellectual": 6541,
      "ĠThink": 6542,
      "Ġliterary": 6543,
      "Ġagencies": 6544,
      "Ġarms": 6545,
      "Ġstated": 6546,
      "Ġtheore": 6547,
      "Ġachieved": 6548,
      "Ġunknown": 6549,
      "ĠSar": 6550,
      "Ġorganized": 6551,
      "cycl": 6552,
      "Ġmedication": 6553,
      "Ġexpectations": 6554,
      "Ġresolution": 6555,
      "ĠCD": 6556,
      "Ġvillage": 6557,
      "Conclusion": 6558,
      "Ġmarine": 6559,
      "umps": 6560,
      "Ġaccuracy": 6561,
      "UL": 6562,
      "Ġthread": 6563,
      "ĠSum": 6564,
      "Ġemployed": 6565,
      "Ġsupports": 6566,
      "Ġwhereas": 6567,
      "itivity": 6568,
      "Ġopened": 6569,
      "Ġerrors": 6570,
      "ented": 6571,
      "wing": 6572,
      "imer": 6573,
      "ĠCreat": 6574,
      "Ġwriters": 6575,
      "Ġmeaningful": 6576,
      "Ġconfident": 6577,
      "Ġscore": 6578,
      "Ġadopted": 6579,
      "Ġlimits": 6580,
      "uation": 6581,
      "Ġcategories": 6582,
      "ĠMain": 6583,
      "asters": 6584,
      "Ġdust": 6585,
      "aser": 6586,
      "nn": 6587,
      "Ġrecycl": 6588,
      "Ġdeeply": 6589,
      "erated": 6590,
      "ĠAP": 6591,
      "ĠBre": 6592,
      "Ġbio": 6593,
      "ĠComput": 6594,
      "iat": 6595,
      "Ġpowers": 6596,
      "Ġarts": 6597,
      "Ġdescribes": 6598,
      "ye": 6599,
      "Ġfunctional": 6600,
      "Ġarguments": 6601,
      "dered": 6602,
      "ĠCarol": 6603,
      "function": 6604,
      "Ġchildhood": 6605,
      "Ġethnic": 6606,
      "Ġrepresented": 6607,
      "Ġevaluate": 6608,
      "Ġarrived": 6609,
      "Ġdemonstrated": 6610,
      "orter": 6611,
      "Ġtur": 6612,
      "Ġforget": 6613,
      "dep": 6614,
      "Ġhar": 6615,
      "Ġemerging": 6616,
      "Ġreactions": 6617,
      "Ġscene": 6618,
      "Ġlect": 6619,
      "Ġcomments": 6620,
      "throp": 6621,
      "ulin": 6622,
      "Ġmanif": 6623,
      "ulating": 6624,
      "oral": 6625,
      "icking": 6626,
      "Ġexplo": 6627,
      "arity": 6628,
      "BT": 6629,
      "Ġbrings": 6630,
      "Ġconversation": 6631,
      "Ġabund": 6632,
      "Ġdistributed": 6633,
      "Ġappreciation": 6634,
      "Ġrealized": 6635,
      "Ġdynamic": 6636,
      "uh": 6637,
      "Ġfell": 6638,
      "Ġadministration": 6639,
      "Ðµ": 6640,
      "Ġdoor": 6641,
      "zen": 6642,
      "ĠAmong": 6643,
      "ĠNative": 6644,
      "Ġhouses": 6645,
      "Ġinhab": 6646,
      "Ġholds": 6647,
      "Ġlisted": 6648,
      "Ġsuffer": 6649,
      "!\"": 6650,
      "Ġrely": 6651,
      "Ġwisdom": 6652,
      "Ġextensive": 6653,
      "Ġcart": 6654,
      "ocation": 6655,
      "urns": 6656,
      "ĠCharles": 6657,
      "ĠHenry": 6658,
      ".'": 6659,
      "},": 6660,
      "essions": 6661,
      "ĠJose": 6662,
      "length": 6663,
      "hus": 6664,
      "ĠWild": 6665,
      "Ġaqu": 6666,
      "ports": 6667,
      "osc": 6668,
      "Ġworse": 6669,
      "Ġble": 6670,
      "iology": 6671,
      "Ġcollective": 6672,
      "AA": 6673,
      "Ġbehaviour": 6674,
      "Ġnegot": 6675,
      "Ġgrew": 6676,
      "Ġpump": 6677,
      "Ġaccel": 6678,
      "ĠIntroduction": 6679,
      "Ġdecline": 6680,
      "ĠWil": 6681,
      "Ġsupplement": 6682,
      "Ġindustries": 6683,
      "Ġdiss": 6684,
      "Ġflight": 6685,
      "ĠConsider": 6686,
      "SS": 6687,
      "she": 6688,
      "item": 6689,
      "world": 6690,
      "Ġfewer": 6691,
      "Ġleaf": 6692,
      "rip": 6693,
      "Ġinsurance": 6694,
      "ĠAcc": 6695,
      "Ġunus": 6696,
      "Ġtransmission": 6697,
      "Ġinfected": 6698,
      "aria": 6699,
      "Ġblocks": 6700,
      "Ġintake": 6701,
      "Ġhealing": 6702,
      "esity": 6703,
      "obj": 6704,
      "Ġzero": 6705,
      "Ġpresentation": 6706,
      "ala": 6707,
      "tage": 6708,
      "usiness": 6709,
      "color": 6710,
      "Ġratio": 6711,
      "Ġcamera": 6712,
      "Ġfertil": 6713,
      "Ġpossibility": 6714,
      "Ġtechnological": 6715,
      "Ġalongside": 6716,
      "Ġchief": 6717,
      "ĠCompany": 6718,
      "update": 6719,
      "Ġimmediate": 6720,
      "Ġmarriage": 6721,
      "ĠExt": 6722,
      "ersonal": 6723,
      "hemical": 6724,
      "Ġcoffee": 6725,
      "ributes": 6726,
      "ocracy": 6727,
      "ĠSoviet": 6728,
      "Te": 6729,
      "phone": 6730,
      "Ġcreatures": 6731,
      "athe": 6732,
      "Ġmatrix": 6733,
      "'d": 6734,
      "riend": 6735,
      "Ġnormally": 6736,
      "Ġmountain": 6737,
      "ĠOx": 6738,
      "Ġdiscrimination": 6739,
      "ena": 6740,
      "Inst": 6741,
      "Ġseemed": 6742,
      "irt": 6743,
      "Ġempathy": 6744,
      "models": 6745,
      "rons": 6746,
      "ĠLibrary": 6747,
      "pread": 6748,
      "Ġsteel": 6749,
      "Ġsurvive": 6750,
      "ĠYet": 6751,
      "Ġfighting": 6752,
      "Ġmolecules": 6753,
      "Ġtwice": 6754,
      "indu": 6755,
      "Ġdensity": 6756,
      "Ġgall": 6757,
      "Ġcomfortable": 6758,
      "ĠThose": 6759,
      "ĠPC": 6760,
      "Ġmarkets": 6761,
      "Ġreturns": 6762,
      "such": 6763,
      "ĠDiff": 6764,
      "gent": 6765,
      "ĠReview": 6766,
      "lets": 6767,
      "Ġdesire": 6768,
      "Ġnumpy": 6769,
      "Ġindicates": 6770,
      "words": 6771,
      "actions": 6772,
      "Ġnavigate": 6773,
      "Bob": 6774,
      "how": 6775,
      "Ġlearners": 6776,
      "Ġtall": 6777,
      "war": 6778,
      "Ġmissing": 6779,
      "Ġmoon": 6780,
      "Ġapplying": 6781,
      "ĠProfessor": 6782,
      "Ġcolleagues": 6783,
      "ivalent": 6784,
      "ĠSl": 6785,
      "Ġcouldn": 6786,
      "Ġauthorities": 6787,
      "Ġlatter": 6788,
      "Ġbroken": 6789,
      "Ġalle": 6790,
      "frame": 6791,
      "itative": 6792,
      "Ġwish": 6793,
      "âĢĻ.": 6794,
      "Ġdin": 6795,
      "mm": 6796,
      "omach": 6797,
      "AG": 6798,
      "ĠGlobal": 6799,
      "Ġexpressed": 6800,
      "Ġbreathing": 6801,
      "ĠCanadian": 6802,
      "ĠIP": 6803,
      "message": 6804,
      "Ġinsight": 6805,
      "Ġpursu": 6806,
      "ĠAbout": 6807,
      "Ġcompare": 6808,
      "'])": 6809,
      "Ġyounger": 6810,
      "Ġlifestyle": 6811,
      "Ġsocieties": 6812,
      "Ġadvantages": 6813,
      "ventions": 6814,
      "ĠMo": 6815,
      "Ġwilling": 6816,
      "Ġguess": 6817,
      "Ġsocietal": 6818,
      "base": 6819,
      "Ġpublication": 6820,
      "Ġprove": 6821,
      "Ġstyles": 6822,
      "Ġobservations": 6823,
      "ighter": 6824,
      "assion": 6825,
      "ctic": 6826,
      "mean": 6827,
      "sm": 6828,
      "gest": 6829,
      "Ġinject": 6830,
      "Ġnecessarily": 6831,
      "Ġpublish": 6832,
      "det": 6833,
      "cluding": 6834,
      "bra": 6835,
      "burg": 6836,
      "ĠMag": 6837,
      "ropical": 6838,
      "ribe": 6839,
      "claim": 6840,
      "Ġstrict": 6841,
      "Ġsimultane": 6842,
      "Ġgal": 6843,
      "Ġpainting": 6844,
      "idx": 6845,
      "rovers": 6846,
      "Ġupdate": 6847,
      "Ġoptimal": 6848,
      "Ġcommitment": 6849,
      "page": 6850,
      "stone": 6851,
      "Ġfant": 6852,
      "ona": 6853,
      "Ġmamm": 6854,
      "Ġlistening": 6855,
      "sor": 6856,
      "Ġcontinuous": 6857,
      "Ġhousing": 6858,
      "born": 6859,
      "aked": 6860,
      "Ġsupplies": 6861,
      "Ġcrime": 6862,
      "Ġdebate": 6863,
      "Ġaxis": 6864,
      "Act": 6865,
      "Ġ['": 6866,
      "Ġfocuses": 6867,
      "Ġagency": 6868,
      "\"),": 6869,
      "Ġshut": 6870,
      "ĠBro": 6871,
      "ĠEss": 6872,
      "Ġvulnerable": 6873,
      "Ġmyth": 6874,
      "Ġconstit": 6875,
      "edy": 6876,
      "ĠLong": 6877,
      "Ġcategory": 6878,
      "Or": 6879,
      "ĠHam": 6880,
      "Ġcompr": 6881,
      "Ġcoun": 6882,
      "PR": 6883,
      "ĠFinally": 6884,
      "Ġsucceed": 6885,
      "Ġfav": 6886,
      "Ġparticipation": 6887,
      "Through": 6888,
      "ĠEst": 6889,
      "Ġaer": 6890,
      "Ġtf": 6891,
      "adata": 6892,
      "Ġorganisms": 6893,
      "rays": 6894,
      "ibl": 6895,
      "Ġgreatly": 6896,
      "called": 6897,
      "oves": 6898,
      "Ġdomain": 6899,
      "Ġadventure": 6900,
      "escription": 6901,
      "Ġpreval": 6902,
      "ĠOnly": 6903,
      "Ġinstruments": 6904,
      "Ġaccum": 6905,
      "Ġoriginally": 6906,
      "ĠOh": 6907,
      "points": 6908,
      "ĠLouis": 6909,
      "Ġfabric": 6910,
      "Ġthereby": 6911,
      "loss": 6912,
      "ua": 6913,
      "Ġfly": 6914,
      "real": 6915,
      "Ġdepos": 6916,
      "ĠGold": 6917,
      "hav": 6918,
      "Ġelectron": 6919,
      "Ġear": 6920,
      "Ġsections": 6921,
      "dem": 6922,
      "Ġcircuit": 6923,
      "atal": 6924,
      "ĠLand": 6925,
      "Ġeld": 6926,
      "width": 6927,
      "dr": 6928,
      "Ġregist": 6929,
      "Ġdealing": 6930,
      "Ġengaged": 6931,
      "angle": 6932,
      "Ġverb": 6933,
      "Other": 6934,
      "ĠAp": 6935,
      "Ġturning": 6936,
      "idespread": 6937,
      "Ġdifficulty": 6938,
      "Ġemerged": 6939,
      "Ġbreath": 6940,
      "Ġphysics": 6941,
      "Ġphotograph": 6942,
      "cm": 6943,
      "Ġends": 6944,
      "ĠAustralian": 6945,
      "Ġartist": 6946,
      "ĠNations": 6947,
      "ployment": 6948,
      "Ġthreats": 6949,
      "ĠVirginia": 6950,
      "Ġthanks": 6951,
      "Ġfellow": 6952,
      "Ġbread": 6953,
      "ĠTem": 6954,
      "Ġmechanism": 6955,
      "ĠLanguage": 6956,
      "Ġmeal": 6957,
      "Ġholding": 6958,
      "Ġaccessible": 6959,
      "Ġorient": 6960,
      "Ġdeli": 6961,
      "ittle": 6962,
      "ĠLicense": 6963,
      "Ġindependence": 6964,
      "Ġsight": 6965,
      "Ġindu": 6966,
      "Ġconsideration": 6967,
      "ĠTre": 6968,
      "ĠEth": 6969,
      "Ġdistrict": 6970,
      "Ġwhatever": 6971,
      "holders": 6972,
      "anda": 6973,
      "III": 6974,
      "Ġguarant": 6975,
      "Ġbattery": 6976,
      "ambda": 6977,
      "Ġske": 6978,
      "hesis": 6979,
      "Ġgrid": 6980,
      "Ġteams": 6981,
      "Ġemployment": 6982,
      "fulness": 6983,
      "Ġobjective": 6984,
      "Ġmagnetic": 6985,
      "ĠRevolution": 6986,
      "Ġantibiot": 6987,
      "Ġcomplicated": 6988,
      "Ġserving": 6989,
      "ĠBefore": 6990,
      "hop": 6991,
      "Ġaircraft": 6992,
      "Ġempt": 6993,
      "Ġfunds": 6994,
      "CD": 6995,
      "target": 6996,
      "ĠNon": 6997,
      "Ġwarming": 6998,
      "Ġreliable": 6999,
      "Ġwaiting": 7000,
      "Ġstability": 7001,
      "Ġcards": 7002,
      "ao": 7003,
      "ĠCurrent": 7004,
      "oples": 7005,
      "Finally": 7006,
      "esting": 7007,
      "Ġopposite": 7008,
      "Ġbear": 7009,
      "Ġdrain": 7010,
      "ĠFrank": 7011,
      "MP": 7012,
      "allow": 7013,
      "Ġaccident": 7014,
      "Ġtrained": 7015,
      "sts": 7016,
      "gans": 7017,
      "Ġroutine": 7018,
      "Ġtrip": 7019,
      "ĠCheck": 7020,
      "Ġuncertain": 7021,
      "inction": 7022,
      "Le": 7023,
      "Ġinsects": 7024,
      "Ġdoubt": 7025,
      "zed": 7026,
      "ĠFederal": 7027,
      "obs": 7028,
      "source": 7029,
      "cor": 7030,
      "Ġmaps": 7031,
      "Ġsod": 7032,
      "]:": 7033,
      "Ġdelivery": 7034,
      "Ġtap": 7035,
      "Ġunexpected": 7036,
      "Ġoccasion": 7037,
      "press": 7038,
      "ĠParis": 7039,
      "Ġchick": 7040,
      "ĠAdv": 7041,
      "Ġsought": 7042,
      "Ġadministr": 7043,
      "pring": 7044,
      "Ġflag": 7045,
      "ĠEarly": 7046,
      "ĠCommit": 7047,
      "Ġlaun": 7048,
      "Ġmeals": 7049,
      "Ġaffecting": 7050,
      "ĠOffice": 7051,
      "RA": 7052,
      "Ġeditor": 7053,
      "ĠEmpire": 7054,
      "Ġlogging": 7055,
      "Ġconsumer": 7056,
      "Ġpreparation": 7057,
      "ictor": 7058,
      "Ġnoticed": 7059,
      "Ġmodule": 7060,
      "Ġattached": 7061,
      "Ġfalse": 7062,
      "elihood": 7063,
      "Ġspending": 7064,
      "Ġcharacterized": 7065,
      "ĠStr": 7066,
      "content": 7067,
      "Ġreduces": 7068,
      "liament": 7069,
      "Ġconcerning": 7070,
      "Ġsplit": 7071,
      "Ġstake": 7072,
      "author": 7073,
      "Ġacids": 7074,
      "Ġsubstances": 7075,
      "osph": 7076,
      "ĠRad": 7077,
      "Ġplayer": 7078,
      "Ġdemands": 7079,
      "Ġinitially": 7080,
      "issues": 7081,
      "Ġencounter": 7082,
      "ulty": 7083,
      "ĠIndigenous": 7084,
      "Ġplt": 7085,
      "bin": 7086,
      "ĠType": 7087,
      "ĠLabor": 7088,
      "Ġtheories": 7089,
      "Ġcuriosity": 7090,
      "Ġstable": 7091,
      "Ġbeings": 7092,
      "ometry": 7093,
      "jango": 7094,
      "rog": 7095,
      "rus": 7096,
      "Ġheavily": 7097,
      "Ġalter": 7098,
      ".|": 7099,
      "ette": 7100,
      "Ġfossil": 7101,
      "ĠCy": 7102,
      "Ġadm": 7103,
      "Ġcomparison": 7104,
      "ĠUSA": 7105,
      "kin": 7106,
      "Over": 7107,
      "rine": 7108,
      "Ġborder": 7109,
      "OL": 7110,
      "anches": 7111,
      "ĠOpen": 7112,
      "ĊĠĠĠĠĊĠĠĠ": 7113,
      "Ġvessels": 7114,
      "Ġcup": 7115,
      "Ġcorn": 7116,
      "Ġteen": 7117,
      "Ġbutter": 7118,
      "Ġsales": 7119,
      "Ġwidespread": 7120,
      "Ġproduces": 7121,
      "inder": 7122,
      "pare": 7123,
      "Ġsummary": 7124,
      "ipal": 7125,
      "ella": 7126,
      "Ġcalcium": 7127,
      "Ġpurchase": 7128,
      "Ġmathematical": 7129,
      "Ġenthus": 7130,
      "Under": 7131,
      "ĠEnd": 7132,
      "Ġpartner": 7133,
      "ĠDig": 7134,
      "ora": 7135,
      "ĠSym": 7136,
      "Ref": 7137,
      "Ġdrawn": 7138,
      "Ġregardless": 7139,
      "Set": 7140,
      "Ġnewsp": 7141,
      "Ġstomach": 7142,
      "Ġforth": 7143,
      "Ġcomplexity": 7144,
      "TP": 7145,
      "SP": 7146,
      "ocket": 7147,
      "ommod": 7148,
      "ĠConstitution": 7149,
      "esson": 7150,
      "Ġcompounds": 7151,
      "Ġremarkable": 7152,
      "Ġprofound": 7153,
      "Ġsurve": 7154,
      "ĠItaly": 7155,
      "ĠIll": 7156,
      "itter": 7157,
      "Ġfiber": 7158,
      "ĠFlorida": 7159,
      "ailed": 7160,
      "Ġhumanity": 7161,
      "ptions": 7162,
      "Pe": 7163,
      "Ġdf": 7164,
      "Ġunable": 7165,
      "Ġreven": 7166,
      "Ã¼": 7167,
      "comfort": 7168,
      "ĠHome": 7169,
      "icide": 7170,
      "isk": 7171,
      "reshold": 7172,
      "Chapter": 7173,
      "fold": 7174,
      "parse": 7175,
      "ĠColumb": 7176,
      "Ġdance": 7177,
      "Ob": 7178,
      "Ġnone": 7179,
      "Ġinherent": 7180,
      "ĠMill": 7181,
      "asts": 7182,
      "Ġcong": 7183,
      "Ġlic": 7184,
      "Ġtea": 7185,
      "Ġracial": 7186,
      "Ġpron": 7187,
      "ĠCOVID": 7188,
      "Ġputting": 7189,
      "Ġpermanent": 7190,
      "ĠSouthern": 7191,
      "Ġcontributions": 7192,
      "ĠAccess": 7193,
      "Ġinhib": 7194,
      "Ġlaunch": 7195,
      "ribed": 7196,
      "Ġrid": 7197,
      "Ġmood": 7198,
      "Ġadequate": 7199,
      "ĠRob": 7200,
      "Ġclothing": 7201,
      "Ġperm": 7202,
      "ishment": 7203,
      "Ġtroops": 7204,
      "Ġreserv": 7205,
      "čĊč": 7206,
      "ĠNatural": 7207,
      "Ġpreventing": 7208,
      "rd": 7209,
      "Ġsmoking": 7210,
      "ĠLib": 7211,
      "child": 7212,
      "ĠStreet": 7213,
      "Ġhus": 7214,
      "Ġconvey": 7215,
      "Ġproceed": 7216,
      "Ġinfluenced": 7217,
      "Ġjson": 7218,
      "Ġexpansion": 7219,
      "Ġdelay": 7220,
      "Rem": 7221,
      "Ġlegs": 7222,
      "Ġsurfaces": 7223,
      "MA": 7224,
      "Ġcriteria": 7225,
      "Ġhappening": 7226,
      "Since": 7227,
      "rency": 7228,
      "Stud": 7229,
      "Ġreplaced": 7230,
      "Ġswim": 7231,
      "ĠBur": 7232,
      "Ġoperate": 7233,
      "Ġoblig": 7234,
      "Ġjoined": 7235,
      "terol": 7236,
      "orph": 7237,
      "Ġtrouble": 7238,
      "ĠModern": 7239,
      "Ġsubsequent": 7240,
      "Ġoverw": 7241,
      "Ġcommitted": 7242,
      "Ġcul": 7243,
      "Ġlens": 7244,
      "opic": 7245,
      "ĠKh": 7246,
      "Ġlimitations": 7247,
      "Ġinitiatives": 7248,
      "Ġmand": 7249,
      "ĠFre": 7250,
      "draw": 7251,
      "Ġdecade": 7252,
      "Ġangle": 7253,
      "Ġconcrete": 7254,
      "Ġinsert": 7255,
      "Ġforg": 7256,
      "title": 7257,
      "ĠAnn": 7258,
      "ĠFrancis": 7259,
      "ĠISBN": 7260,
      "Ġsubstantial": 7261,
      "asy": 7262,
      "Med": 7263,
      "Ġsubs": 7264,
      "ĠRome": 7265,
      "Ġtu": 7266,
      "Ġgone": 7267,
      "ĠHaw": 7268,
      "Ġmys": 7269,
      "isters": 7270,
      "ĠTer": 7271,
      "ĠEnc": 7272,
      "rooms": 7273,
      "edge": 7274,
      "Ġasp": 7275,
      "Ġchannel": 7276,
      "Ġstreet": 7277,
      "Ġfocusing": 7278,
      "Ġcraft": 7279,
      "________": 7280,
      "ĠDisease": 7281,
      "ĠTake": 7282,
      "Ġdent": 7283,
      "Ġrefuge": 7284,
      "ĠPeter": 7285,
      "Ġcryst": 7286,
      "olesterol": 7287,
      "Ġhypothes": 7288,
      "Ġcenters": 7289,
      "EP": 7290,
      "Ġconference": 7291,
      "ĠDan": 7292,
      "Ġprotecting": 7293,
      "Ġdisturb": 7294,
      "first": 7295,
      "ĠColor": 7296,
      "ĠPub": 7297,
      "Ġconflicts": 7298,
      "Ġcolour": 7299,
      "ĠMean": 7300,
      "Ġfacilitate": 7301,
      "Ġterritory": 7302,
      "Can": 7303,
      "Ġfract": 7304,
      "earchers": 7305,
      "Par": 7306,
      "Ġvac": 7307,
      "Ġpercentage": 7308,
      "fun": 7309,
      "Ġruns": 7310,
      "Ġtut": 7311,
      "Ġchrom": 7312,
      "Ġlaboratory": 7313,
      "Ġfashion": 7314,
      "atial": 7315,
      "Ġrealize": 7316,
      "orig": 7317,
      "Ġmild": 7318,
      "Ġlabels": 7319,
      "Ġzone": 7320,
      "ulary": 7321,
      "ĠReport": 7322,
      "zil": 7323,
      "Ġreward": 7324,
      "Ġintroduce": 7325,
      "Ġq": 7326,
      "Ġgluc": 7327,
      "Ġaims": 7328,
      "vol": 7329,
      "opyright": 7330,
      "Your": 7331,
      "Ġminds": 7332,
      "Ġwouldn": 7333,
      "erior": 7334,
      "ĊĠĠĠĠĠĠĠĠĠ": 7335,
      "Ġdetection": 7336,
      "ographical": 7337,
      "Ġrice": 7338,
      "Ã³": 7339,
      "iratory": 7340,
      "Ġroof": 7341,
      "Ġseconds": 7342,
      "Ġathlet": 7343,
      "Ġpreserve": 7344,
      "asty": 7345,
      "Ġsymbols": 7346,
      "Ġru": 7347,
      "ĠAge": 7348,
      "Ġresulted": 7349,
      "Ġ{'": 7350,
      "soft": 7351,
      "Ġdecor": 7352,
      "Alice": 7353,
      "ĠOcean": 7354,
      "idity": 7355,
      "Ġcontrovers": 7356,
      "Ġintent": 7357,
      "ĠIre": 7358,
      "Ġinequ": 7359,
      "Ġreveal": 7360,
      "Ġtrials": 7361,
      "ãģ": 7362,
      "abs": 7363,
      "Ġflour": 7364,
      "Ġveter": 7365,
      "ĠDoes": 7366,
      "Ġsacr": 7367,
      "Ġgap": 7368,
      "ĠTV": 7369,
      "Ġinstalled": 7370,
      "Ġtheme": 7371,
      "eenth": 7372,
      "Ġinvestigation": 7373,
      "Ġproof": 7374,
      "current": 7375,
      "Ġjump": 7376,
      "uts": 7377,
      "Ġsheet": 7378,
      "irus": 7379,
      "agraph": 7380,
      "Ġconstitution": 7381,
      "ffective": 7382,
      "Ġstuff": 7383,
      "Ġneck": 7384,
      "Ġdaughter": 7385,
      "forcement": 7386,
      "Ġneighborhood": 7387,
      "ĠClin": 7388,
      "Ġalike": 7389,
      "Su": 7390,
      "ĠTor": 7391,
      "Ġbridge": 7392,
      "ĊĠĠĠĠĠĠĠĠĠĠĠĠ": 7393,
      "Ġmitig": 7394,
      "Ġdisrupt": 7395,
      "Ġlibr": 7396,
      "Ġrecommendations": 7397,
      "Ġidentifying": 7398,
      "ih": 7399,
      "ĠExamples": 7400,
      "SD": 7401,
      "eties": 7402,
      "Ġinterf": 7403,
      "=[": 7404,
      "Ġadj": 7405,
      "onia": 7406,
      "Ġroute": 7407,
      "Ġprominent": 7408,
      "kins": 7409,
      "ĠCap": 7410,
      "plant": 7411,
      "Ġbiggest": 7412,
      "ita": 7413,
      "Ġconven": 7414,
      "Ġreceiving": 7415,
      "Ġshot": 7416,
      "Ġencourages": 7417,
      "iated": 7418,
      "Ġfeels": 7419,
      "ĠItalian": 7420,
      "Ġgraduate": 7421,
      "Ġdepart": 7422,
      "Ġenabling": 7423,
      "conf": 7424,
      "argument": 7425,
      "Ġpassage": 7426,
      "CL": 7427,
      "ĠEastern": 7428,
      "Ġwarn": 7429,
      "Ġgram": 7430,
      "example": 7431,
      "rint": 7432,
      "Ġcurious": 7433,
      "Ġemotion": 7434,
      "Ġrelation": 7435,
      "Ġcontained": 7436,
      "Ġargue": 7437,
      "American": 7438,
      "fish": 7439,
      "Ġgradually": 7440,
      "TH": 7441,
      "hma": 7442,
      "Ġexcessive": 7443,
      "oven": 7444,
      "Ġcorner": 7445,
      "heast": 7446,
      "sey": 7447,
      "Ġthesis": 7448,
      "Ġconstantly": 7449,
      "ĠNorthern": 7450,
      "ocabulary": 7451,
      "Ġbarriers": 7452,
      "Ġdream": 7453,
      "Ġhydrogen": 7454,
      "ĠAsian": 7455,
      "ett": 7456,
      "Ġengineers": 7457,
      "initely": 7458,
      "Ġnine": 7459,
      "cho": 7460,
      "Id": 7461,
      "Ġmembr": 7462,
      "Ã¶": 7463,
      "Ġcrow": 7464,
      "Ġunw": 7465,
      "Figure": 7466,
      "Ġliv": 7467,
      "Ġentertain": 7468,
      "ĠUt": 7469,
      "ĠMad": 7470,
      "Ġintegrated": 7471,
      "Ġmerely": 7472,
      "ĠSpain": 7473,
      "outs": 7474,
      ".âĢĻ": 7475,
      "Introduction": 7476,
      "Ġproviders": 7477,
      "utch": 7478,
      "Ġneur": 7479,
      "sl": 7480,
      "icago": 7481,
      "ĠAND": 7482,
      "tery": 7483,
      "Time": 7484,
      "Ġmoves": 7485,
      "Ġdialogue": 7486,
      "Ġhole": 7487,
      "irty": 7488,
      "Ġequivalent": 7489,
      "Ġestimate": 7490,
      "Ġpra": 7491,
      "aph": 7492,
      "Ġsustainability": 7493,
      "Ġdoi": 7494,
      "Ġfounded": 7495,
      "Ġgreenhouse": 7496,
      "âĢĻ,": 7497,
      "Ġfeeding": 7498,
      "bridge": 7499,
      "Ġpresents": 7500,
      "Ġinterpretation": 7501,
      "Ġbiology": 7502,
      "Ġanalys": 7503,
      "Ġvote": 7504,
      "Ġadvert": 7505,
      "ĠJoseph": 7506,
      "Ġprinting": 7507,
      "usal": 7508,
      "Ġaccommod": 7509,
      "Ġimplemented": 7510,
      "itan": 7511,
      "Ġstatistics": 7512,
      "Ġmusical": 7513,
      "ediat": 7514,
      "uality": 7515,
      "bing": 7516,
      "ĠMult": 7517,
      "Ġsatisf": 7518,
      "Ġtwenty": 7519,
      "Ġamid": 7520,
      "OC": 7521,
      "Ed": 7522,
      "fts": 7523,
      "Ġevolved": 7524,
      "istical": 7525,
      "Ġcalculate": 7526,
      "Ġseg": 7527,
      "Ġagents": 7528,
      "Ġhonor": 7529,
      "fill": 7530,
      "Ġdifferently": 7531,
      "quality": 7532,
      "Ġcorrectly": 7533,
      "Ġeducators": 7534,
      "ĠSign": 7535,
      "Ġrecept": 7536,
      "Ġartistic": 7537,
      "Ġpossibilities": 7538,
      "Ġmoisture": 7539,
      "Ġexpertise": 7540,
      "case": 7541,
      "Ġabstract": 7542,
      "Ġnerve": 7543,
      "Ġrobust": 7544,
      "DP": 7545,
      "Ġcolonial": 7546,
      "Ġgrad": 7547,
      "Ġrising": 7548,
      "Ġtreating": 7549,
      "Ġmarried": 7550,
      "chen": 7551,
      "Ġshad": 7552,
      "Ġsupposed": 7553,
      "Ġthousand": 7554,
      "itory": 7555,
      "oving": 7556,
      "medi": 7557,
      "grad": 7558,
      "Ġwhenever": 7559,
      "earing": 7560,
      "Ġintricate": 7561,
      "mented": 7562,
      "ilation": 7563,
      "spe": 7564,
      "Ġplenty": 7565,
      "Ġended": 7566,
      "everal": 7567,
      "ontal": 7568,
      "onents": 7569,
      "Ġdivision": 7570,
      "See": 7571,
      "ĠSing": 7572,
      "Ġmyself": 7573,
      "awn": 7574,
      "Ġinterventions": 7575,
      "Ġmeasurements": 7576,
      "inates": 7577,
      "Ġconversations": 7578,
      "Ġequally": 7579,
      "Model": 7580,
      "Ġcontamin": 7581,
      "Ġmeasurement": 7582,
      "Ġepid": 7583,
      "Ġunusual": 7584,
      "Ġspok": 7585,
      "Ġinstances": 7586,
      "Ġdifficulties": 7587,
      "Ġtargets": 7588,
      "Ġlegislation": 7589,
      "################################": 7590,
      "orses": 7591,
      "Ġrelief": 7592,
      "Ġcapabilities": 7593,
      "ĠIreland": 7594,
      "ĠRoyal": 7595,
      "Ġcust": 7596,
      "Ġdioxide": 7597,
      "ikip": 7598,
      "Ġsys": 7599,
      "ĠPop": 7600,
      "Ġcombat": 7601,
      "Ġrequiring": 7602,
      "ĠTitle": 7603,
      "Ġbranch": 7604,
      "bles": 7605,
      "mes": 7606,
      "Ġmm": 7607,
      "Ġbringing": 7608,
      "Ġpool": 7609,
      "Ġphenomenon": 7610,
      "Ġestimates": 7611,
      "Ġowner": 7612,
      "Ġoutcome": 7613,
      "ushed": 7614,
      "File": 7615,
      "|'": 7616,
      "Ġdebt": 7617,
      "ĠMars": 7618,
      "Ġped": 7619,
      "Ġparallel": 7620,
      "Ġoverwhel": 7621,
      "ĠMax": 7622,
      "Ġrivers": 7623,
      "OP": 7624,
      "ĠAdminist": 7625,
      "irds": 7626,
      "Ġobjectives": 7627,
      "Ġmechanical": 7628,
      "ĠCommittee": 7629,
      "close": 7630,
      "Ġeffectiveness": 7631,
      "Ġassume": 7632,
      "ĠBC": 7633,
      "eers": 7634,
      "utils": 7635,
      "response": 7636,
      "eras": 7637,
      "ugh": 7638,
      "ĠPan": 7639,
      "Ġnic": 7640,
      "Ġnob": 7641,
      "ĠSpe": 7642,
      "andon": 7643,
      "find": 7644,
      "neys": 7645,
      "Ġcontrols": 7646,
      "esis": 7647,
      "Ġtissues": 7648,
      "Ġdestroyed": 7649,
      "Ġdiscussing": 7650,
      "Ġille": 7651,
      "ĠWhere": 7652,
      "ĠLiter": 7653,
      "Ġintegration": 7654,
      "gers": 7655,
      "antly": 7656,
      "Ġod": 7657,
      "ĠResp": 7658,
      "ĠChange": 7659,
      "Ġspecified": 7660,
      "ĠFree": 7661,
      "ceptions": 7662,
      "Ġovercome": 7663,
      "Ġsched": 7664,
      "etch": 7665,
      "Per": 7666,
      "Ġpaint": 7667,
      "Ġobesity": 7668,
      "oir": 7669,
      "Ġdiagnosed": 7670,
      "Ġran": 7671,
      "Ġacknowled": 7672,
      "Ġcomprom": 7673,
      "Ġstimul": 7674,
      "var": 7675,
      "Ġwww": 7676,
      "Ġcats": 7677,
      "lights": 7678,
      "osion": 7679,
      "Ġoutl": 7680,
      "Add": 7681,
      "Ġpassing": 7682,
      "ĠImp": 7683,
      "anta": 7684,
      "Ġalgorithms": 7685,
      "health": 7686,
      "Ġminimize": 7687,
      "Ġperforming": 7688,
      "lik": 7689,
      "Ġminerals": 7690,
      "Ġbiod": 7691,
      "Ġwel": 7692,
      "Ġclients": 7693,
      "Ġjoy": 7694,
      "Ġrepair": 7695,
      "Ġfairly": 7696,
      "Ġmeth": 7697,
      "Ġpup": 7698,
      "Ġdisput": 7699,
      "Ġnotable": 7700,
      "Ġmovie": 7701,
      "ĠCamp": 7702,
      "Ġboy": 7703,
      "batch": 7704,
      "Ġfurn": 7705,
      "Ġhistoric": 7706,
      "Ġaward": 7707,
      "itz": 7708,
      "illa": 7709,
      "Ġsolving": 7710,
      "Ġcontributing": 7711,
      "ĠPM": 7712,
      "ĠModel": 7713,
      "Ġbatch": 7714,
      "Ġexplanation": 7715,
      "Ġexplicit": 7716,
      "ĠFollow": 7717,
      "Ġfinished": 7718,
      "Ġfrequent": 7719,
      "Ġfarming": 7720,
      "Ġflav": 7721,
      "Ġcovers": 7722,
      "yroid": 7723,
      "Ġreput": 7724,
      "Ġconvert": 7725,
      "Ġhandling": 7726,
      "ĠCancer": 7727,
      "acles": 7728,
      "teen": 7729,
      "ritis": 7730,
      "ĠStart": 7731,
      "etics": 7732,
      "ĠGard": 7733,
      "Ġuniversities": 7734,
      "itical": 7735,
      "Ġrocks": 7736,
      "Ġdevelopments": 7737,
      "Ġdanger": 7738,
      "Ġcustomer": 7739,
      "ĠGeorg": 7740,
      "Ġparser": 7741,
      "Ġkne": 7742,
      "Ġmyst": 7743,
      "Ġdataset": 7744,
      "Ġalgorithm": 7745,
      "ĠBank": 7746,
      "Ġtransc": 7747,
      "Ġlights": 7748,
      "Ġexperiencing": 7749,
      "Ġcholesterol": 7750,
      ")))": 7751,
      "pop": 7752,
      "Ġmur": 7753,
      "Ġstrongly": 7754,
      "Despite": 7755,
      "ĠHistorical": 7756,
      "ĠSchol": 7757,
      "Ġships": 7758,
      "iki": 7759,
      "ĠScot": 7760,
      "Man": 7761,
      "âĢĺ": 7762,
      "root": 7763,
      "Ġstructural": 7764,
      "Ġexception": 7765,
      "Ġsimultaneously": 7766,
      "BS": 7767,
      "Ġtag": 7768,
      "tic": 7769,
      "een": 7770,
      "Ġscan": 7771,
      "Ġuniversal": 7772,
      "aws": 7773,
      "ĠAnalysis": 7774,
      "ĠRichard": 7775,
      "ĠCreate": 7776,
      "Ġorgans": 7777,
      "conc": 7778,
      "Ġforming": 7779,
      "Ġscores": 7780,
      "ĠCa": 7781,
      "Ġvideos": 7782,
      "ikipedia": 7783,
      "Ġspecialized": 7784,
      "ĠCommunity": 7785,
      "arks": 7786,
      "ĠTimes": 7787,
      ">>": 7788,
      "Ġshed": 7789,
      "[:,": 7790,
      "Ġpharm": 7791,
      "Ġneither": 7792,
      "Ġnewly": 7793,
      "ograp": 7794,
      "Ġembed": 7795,
      "Ġfest": 7796,
      "Ġvictims": 7797,
      "eries": 7798,
      "capes": 7799,
      "Ġvisitors": 7800,
      "Ġsizes": 7801,
      "Ġspin": 7802,
      "save": 7803,
      "Ġsport": 7804,
      "Ġbath": 7805,
      "Ġnervous": 7806,
      "ĠRom": 7807,
      "Ġcleaning": 7808,
      "itals": 7809,
      "car": 7810,
      "axis": 7811,
      "Ġrealm": 7812,
      "Ġassociation": 7813,
      "ĠWood": 7814,
      "raining": 7815,
      "ocy": 7816,
      "Ġnu": 7817,
      "Ġstores": 7818,
      "Ġdys": 7819,
      "ruption": 7820,
      "Ġdamaged": 7821,
      "ĠâĢ¢": 7822,
      "Ġeastern": 7823,
      "Ġrespectively": 7824,
      "Ġencouraged": 7825,
      "ĠBoard": 7826,
      "Ġtrauma": 7827,
      "Lear": 7828,
      "itt": 7829,
      "sequently": 7830,
      "Ġrepresenting": 7831,
      "ĠMa": 7832,
      "Ġelectro": 7833,
      "Ġtank": 7834,
      "Ġsessions": 7835,
      "Ġfu": 7836,
      "ĠClimate": 7837,
      "Ġvoltage": 7838,
      "Ġcircle": 7839,
      "Ġinfluences": 7840,
      "Ġcontributed": 7841,
      "Ġadds": 7842,
      "Ġoutbre": 7843,
      "Ġicon": 7844,
      "ĠInit": 7845,
      "rox": 7846,
      "ĠScott": 7847,
      "Ġfer": 7848,
      "ervice": 7849,
      "fn": 7850,
      "IA": 7851,
      "Ġ'''": 7852,
      "Ġdefe": 7853,
      "attr": 7854,
      "Ġsharp": 7855,
      "Ġpractition": 7856,
      "ĠIns": 7857,
      "Ġobserve": 7858,
      "ĠFamily": 7859,
      "Ġcorrel": 7860,
      "Ġsmoke": 7861,
      "onym": 7862,
      "ola": 7863,
      "Ġcomputing": 7864,
      "Ġstatements": 7865,
      "env": 7866,
      "ĠGuide": 7867,
      "Sub": 7868,
      "Ð¸": 7869,
      "ĠPenn": 7870,
      "agram": 7871,
      "opes": 7872,
      "Ġlaunched": 7873,
      "ĠGal": 7874,
      "Ġresident": 7875,
      "Last": 7876,
      "Ġreaching": 7877,
      "Ġpeoples": 7878,
      "Ġbigger": 7879,
      "Ġmining": 7880,
      "Ġmyster": 7881,
      "Ġbutton": 7882,
      "Today": 7883,
      "rier": 7884,
      "ctive": 7885,
      "Ġreson": 7886,
      "Ġmolecular": 7887,
      "ĠWorks": 7888,
      "ostic": 7889,
      "Ġrhyth": 7890,
      "gov": 7891,
      "Ġtack": 7892,
      "]]": 7893,
      "Ġequality": 7894,
      "ĠAgricult": 7895,
      "types": 7896,
      "Ġpoetry": 7897,
      "Ġattempts": 7898,
      "Ġintense": 7899,
      "ĠWill": 7900,
      ",'": 7901,
      "ĠEU": 7902,
      "ä¸": 7903,
      "ĠEc": 7904,
      "Ġbanks": 7905,
      "Ġblind": 7906,
      "Ġextraord": 7907,
      "gener": 7908,
      "itual": 7909,
      "Ġmice": 7910,
      "peut": 7911,
      "Ġcoastal": 7912,
      "search": 7913,
      "Ġintegr": 7914,
      "Ġtransformation": 7915,
      "ieval": 7916,
      "Ġgent": 7917,
      "Ġweapons": 7918,
      "Ġmir": 7919,
      "Ġisinstance": 7920,
      "Ġflo": 7921,
      "ĠHy": 7922,
      "Ġpsychology": 7923,
      "izers": 7924,
      "Ġobservation": 7925,
      "iences": 7926,
      "amine": 7927,
      "Ġpuzz": 7928,
      "Ġsomewhat": 7929,
      "ĠValley": 7930,
      "Ġcontainer": 7931,
      "Ġempower": 7932,
      "Ġqualities": 7933,
      "ĠMichael": 7934,
      "Ġbranches": 7935,
      "Ġcriminal": 7936,
      "ĠThough": 7937,
      "ressing": 7938,
      "files": 7939,
      "Ġregulation": 7940,
      "Ġcarb": 7941,
      "ĠSciences": 7942,
      "olesc": 7943,
      "ells": 7944,
      "ĠMaybe": 7945,
      "ĠBrown": 7946,
      "Ġ},": 7947,
      "ĠMethod": 7948,
      "Ġfriendly": 7949,
      "theless": 7950,
      "Ġinn": 7951,
      "ureau": 7952,
      "Ġwatching": 7953,
      "Ġshaped": 7954,
      "connect": 7955,
      "kl": 7956,
      "Ġauton": 7957,
      "Ġformula": 7958,
      "property": 7959,
      "Ġrom": 7960,
      "Ġempty": 7961,
      "Ġincorporate": 7962,
      "Ġissued": 7963,
      "Ġbonds": 7964,
      "Ġarchae": 7965,
      "Reg": 7966,
      "ĠHappy": 7967,
      "Ġfever": 7968,
      "View": 7969,
      "ql": 7970,
      "Ġlinear": 7971,
      "Ġfaces": 7972,
      "Ġwebsites": 7973,
      "abled": 7974,
      "aining": 7975,
      "number": 7976,
      "Ġcarrying": 7977,
      "aired": 7978,
      "ĠOR": 7979,
      "uke": 7980,
      "ĠStat": 7981,
      "ĠFind": 7982,
      "Ġmoments": 7983,
      "fast": 7984,
      "ĠReal": 7985,
      "acher": 7986,
      "athered": 7987,
      "Ġdefense": 7988,
      "Ġdigest": 7989,
      "bur": 7990,
      "Ġstroke": 7991,
      "ĠVer": 7992,
      ".\"\"\"": 7993,
      "Ġagent": 7994,
      "Ġproductivity": 7995,
      "Ġentered": 7996,
      "Ġrect": 7997,
      "Ġsitting": 7998,
      "Ġassigned": 7999,
      "Ġphoto": 8000,
      "ailable": 8001,
      "Ġboys": 8002,
      "%.": 8003,
      "Ġmos": 8004,
      "ĠNever": 8005,
      "Ġessentially": 8006,
      "igma": 8007,
      "ĠAcademy": 8008,
      "ali": 8009,
      "ĠWord": 8010,
      "Ġrank": 8011,
      "ĠSpecial": 8012,
      "ĠVictor": 8013,
      "Ġvariations": 8014,
      "Ġpoison": 8015,
      "ĠIndust": 8016,
      "Ġconstructed": 8017,
      "HD": 8018,
      "Ġpermission": 8019,
      "airy": 8020,
      "Ġinher": 8021,
      "Ġcaptured": 8022,
      "ani": 8023,
      "ĠChicago": 8024,
      "isp": 8025,
      "Ġmarks": 8026,
      "Ġcorresponding": 8027,
      "Pre": 8028,
      "Ġ),": 8029,
      "Ġchances": 8030,
      "Ġschedule": 8031,
      "Ġdescript": 8032,
      "Ġblow": 8033,
      "Ġencouraging": 8034,
      "unning": 8035,
      "Ġabandon": 8036,
      "Ġdestruction": 8037,
      "Ġcaught": 8038,
      "va": 8039,
      "Ġstead": 8040,
      "Ġupdated": 8041,
      "sim": 8042,
      "Ġviruses": 8043,
      "Ġcompassion": 8044,
      "Ġjudge": 8045,
      "HT": 8046,
      "ĠBrazil": 8047,
      "eness": 8048,
      "Ġmask": 8049,
      "Ġliteracy": 8050,
      "Ġdispl": 8051,
      "Ġplus": 8052,
      "Ġpeak": 8053,
      "Ġprinted": 8054,
      "arios": 8055,
      "rowing": 8056,
      "Text": 8057,
      "ĠTry": 8058,
      "Ġcompens": 8059,
      "Ġwellbeing": 8060,
      "Ġranging": 8061,
      "ĠChristianity": 8062,
      "ymph": 8063,
      "Ġvolcan": 8064,
      "Ġwidth": 8065,
      "orate": 8066,
      "Part": 8067,
      "ults": 8068,
      "oga": 8069,
      "amination": 8070,
      "abil": 8071,
      "apse": 8072,
      "SC": 8073,
      "random": 8074,
      "urrent": 8075,
      "rary": 8076,
      "Ġescape": 8077,
      "acco": 8078,
      "Ġactively": 8079,
      "ï¼": 8080,
      "Don": 8081,
      "Ġrobot": 8082,
      "ĠBab": 8083,
      "token": 8084,
      "Ġpersonality": 8085,
      "Ġpit": 8086,
      "asses": 8087,
      "Ġenemy": 8088,
      "Ġstrategic": 8089,
      "Ġundert": 8090,
      "ba": 8091,
      "ĠBig": 8092,
      "Ġversions": 8093,
      "Ġcyber": 8094,
      "rac": 8095,
      "ĠSecurity": 8096,
      "friend": 8097,
      "Ġsurprising": 8098,
      "Ġglucose": 8099,
      "Sp": 8100,
      "Ġmodified": 8101,
      "erring": 8102,
      "Ġefficiently": 8103,
      "IF": 8104,
      "ĠServices": 8105,
      "ĠWelcome": 8106,
      "Ġburning": 8107,
      "Ġworkshe": 8108,
      "Am": 8109,
      "She": 8110,
      "ĠLast": 8111,
      "di": 8112,
      "has": 8113,
      "quit": 8114,
      "Ġsunlight": 8115,
      "ami": 8116,
      "Ġarise": 8117,
      "Ġinspect": 8118,
      "Ġrab": 8119,
      "ano": 8120,
      "ĠYoung": 8121,
      "Ġsla": 8122,
      "column": 8123,
      "Ġimplementing": 8124,
      "ĠValue": 8125,
      "stack": 8126,
      "otton": 8127,
      "ĠViet": 8128,
      "Form": 8129,
      "Ġecosystems": 8130,
      "Ġrenewable": 8131,
      "Ġpromise": 8132,
      "Ġampl": 8133,
      "Ġmeters": 8134,
      "Ġhun": 8135,
      "ki": 8136,
      "ĠIII": 8137,
      "reek": 8138,
      "ĠWhether": 8139,
      "amins": 8140,
      "Ġawait": 8141,
      "Ġpracticing": 8142,
      "orted": 8143,
      "ĠCarolina": 8144,
      "})": 8145,
      "Ġnarrative": 8146,
      "Ġcav": 8147,
      "Ġdates": 8148,
      "Sim": 8149,
      "utrition": 8150,
      "Ġemphasis": 8151,
      "Even": 8152,
      "plete": 8153,
      "RC": 8154,
      "Ġtables": 8155,
      "Ġapproved": 8156,
      "Ġposit": 8157,
      "Ġfemales": 8158,
      "Ġmarketing": 8159,
      "Ġpreferences": 8160,
      "ocking": 8161,
      "ĠSarah": 8162,
      "Ġnose": 8163,
      "Ġexplored": 8164,
      "Ġcomposed": 8165,
      "vance": 8166,
      "Ġclassic": 8167,
      "Ġtub": 8168,
      "charge": 8169,
      "ĠIran": 8170,
      "core": 8171,
      "ĠParty": 8172,
      "Ġplanned": 8173,
      "Ġsad": 8174,
      "','": 8175,
      "ĠOper": 8176,
      "Ġgirl": 8177,
      "estions": 8178,
      "ĠFace": 8179,
      "Ġdesert": 8180,
      "dist": 8181,
      "Ġweakness": 8182,
      "ston": 8183,
      "Ġkidney": 8184,
      "sem": 8185,
      "Ġdisaster": 8186,
      "iar": 8187,
      "esides": 8188,
      "Ġautomatically": 8189,
      "ĠSil": 8190,
      "opath": 8191,
      "Ġannounced": 8192,
      "Ġmixture": 8193,
      "ĠChristians": 8194,
      "PE": 8195,
      "ĠPlant": 8196,
      "ading": 8197,
      "Ġscientist": 8198,
      "bug": 8199,
      "Ġurl": 8200,
      "Ġmortality": 8201,
      "Ġassets": 8202,
      "Ġbabies": 8203,
      "Ġordinary": 8204,
      "Ġexpressions": 8205,
      "Ġimprovements": 8206,
      "Ġpurs": 8207,
      "Ġkeeps": 8208,
      "Ġprecise": 8209,
      "Ġdimensions": 8210,
      "Ġslavery": 8211,
      "Ġrender": 8212,
      "Ġpoem": 8213,
      "Ġindicated": 8214,
      "Ġanalyzing": 8215,
      "ĠTogether": 8216,
      "Ġproven": 8217,
      "Ġconsiderable": 8218,
      "connected": 8219,
      "Ġtube": 8220,
      "tem": 8221,
      "Ġmales": 8222,
      "ensional": 8223,
      "Ġfalls": 8224,
      "azine": 8225,
      "Ġlingu": 8226,
      "ĠUlt": 8227,
      "Ġparas": 8228,
      "this": 8229,
      "Ġring": 8230,
      "utely": 8231,
      "Inter": 8232,
      "Ġattach": 8233,
      "Ġbrush": 8234,
      "Ġinspiration": 8235,
      "Ġsigned": 8236,
      "door": 8237,
      "Trans": 8238,
      "EST": 8239,
      "Ġlegisl": 8240,
      "ovascular": 8241,
      "egin": 8242,
      "Ġguard": 8243,
      "Ġchannels": 8244,
      "Ġinsulin": 8245,
      "Ġprofile": 8246,
      "Ġdb": 8247,
      "wind": 8248,
      "Ġavailability": 8249,
      "Ġpanel": 8250,
      "yal": 8251,
      "Ġresid": 8252,
      "elesc": 8253,
      "Ġstrain": 8254,
      "Ġproportion": 8255,
      "Ġlaid": 8256,
      "Ġtraits": 8257,
      "otype": 8258,
      "elfare": 8259,
      "ady": 8260,
      "Ġwonderful": 8261,
      "ĠSat": 8262,
      "lower": 8263,
      "inson": 8264,
      "Ġpin": 8265,
      "Ġmemories": 8266,
      "Ġcash": 8267,
      "Ġproved": 8268,
      "ĠFort": 8269,
      "ude": 8270,
      "Ġtons": 8271,
      "Ġdeclared": 8272,
      "Ġdispar": 8273,
      "ĠProcess": 8274,
      "ĠHoly": 8275,
      "ĠBack": 8276,
      "Ġmeasuring": 8277,
      "Ġuniform": 8278,
      "rypt": 8279,
      "Ġcycl": 8280,
      "Ġfinds": 8281,
      "Ġorigins": 8282,
      "ĠUnfortunately": 8283,
      "Ġdisabilities": 8284,
      "ĠDev": 8285,
      "Ġwine": 8286,
      "Ġextend": 8287,
      "Ġtargeted": 8288,
      "UM": 8289,
      "iture": 8290,
      "Ġvarieties": 8291,
      "Ġrac": 8292,
      "Ġcounsel": 8293,
      "Ġheating": 8294,
      "show": 8295,
      "Ġsenior": 8296,
      "Ġdependent": 8297,
      "čĊĠĠĠĠĠĠĠĠĠĠĠĠĠĠĠ": 8298,
      "Ġperception": 8299,
      "Ġplane": 8300,
      "Ġsatellite": 8301,
      "Ġsensitivity": 8302,
      "azon": 8303,
      ")]": 8304,
      "Ġepis": 8305,
      "ourage": 8306,
      "iah": 8307,
      "------------": 8308,
      "Ġpreparing": 8309,
      "Ġenhancing": 8310,
      "Ġpreserving": 8311,
      "sen": 8312,
      "Ġnorms": 8313,
      "Aut": 8314,
      "Ġattitudes": 8315,
      "Ġidentification": 8316,
      "you": 8317,
      "Ġtact": 8318,
      "lessly": 8319,
      "Ġclub": 8320,
      "Ġscenario": 8321,
      "ĠPot": 8322,
      "ĠNote": 8323,
      "ĠOptional": 8324,
      "Ġexhibit": 8325,
      "Ġmold": 8326,
      "Ġdefend": 8327,
      "roat": 8328,
      "edu": 8329,
      "ĠNaz": 8330,
      "Ġinterface": 8331,
      "ĠIrish": 8332,
      "Ġusual": 8333,
      "Ġtension": 8334,
      "ounce": 8335,
      "Ġelection": 8336,
      "Ġprovider": 8337,
      "telling": 8338,
      "Ġsafely": 8339,
      "lock": 8340,
      "onal": 8341,
      "Ġequation": 8342,
      "Ġmicrob": 8343,
      "Ġcounty": 8344,
      "project": 8345,
      "Ġchest": 8346,
      "night": 8347,
      "Ġprivacy": 8348,
      "Ġremoval": 8349,
      "otypes": 8350,
      "Ġquiet": 8351,
      "ÑĤ": 8352,
      "Ġcontribution": 8353,
      "Ġscope": 8354,
      "Ġdollars": 8355,
      "Ġinhabit": 8356,
      "Ġhusband": 8357,
      "Ġpeer": 8358,
      "Ġchoosing": 8359,
      "ĠBob": 8360,
      "Ġroads": 8361,
      "Ġvel": 8362,
      "ĠSystems": 8363,
      "Ġhem": 8364,
      "Ġinspire": 8365,
      "Ġsampl": 8366,
      "Ġrespiratory": 8367,
      "link": 8368,
      "Ġmetabol": 8369,
      "Ġsensors": 8370,
      "Ġvocabulary": 8371,
      "Ġcelebrate": 8372,
      "Ġwound": 8373,
      "Ġconnecting": 8374,
      "ĠKingdom": 8375,
      "Ġouter": 8376,
      "Ġtract": 8377,
      "Ġintensity": 8378,
      "Ġextraordinary": 8379,
      "Ġexperimental": 8380,
      "opol": 8381,
      "ĠMel": 8382,
      "ĠMen": 8383,
      "Ġfacility": 8384,
      "ĠStrateg": 8385,
      "Ġaudio": 8386,
      "Ġmarginal": 8387,
      "ĠBuilding": 8388,
      "Ġfaculty": 8389,
      "Ġwindows": 8390,
      "ĠPo": 8391,
      "Ġecological": 8392,
      "graph": 8393,
      "ĠApplic": 8394,
      "Ġritual": 8395,
      "Ġprotective": 8396,
      "Ġfinger": 8397,
      "akistan": 8398,
      "%)": 8399,
      "Che": 8400,
      "Ġdispos": 8401,
      "EE": 8402,
      "Ġdriven": 8403,
      "Ġirrit": 8404,
      "haust": 8405,
      "brid": 8406,
      "heric": 8407,
      "ĠHand": 8408,
      "Example": 8409,
      "uid": 8410,
      "Ġimaging": 8411,
      "Ġturb": 8412,
      "items": 8413,
      "={": 8414,
      "Ġwarning": 8415,
      "Ġhorses": 8416,
      "Ġgut": 8417,
      "Ġfeat": 8418,
      "Ġdecreased": 8419,
      "Ġlie": 8420,
      "Ġmaintained": 8421,
      "Ġprospect": 8422,
      "Ġcoverage": 8423,
      "Ġminute": 8424,
      "Ġopinions": 8425,
      "emia": 8426,
      "Ġstere": 8427,
      "Ġvector": 8428,
      "ĠLook": 8429,
      "query": 8430,
      "Ġessays": 8431,
      "Ġabsolute": 8432,
      "Ġgalax": 8433,
      "Ġtheoretical": 8434,
      "ĠIslamic": 8435,
      "Ġspectrum": 8436,
      "Ġmicrosc": 8437,
      "Ġalive": 8438,
      "Ġhonest": 8439,
      "Ġdriver": 8440,
      "ĠJohnson": 8441,
      "ĠYear": 8442,
      "Ġinteractive": 8443,
      "Ġprohib": 8444,
      "ĠImport": 8445,
      "Ġcalculated": 8446,
      "Ġhoney": 8447,
      "ivered": 8448,
      "ustain": 8449,
      "Ġsoph": 8450,
      "cf": 8451,
      "Ġgiant": 8452,
      "ĠZeal": 8453,
      "Ġintrig": 8454,
      "ĠLearn": 8455,
      "Ġcoc": 8456,
      "ĠBusiness": 8457,
      "ipher": 8458,
      "Ġcaptiv": 8459,
      "Ġstrange": 8460,
      "ĠAtlantic": 8461,
      "IDS": 8462,
      "Ġdietary": 8463,
      "sg": 8464,
      "Ġearthqu": 8465,
      "rous": 8466,
      "Ġadvances": 8467,
      "Ġanywhere": 8468,
      "Ġhur": 8469,
      "Ġpounds": 8470,
      "Ġdefect": 8471,
      "emplate": 8472,
      "ailing": 8473,
      "Ġspir": 8474,
      "ĠMartin": 8475,
      "itamin": 8476,
      "Ġbreeding": 8477,
      "ĠAst": 8478,
      "ohyd": 8479,
      "Ġtranslation": 8480,
      "Ġprocessed": 8481,
      "Ġtempl": 8482,
      "ĠSuper": 8483,
      "hyd": 8484,
      "iological": 8485,
      "tr": 8486,
      "Ġvarying": 8487,
      "iox": 8488,
      "ĠInteg": 8489,
      "CP": 8490,
      "Ġcooperation": 8491,
      "oded": 8492,
      "ideo": 8493,
      "Ġofficers": 8494,
      "ĠSafety": 8495,
      "Ġsilver": 8496,
      "ĊĠĠĠĠĠĠĠĠĠĠĠĠĠĠĠĠĠĠĠĠĠĠĠĠĠĠĠĠĠĠĠĠĠĠĠĠĠĠĠĠ": 8497,
      "ĠHall": 8498,
      "Ġabnormal": 8499,
      "ĠGrand": 8500,
      "ĠForest": 8501,
      "Ġevil": 8502,
      "Ġceremon": 8503,
      "working": 8504,
      "oric": 8505,
      "Tra": 8506,
      "Ġparagraph": 8507,
      "Ġvan": 8508,
      "ĠPlay": 8509,
      "Ġencomp": 8510,
      "itarian": 8511,
      "igan": 8512,
      "Ġrecover": 8513,
      "uris": 8514,
      "Ġreporting": 8515,
      "Ġholes": 8516,
      "Ġquery": 8517,
      "DS": 8518,
      "Ġrarely": 8519,
      "Hist": 8520,
      "ĠSecret": 8521,
      "Ġflower": 8522,
      "ĠOxford": 8523,
      "Ġcomplications": 8524,
      "Ġlosses": 8525,
      "Ġmigration": 8526,
      "Class": 8527,
      "Ġtick": 8528,
      "Ġprincipal": 8529,
      "FA": 8530,
      "Ġeliminate": 8531,
      "Ġreverse": 8532,
      "Ġcovering": 8533,
      "Ġscenarios": 8534,
      "Ġintest": 8535,
      "igned": 8536,
      "Ġhaven": 8537,
      "Ġreasonable": 8538,
      "Ġbias": 8539,
      "Ġprofit": 8540,
      "Ġ;": 8541,
      "Ġsentences": 8542,
      "Ġaccompan": 8543,
      "Â·": 8544,
      "Ġcopper": 8545,
      "Ġcream": 8546,
      "iber": 8547,
      "nals": 8548,
      "Ġtelevision": 8549,
      "Ġroughly": 8550,
      "ĠResources": 8551,
      "ĠDou": 8552,
      "Ġrecall": 8553,
      "Ġtaxes": 8554,
      "ernel": 8555,
      "Ġabsence": 8556,
      "Ġcentre": 8557,
      "ĠEp": 8558,
      "ync": 8559,
      "ĠFund": 8560,
      "prene": 8561,
      "filter": 8562,
      "Ġseemingly": 8563,
      "Ġpackage": 8564,
      "Ġcompound": 8565,
      "Ġperceived": 8566,
      "Ġdominant": 8567,
      "Ġclaimed": 8568,
      "Ġcommittee": 8569,
      "ĠZealand": 8570,
      "ĠEngineering": 8571,
      "archy": 8572,
      "Ġfault": 8573,
      "Ġcommission": 8574,
      "Ġhardware": 8575,
      "feed": 8576,
      "Ġflavor": 8577,
      "ĠTom": 8578,
      "Ġphysically": 8579,
      "Ġembracing": 8580,
      "alog": 8581,
      "mentation": 8582,
      "Ġtrace": 8583,
      "peutic": 8584,
      "Ġislands": 8585,
      "Ġaccurately": 8586,
      "ĠAlice": 8587,
      "Ġorbit": 8588,
      "Ġconsume": 8589,
      "ĠBill": 8590,
      "Ġcollections": 8591,
      "Ġfunctioning": 8592,
      "Ġpregnant": 8593,
      "Ġmutual": 8594,
      "Ġcoding": 8595,
      "ĠSup": 8596,
      "Every": 8597,
      "Ġdil": 8598,
      "eping": 8599,
      "rance": 8600,
      "Ġreflection": 8601,
      "Ġsuscept": 8602,
      "Ġradical": 8603,
      "Ġcab": 8604,
      "reprene": 8605,
      "Ġbalanced": 8606,
      "ĠConsequently": 8607,
      "Ġven": 8608,
      "Ġcrew": 8609,
      "Ġvariation": 8610,
      "Ġmemor": 8611,
      "=(": 8612,
      "ĠChristmas": 8613,
      "including": 8614,
      "Ġtip": 8615,
      "osh": 8616,
      "ĠNum": 8617,
      "ĠNetwork": 8618,
      "ĠLead": 8619,
      "Ġfing": 8620,
      "Ġminimal": 8621,
      "chain": 8622,
      "Ġdish": 8623,
      "ĠHT": 8624,
      "ĠIndians": 8625,
      "Ġfourth": 8626,
      "ĠOrig": 8627,
      "Ġlogic": 8628,
      "Ġembark": 8629,
      "Ġconqu": 8630,
      "Ġflows": 8631,
      "aska": 8632,
      "Ġconfirmed": 8633,
      "miss": 8634,
      "Ġedition": 8635,
      "Ġlists": 8636,
      "ĠAgency": 8637,
      "Ġarrest": 8638,
      "found": 8639,
      "Ġharder": 8640,
      "cyclop": 8641,
      "Ġlock": 8642,
      "ĠOnline": 8643,
      "ECT": 8644,
      "Ġheads": 8645,
      "Ġrequests": 8646,
      "Ġconsciousness": 8647,
      "Ġov": 8648,
      "uscript": 8649,
      "Because": 8650,
      "Ġdesigning": 8651,
      "ocolate": 8652,
      "Ġwheel": 8653,
      "Ġinvestigate": 8654,
      "Ġtow": 8655,
      "Ġbreaking": 8656,
      "Ġflexibility": 8657,
      "Ġnodes": 8658,
      "ga": 8659,
      "Ġgrain": 8660,
      "Ġsoul": 8661,
      "Ġcham": 8662,
      "Ġreferences": 8663,
      "Ġinfo": 8664,
      "Ġexamined": 8665,
      "ĠMove": 8666,
      "heimer": 8667,
      "Ġquantum": 8668,
      "igue": 8669,
      "ĠHill": 8670,
      "ĠSwed": 8671,
      "Ġfo": 8672,
      "rection": 8673,
      "PL": 8674,
      "Ġbatt": 8675,
      "Ġwondered": 8676,
      "ensed": 8677,
      "Ġvertical": 8678,
      "ulpt": 8679,
      "ĠOrganization": 8680,
      "ersion": 8681,
      "Ġvibrant": 8682,
      "Ġflexible": 8683,
      "Ġduration": 8684,
      "Ġopposed": 8685,
      "Ġrational": 8686,
      "Ġlake": 8687,
      "ĠEqu": 8688,
      "cut": 8689,
      "Next": 8690,
      "ĠLim": 8691,
      "otherapy": 8692,
      "ĠThree": 8693,
      "rize": 8694,
      "Ġherself": 8695,
      "csv": 8696,
      "ĠMer": 8697,
      "emb": 8698,
      "alities": 8699,
      "Ġlighting": 8700,
      "ĠFact": 8701,
      "ĠAR": 8702,
      "ĠNorm": 8703,
      "Ġye": 8704,
      "common": 8705,
      "Ġparameter": 8706,
      "Ġbrow": 8707,
      "ruit": 8708,
      "hema": 8709,
      "ĠBal": 8710,
      "Ġauthentic": 8711,
      "Ġphrase": 8712,
      "ĠHosp": 8713,
      "Ġchlor": 8714,
      "Ġmountains": 8715,
      "Ġcontributes": 8716,
      "reams": 8717,
      "abeth": 8718,
      "Ġgranted": 8719,
      "Ġlibraries": 8720,
      "Cons": 8721,
      "Ġfishing": 8722,
      "Ġscreening": 8723,
      "Ġbag": 8724,
      "ĠLittle": 8725,
      "ĠContin": 8726,
      "etary": 8727,
      "Ġsurprise": 8728,
      "ĠDen": 8729,
      "anted": 8730,
      "Ġsuperior": 8731,
      "Ġacquired": 8732,
      "ĠAuthor": 8733,
      "Ġmanifest": 8734,
      "covery": 8735,
      "Ġrose": 8736,
      "Ġspark": 8737,
      "Ġhazard": 8738,
      "Ġanticip": 8739,
      "Ġcalling": 8740,
      "icy": 8741,
      "sex": 8742,
      "Ġprobability": 8743,
      "Ġcalories": 8744,
      "Ġresearcher": 8745,
      "Ġachieving": 8746,
      "Ġcurve": 8747,
      "Ġdetected": 8748,
      "ĠCle": 8749,
      "Ġdelivered": 8750,
      "Ġworship": 8751,
      "Ġpond": 8752,
      "idation": 8753,
      "Ġbene": 8754,
      "Ġmineral": 8755,
      "Ġgrows": 8756,
      "Just": 8757,
      "Ġtempor": 8758,
      "Ġloop": 8759,
      "ura": 8760,
      "Ġsensor": 8761,
      "ĠPlease": 8762,
      "Ġclassical": 8763,
      "Ġfra": 8764,
      "Ġlandscapes": 8765,
      "Ġexceed": 8766,
      "Ġpeers": 8767,
      "Ġdose": 8768,
      "IO": 8769,
      "Ġsaved": 8770,
      "Ġnumer": 8771,
      "uten": 8772,
      "Ġsculpt": 8773,
      "Ġtemple": 8774,
      "Ġpreced": 8775,
      "ĠPoint": 8776,
      "Ġextension": 8777,
      "Ġcompetitive": 8778,
      "Ġpropag": 8779,
      "Ġphenomena": 8780,
      "olar": 8781,
      "Ġmotivation": 8782,
      "Ġsongs": 8783,
      ".).": 8784,
      "Ġglobe": 8785,
      "ĠPolicy": 8786,
      "Ġappeal": 8787,
      "Ġdemocracy": 8788,
      "Def": 8789,
      "Ġinfant": 8790,
      "Ġabsor": 8791,
      "Ġunders": 8792,
      "pie": 8793,
      "Ġvisited": 8794,
      "irms": 8795,
      "ĠFigure": 8796,
      "clusions": 8797,
      "Ġease": 8798,
      "ĠReading": 8799,
      "Ġbiom": 8800,
      "venile": 8801,
      "Ġdiameter": 8802,
      "Ġdishes": 8803,
      "Ġisolated": 8804,
      "peror": 8805,
      "Ġclothes": 8806,
      "eta": 8807,
      "ĠPractice": 8808,
      "ĠAdministration": 8809,
      "ĠHeb": 8810,
      "Ġcooling": 8811,
      "ĠCross": 8812,
      "Ġdetermining": 8813,
      "uis": 8814,
      "oston": 8815,
      "amps": 8816,
      "Ġtowns": 8817,
      "čĊčĊĠĠĠ": 8818,
      "Ġcopyright": 8819,
      "Ġbeneath": 8820,
      "Ġpassword": 8821,
      "ĠAssess": 8822,
      "through": 8823,
      "Ġexpanded": 8824,
      "Ġcas": 8825,
      "Ġdetermination": 8826,
      "raints": 8827,
      "Ð½": 8828,
      "Ġpandemic": 8829,
      "Ġadvancements": 8830,
      "ĠJul": 8831,
      "oln": 8832,
      "mask": 8833,
      "Ġalternatives": 8834,
      "acent": 8835,
      "Ġsurge": 8836,
      "Ġstations": 8837,
      "ĠPakistan": 8838,
      "left": 8839,
      "Ġenhanced": 8840,
      "Ġneural": 8841,
      "Ġsuffered": 8842,
      "Ġcompos": 8843,
      "ĠConnect": 8844,
      "Ġfrust": 8845,
      "Ġtemporary": 8846,
      "ogenic": 8847,
      "ptic": 8848,
      "Table": 8849,
      "Ġgast": 8850,
      "roud": 8851,
      "ĠLow": 8852,
      "Ġchemistry": 8853,
      "power": 8854,
      "perm": 8855,
      "unct": 8856,
      "xy": 8857,
      "Ġcontexts": 8858,
      "ĠAngel": 8859,
      "Ġversus": 8860,
      "Ġmanager": 8861,
      "Ġhabitats": 8862,
      "ĊĊĠ": 8863,
      "Ġraising": 8864,
      "ĠWindows": 8865,
      "oons": 8866,
      "Ġdisability": 8867,
      "Ġbreed": 8868,
      "ĠMoon": 8869,
      "rin": 8870,
      "adder": 8871,
      "ĠWithout": 8872,
      "anger": 8873,
      "aped": 8874,
      "Ġlosing": 8875,
      "Ġaest": 8876,
      "Ġgrains": 8877,
      "Ġstakeholders": 8878,
      "ĠDistrict": 8879,
      "aved": 8880,
      "Ġblank": 8881,
      "Ġordered": 8882,
      "clude": 8883,
      "ĠObs": 8884,
      "Ġelsewhere": 8885,
      "Ġkeys": 8886,
      "Ġelder": 8887,
      "'))": 8888,
      "Ġgathered": 8889,
      "Ġwheat": 8890,
      "fix": 8891,
      "Ġunity": 8892,
      "Ġvisiting": 8893,
      "Ġles": 8894,
      "math": 8895,
      "ĠDown": 8896,
      "Ġhier": 8897,
      "Ġsubmit": 8898,
      "product": 8899,
      "iana": 8900,
      "OW": 8901,
      "Ġluck": 8902,
      "Ġhappiness": 8903,
      "kind": 8904,
      "Ġdrag": 8905,
      "Ġadolesc": 8906,
      "quir": 8907,
      "advant": 8908,
      "Ġearliest": 8909,
      "Ġhence": 8910,
      "Ġaddressed": 8911,
      "Ġhormone": 8912,
      "Ġexcited": 8913,
      "Ġtribes": 8914,
      "riz": 8915,
      "ĠCrit": 8916,
      "ĠFour": 8917,
      "creen": 8918,
      "Ġsuddenly": 8919,
      "ĠRoad": 8920,
      "Ġcontrolling": 8921,
      "mail": 8922,
      "Ġexhaust": 8923,
      "ĠID": 8924,
      "Note": 8925,
      "icular": 8926,
      "onent": 8927,
      "rolled": 8928,
      "Ġtelling": 8929,
      "Ġaged": 8930,
      "Ġconj": 8931,
      "Ġcolumns": 8932,
      "ĠSpirit": 8933,
      "Ġacute": 8934,
      "Ġedges": 8935,
      "Ġdirections": 8936,
      "Ġasc": 8937,
      "Ġtropical": 8938,
      "oured": 8939,
      "Ġcountless": 8940,
      "Ġparad": 8941,
      "Ġsaving": 8942,
      "Ġvoices": 8943,
      "Ġacting": 8944,
      "ĠMath": 8945,
      "Ġmine": 8946,
      "ema": 8947,
      "Ġhunting": 8948,
      "Ġseat": 8949,
      "Ġterror": 8950,
      "ricts": 8951,
      "ĠPath": 8952,
      "Ġbuff": 8953,
      "ĠSir": 8954,
      "Ġbomb": 8955,
      "Co": 8956,
      "oids": 8957,
      "Ġmanual": 8958,
      "Ġviewed": 8959,
      "Ġsatisfact": 8960,
      "Ġunion": 8961,
      "NS": 8962,
      "ĠHarv": 8963,
      "Ġdisag": 8964,
      "ĠCast": 8965,
      "ĠLog": 8966,
      "CA": 8967,
      "rh": 8968,
      "ĠArticle": 8969,
      "Ġdecay": 8970,
      "aration": 8971,
      "mal": 8972,
      "Ġstopped": 8973,
      "ĠRock": 8974,
      "TER": 8975,
      "only": 8976,
      "ĠCentre": 8977,
      "books": 8978,
      "vi": 8979,
      "Ġoccurring": 8980,
      "Ġchose": 8981,
      "ATION": 8982,
      "Ġfed": 8983,
      "cult": 8984,
      "Ġintegrity": 8985,
      "Ġstones": 8986,
      "ĠWall": 8987,
      "Ġcandidate": 8988,
      "ĠTop": 8989,
      "Ġcombine": 8990,
      "ĠVen": 8991,
      "ĠJac": 8992,
      "Ġpreferred": 8993,
      "anned": 8994,
      "Î±": 8995,
      "asant": 8996,
      "msg": 8997,
      "context": 8998,
      "Ġthermal": 8999,
      "Ġscr": 9000,
      "Ġnitrogen": 9001,
      "ega": 9002,
      "Ġpestic": 9003,
      "ometric": 9004,
      "ĠHor": 9005,
      "Ġlegacy": 9006,
      "ui": 9007,
      "pdf": 9008,
      "iability": 9009,
      "izabeth": 9010,
      "Ġgently": 9011,
      "Ġcluster": 9012,
      "Ġachievement": 9013,
      "ĠLight": 9014,
      "Ġstreets": 9015,
      "Ġmagic": 9016,
      "pi": 9017,
      "exist": 9018,
      "Ġfarms": 9019,
      "Ã¤": 9020,
      "Ġphosph": 9021,
      "Ġshoot": 9022,
      "Inf": 9023,
      "Ġfalling": 9024,
      "Ġremoving": 9025,
      "Ġtales": 9026,
      "Ġtight": 9027,
      "Ġequipped": 9028,
      "mond": 9029,
      "non": 9030,
      "Ġspatial": 9031,
      "Ġamidst": 9032,
      "Ġgrades": 9033,
      "Ġbacterial": 9034,
      "Ġattributes": 9035,
      "ĠProp": 9036,
      "Ġinvolvement": 9037,
      "Ġhighlights": 9038,
      "Ne": 9039,
      "Ġvig": 9040,
      "Ġquantity": 9041,
      "Ġgenu": 9042,
      "ĠCase": 9043,
      "txt": 9044,
      "Ġdefinitely": 9045,
      "ĠCE": 9046,
      "Ġasthma": 9047,
      "century": 9048,
      "cipe": 9049,
      "Ġevening": 9050,
      "Ġillegal": 9051,
      "QL": 9052,
      "best": 9053,
      "Ġpaying": 9054,
      "likely": 9055,
      "ĠMach": 9056,
      "Ġduty": 9057,
      "char": 9058,
      "ĠPass": 9059,
      "fields": 9060,
      "Ġwearing": 9061,
      "Ġvitamins": 9062,
      "Ġsuit": 9063,
      "Ġdirected": 9064,
      "Ġcort": 9065,
      "Ġelected": 9066,
      "regation": 9067,
      "Ġcalm": 9068,
      "Ġdiscipline": 9069,
      "Ġpointed": 9070,
      "ioxid": 9071,
      "Ġseparated": 9072,
      "Ġnutrient": 9073,
      "Ġmagical": 9074,
      "duate": 9075,
      "Ġplain": 9076,
      "zheimer": 9077,
      "ATE": 9078,
      "angered": 9079,
      "Ġauto": 9080,
      "omer": 9081,
      "Welcome": 9082,
      "imm": 9083,
      "iments": 9084,
      "CR": 9085,
      "inition": 9086,
      "ĠUr": 9087,
      "ĠTable": 9088,
      "acies": 9089,
      "irth": 9090,
      "Ġdiffer": 9091,
      "Ġwrites": 9092,
      "ĠKorea": 9093,
      "ĠReturns": 9094,
      "Ġtrigger": 9095,
      "ctors": 9096,
      "Ġdivine": 9097,
      "Ġmistakes": 9098,
      "Ġbreaks": 9099,
      "ĠCoast": 9100,
      "Ġpd": 9101,
      "raq": 9102,
      "una": 9103,
      "Ġownership": 9104,
      "Ġspan": 9105,
      "Ġmanufacturers": 9106,
      "after": 9107,
[...]
